<pad>
<unk>
<D>
<0x00>
<0x01>
<0x02>
<0x03>
<0x04>
<0x05>
<0x06>
<0x07>
<0x08>
<0x09>
<0x0A>
<0x0B>
<0x0C>
<0x0D>
<0x0E>
<0x0F>
<0x10>
<0x11>
<0x12>
<0x13>
<0x14>
<0x15>
<0x16>
<0x17>
<0x18>
<0x19>
<0x1A>
<0x1B>
<0x1C>
<0x1D>
<0x1E>
<0x1F>
<0x20>
<0x21>
<0x22>
<0x23>
<0x24>
<0x25>
<0x26>
<0x27>
<0x28>
<0x29>
<0x2A>
<0x2B>
<0x2C>
<0x2D>
<0x2E>
<0x2F>
<0x30>
<0x31>
<0x32>
<0x33>
<0x34>
<0x35>
<0x36>
<0x37>
<0x38>
<0x39>
<0x3A>
<0x3B>
<0x3C>
<0x3D>
<0x3E>
<0x3F>
<0x40>
<0x41>
<0x42>
<0x43>
<0x44>
<0x45>
<0x46>
<0x47>
<0x48>
<0x49>
<0x4A>
<0x4B>
<0x4C>
<0x4D>
<0x4E>
<0x4F>
<0x50>
<0x51>
<0x52>
<0x53>
<0x54>
<0x55>
<0x56>
<0x57>
<0x58>
<0x59>
<0x5A>
<0x5B>
<0x5C>
<0x5D>
<0x5E>
<0x5F>
<0x60>
<0x61>
<0x62>
<0x63>
<0x64>
<0x65>
<0x66>
<0x67>
<0x68>
<0x69>
<0x6A>
<0x6B>
<0x6C>
<0x6D>
<0x6E>
<0x6F>
<0x70>
<0x71>
<0x72>
<0x73>
<0x74>
<0x75>
<0x76>
<0x77>
<0x78>
<0x79>
<0x7A>
<0x7B>
<0x7C>
<0x7D>
<0x7E>
<0x7F>
<0x80>
<0x81>
<0x82>
<0x83>
<0x84>
<0x85>
<0x86>
<0x87>
<0x88>
<0x89>
<0x8A>
<0x8B>
<0x8C>
<0x8D>
<0x8E>
<0x8F>
<0x90>
<0x91>
<0x92>
<0x93>
<0x94>
<0x95>
<0x96>
<0x97>
<0x98>
<0x99>
<0x9A>
<0x9B>
<0x9C>
<0x9D>
<0x9E>
<0x9F>
<0xA0>
<0xA1>
<0xA2>
<0xA3>
<0xA4>
<0xA5>
<0xA6>
<0xA7>
<0xA8>
<0xA9>
<0xAA>
<0xAB>
<0xAC>
<0xAD>
<0xAE>
<0xAF>
<0xB0>
<0xB1>
<0xB2>
<0xB3>
<0xB4>
<0xB5>
<0xB6>
<0xB7>
<0xB8>
<0xB9>
<0xBA>
<0xBB>
<0xBC>
<0xBD>
<0xBE>
<0xBF>
<0xC0>
<0xC1>
<0xC2>
<0xC3>
<0xC4>
<0xC5>
<0xC6>
<0xC7>
<0xC8>
<0xC9>
<0xCA>
<0xCB>
<0xCC>
<0xCD>
<0xCE>
<0xCF>
<0xD0>
<0xD1>
<0xD2>
<0xD3>
<0xD4>
<0xD5>
<0xD6>
<0xD7>
<0xD8>
<0xD9>
<0xDA>
<0xDB>
<0xDC>
<0xDD>
<0xDE>
<0xDF>
<0xE0>
<0xE1>
<0xE2>
<0xE3>
<0xE4>
<0xE5>
<0xE6>
<0xE7>
<0xE8>
<0xE9>
<0xEA>
<0xEB>
<0xEC>
<0xED>
<0xEE>
<0xEF>
<0xF0>
<0xF1>
<0xF2>
<0xF3>
<0xF4>
<0xF5>
<0xF6>
<0xF7>
<0xF8>
<0xF9>
<0xFA>
<0xFB>
<0xFC>
<0xFD>
<0xFE>
<0xFF>
e▁
▁t
▁a
s▁
d▁
▁th
in
t▁
er
,▁
▁s
▁o
.▁
▁w
▁the▁
▁h
n▁
y▁
o▁
▁b
ou
▁c
re
or
▁f
ing
ed▁
nd▁
f▁
▁m
en
on
it
▁p
ar
▁of▁
at
▁and▁
▁d
ing▁
al
▁to▁
▁in
an
er▁
▁l
h▁
▁a▁
es
om
ic
is▁
el
▁I
is
▁n
▁in▁
il
at▁
▁g
▁e
ow
▁T
en▁
es▁
▁wa
▁ha
▁re
ac
▁"
im
l▁
he▁
▁wh
ur
"▁
as
us
ro
▁y
th
▁S
on▁
▁A
ec
or▁
▁was▁
id
ol
ig
ly▁
r▁
▁that▁
▁st
ve▁
k▁
ed
al▁
em
▁I▁
▁you
an▁
am
ent
os
et
ion
un
ut▁
▁H
▁wit
▁i
oo
▁C
▁M
ion▁
▁for▁
ere▁
▁B
▁with▁
▁al
ad
▁is▁
▁his▁
ver
le▁
▁be
▁he▁
▁as▁
ir
▁on▁
oul
▁r
▁the
▁W
▁ar
p▁
ot▁
▁it▁
igh
▁fr
▁had▁
ul
ain
om▁
▁sh
▁P
▁on
le
▁The▁
ut
ent▁
▁k
a▁
."▁
ould▁
uc
▁con
ay
pp
ri
ag
▁you▁
ow▁
ter
▁_
ak
▁at▁
ot
▁Th
▁her▁
ch
▁be▁
ear
▁li
st
▁an
ab
▁D
▁se
▁ch
▁F
ew
_▁
▁sa
um
▁R
▁L
▁from▁
oug
▁ex
ist
▁v
▁(
▁com
and
▁G
qu
ff
op
▁not▁
ce▁
▁un
▁u
▁it
ap
▁E
▁have▁
▁N
▁by▁
et▁
▁pro
iv
res
oc
:▁
▁him
▁J
ir▁
▁or▁
▁she▁
▁ab
ore▁
▁but▁
id▁
ted▁
ation
▁tr
ver▁
ay▁
▁were▁
ter▁
▁wor
▁sp
▁are▁
▁j
▁'
ep
▁O
▁this▁
▁my▁
ther▁
od
out▁
▁an▁
ation▁
'▁
▁int
ic▁
▁they▁
g▁
,"▁
ill▁
ea
ers
;▁
oun
all
▁He▁
est
ess
m▁
▁kn
ect
▁som
ers▁
ke▁
ight▁
▁ne
▁me
▁ac
ew▁
▁pl
ill
▁their▁
▁su
▁would▁
if
▁them
ate▁
ive▁
ell
ked▁
ust▁
pl
▁one▁
ar▁
▁all▁
ally▁
og
▁de
ud
▁en
ort
**
our
▁cl
ity▁
ough▁
ight
▁we▁
ich▁
▁le
▁ag
ra
▁been▁
▁out▁
ath
▁into▁
▁about▁
ess▁
ack▁
ce
red▁
▁tim
▁as
ous
ant
art
st▁
ant▁
▁up▁
▁gr
?"▁
ang
ame▁
ov
▁im
?▁
▁who▁
▁which▁
ure▁
▁your▁
ard
▁K
end
iz
▁so▁
▁us
ound▁
ake▁
▁ro
ies▁
▁what▁
▁di
▁,▁
)▁
▁ev
▁Y
▁more▁
▁do
▁when▁
ough
own▁
in▁
▁like▁
▁Wh
one▁
▁him▁
▁if▁
ere
▁could▁
ly
ib
king▁
ose▁
▁can▁
ost▁
▁Ch
per
▁dis
ug
ain▁
el▁
▁qu
ey▁
uch▁
▁me▁
▁It▁
▁bl
▁for
▁man
▁tw
bl
ood▁
der
thing▁
▁She▁
▁ad
it▁
ook▁
▁he
ated▁
sel
ong▁
ous▁
▁cont
ie
est▁
▁no▁
▁bec
ard▁
I▁
av
▁res
▁St
ical▁
ind▁
ens
aus
ell▁
very▁
▁pr
▁fl
ren
ide▁
ast▁
▁said
and▁
▁pe
act
▁will▁
all▁
ass
▁go
▁U
itt
ine▁
tt
▁than▁
ur▁
ch▁
ely▁
▁them▁
ice▁
▁br
il▁
▁sc
▁In▁
▁thr
ace▁
ence▁
▁has▁
▁there▁
ress
ast
ial▁
▁do▁
ack
ob
▁fir
▁just▁
ip
ind
▁sm
ish
▁only▁
ee
▁V
▁app
ite▁
▁per
ary▁
▁pre
▁.▁
▁some▁
ese▁
oll
▁But▁
▁fe
able▁
ure
ned▁
▁its▁
ore
▁other▁
ou▁
▁over▁
age▁
th▁
ade▁
ts▁
der▁
ach
ions▁
ks▁
▁said▁
▁cr
re▁
fter▁
▁back▁
ge▁
▁of
▁to
▁then▁
ong
old▁
ther
▁loo
w▁
▁or
ust
▁our▁
ll▁
▁bet
ans
ad▁
▁time▁
ound
▁sl
▁**
▁rec
i▁
ause▁
▁some
ting▁
for
ome▁
ays▁
ile▁
ance▁
▁comp
cl
▁thin
▁peop
anc
▁A▁
▁po
ry▁
se
duc
▁rem
▁des
ity
▁even▁
▁In
so▁
ate
we
▁inter
**▁
ings▁
ents▁
▁year
▁two▁
▁comm
▁again
▁aw
▁str
▁off
▁And▁
▁bef
..
▁don
ue▁
##
▁el
iss
▁through▁
▁out
se▁
us▁
▁imp
▁gre
ood
▁did
▁get▁
ies
▁–
ish▁
▁em
▁acc
▁pos
▁any▁
ach▁
▁how▁
▁att
▁down▁
ide
▁lif
sh
erv
ld▁
ct
▁also▁
▁up
▁see▁
).▁
ought▁
ment▁
▁know▁
▁hear
ail
▁with
▁first▁
▁ow
▁did▁
),▁
▁her
ning▁
ick
ead▁
▁hel
.'▁
ul▁
ree▁
▁hand
▁tur
x▁
▁co
are
ild
emb
ev
▁rel
▁where▁
ult
▁bo
ey
▁An
▁op
▁wat
▁ey
▁made▁
ect▁
other▁
▁part
▁we
▁This▁
Th
ian▁
▁after▁
▁that
▁ph
ory▁
rit
ry
▁way▁
▁dec
ans▁
our▁
▁didn
▁very▁
▁They▁
vers
ious▁
▁so
▁cons
am▁
▁most▁
▁rep
▁gl
▁before▁
erm
ert
▁par
▁these▁
led▁
▁because▁
▁make▁
The▁
ving▁
▁people▁
dn
▁ind
▁exp
▁much▁
mer
ia▁
ine
▁car
ond
ord
as▁
▁te
old
▁any
▁gu
Wh
ace
pped▁
▁diff
▁Al
▁mar
▁mon
ign
enc
▁bel
ort▁
▁am
▁not
ered▁
▁act
▁cre
▁Un
own
ittle▁
▁never▁
▁still▁
aking▁
ict
ub
▁sec
▁–▁
▁sur
ire
▁such▁
ations▁
self▁
▁all
ist▁
very
ove▁
amp
▁pol
ith
▁ass
▁seem
ros
▁la
ugh
▁wom
▁bot
pt
▁bre
▁ins
▁Mar
li
ft▁
▁beg
▁Sh
▁many▁
▁those▁
ating▁
▁little▁
ount
olog
▁no
▁ob
ase▁
▁ear
▁pers
ved▁
▁think▁
▁around▁
▁can
▁dr
rib
ween▁
▁pres
ys
ful▁
▁should▁
ice
▁going▁
eg
ather▁
▁own▁
▁being▁
▁might▁
▁new▁
▁If▁
▁was
▁inv
!▁
▁under
▁off▁
ual▁
▁We▁
▁now▁
umb
▁there
*▁
▁between▁
▁go▁
▁may▁
▁take▁
ubl
▁mat
▁us▁
ia
▁ent
oy
ily▁
form
ons
▁mov
▁good▁
ence
▁sy
ment
ise▁
ie▁
ied▁
▁man▁
▁know
▁You▁
ear▁
▁want▁
▁*▁
▁min
▁Ar
ener
▁happ
▁call
str
orn
▁star
▁As▁
ors▁
▁supp
▁ref
▁fam
▁When▁
▁cour
one
▁got▁
ions
▁came▁
▁ret
▁looked▁
▁fin
ady▁
▁time
▁sk
▁come▁
ying▁
ich
eb
ef
▁bu
meric
▁sw
|▁
▁There▁
▁sub
ited▁
▁long▁
are▁
iet
ph
▁something▁
▁disc
▁Fr
ash
▁tal
ried▁
air
ks
▁same▁
oh
▁inc
ond▁
ouldn
az
ick▁
▁poin
ge
▁took▁
▁cle
▁reg
▁say
▁is
▁On
vel
▁too▁
▁beh
ves▁
▁unt
ates▁
und
ition▁
▁differ
▁hous
ened▁
▁few▁
▁every
▁|▁
age
▁sim
ance
▁thought▁
▁against▁
ip▁
▁Americ
▁must▁
▁lat
▁each▁
▁over
▁bro
▁while▁
▁dist
up
ually▁
▁##
▁went▁
▁foll
▁both▁
ways▁
inc
▁told▁
ex
ement▁
als▁
gl
uring▁
ched▁
▁right▁
E▁
aw
ince▁
You▁
pr
ible▁
▁another▁
▁conf
▁head
▁tre
ost
▁without▁
▁pow
▁def
owing▁
▁need▁
▁war
ld
ett
▁found▁
ave▁
▁tow
▁eff
ition
▁hum
▁chang
ath▁
ome
ious
▁wr
▁until▁
ept▁
S▁
owed▁
▁back
ont
▁work▁
▁conc
cc
ive
▁bod
▁resp
▁every▁
!"▁
▁For▁
▁trans
▁always▁
ue
um▁
elt▁
▁char
▁En
ative▁
ally
▁lea
▁His▁
▁put▁
▁col
▁cent
ds▁
▁knew▁
▁belie
▁years▁
les▁
clud
▁left▁
gr
act▁
.,▁
▁lar
▁soc
▁arm
▁stud
▁poss
,'▁
▁find▁
tern
▁mom
▁now
▁form
ized▁
▁expl
▁ext
icul
▁wal
▁day
ept
▁three▁
ings
▁well▁
▁look▁
ve
▁inst
ared▁
uct
▁pass
ire▁
uth
ock
▁child
▁sens
ush
ass▁
ected▁
▁sch
ors
▁here
▁giv
ether▁
▁under▁
wh
ech
em▁
ever
▁vi
▁It
▁ste
att
ix
▁dep
▁used▁
ets▁
iel
ann
▁last▁
▁she
ters▁
anted▁
yp
▁exper
▁old▁
ained▁
▁long
▁det
_.▁
ten▁
▁vis
▁won
▁add
▁spec
▁publ
xt▁
▁eyes▁
ember▁
▁underst
ark
ness▁
ished▁
▁real
ational▁
▁use▁
eep▁
erg
ret
thing
▁cap
ee▁
▁compl
▁great▁
ful
▁gener
ory
▁produc
▁mod
ject
self
▁right
▁away▁
ith▁
▁need
▁New▁
▁turned▁
able
▁cur
▁felt▁
▁life▁
ident
ons▁
▁inf
orm
ined▁
▁saw▁
▁work
▁say▁
ole▁
augh
ross▁
▁vo
▁exc
▁tak
omm
ven▁
▁dire
esp
▁called▁
▁men▁
▁pat
▁here▁
op▁
ably▁
▁youn
▁quest
▁serv
▁way
▁spe
A▁
arr
▁clos
the▁
ling▁
▁bas
▁wasn
emp
▁Br
?'▁
ts
#▁
▁part▁
most▁
te
▁loc
▁ful
▁tell▁
aren
▁small▁
▁What▁
ific
ised▁
ement
▁cor
ke
ty▁
uss
▁really▁
▁ed
▁Sp
▁sn
▁day▁
▁ser
ows▁
▁count
▁Cl
▁hal
▁things▁
▁Joh
▁place▁
▁contin
▁though
app
rap
olut
iend
▁head▁
▁wanted▁
▁next▁
elf
ities▁
▁numb
its▁
▁let▁
enn
sw
ering▁
ility▁
▁friend
▁mil
▁includ
ian
▁eas
▁one
▁prov
▁That▁
un▁
ig▁
▁retur
oub
▁high
▁bus
idd
▁med
over
ial
▁nat
ged▁
▁dri
▁boo
ism
ank▁
▁At▁
ations
ress▁
ric
▁though▁
▁set▁
ft
._▁
ivers
arm
ures▁
▁import
cess
ame
▁seemed▁
ards▁
▁del
...▁
▁are
▁dem
oup
▁adv
ci
▁pul
▁too
▁hand▁
▁face▁
od▁
leas
▁life
ree
▁ever▁
▁hist
ah
oss
etting▁
▁well
con
ked
ection▁
▁pur
▁play
u▁
▁polit
▁syst
im▁
▁end
▁himself▁
▁[
inn
▁give▁
▁enough▁
led
▁gir
▁down
▁tog
ness
ants▁
▁cert
ening▁
▁occ
▁Yor
▁almost▁
▁asked▁
▁far▁
other
▁alre
▁suc
▁He
ural▁
▁ide
▁since▁
▁reas
▁ma
▁mus
ign▁
igh▁
▁end▁
▁my
hap
ather
▁minut
ired▁
▁sil
ale▁
out
▁appro
gg
▁—
▁Chr
ism▁
▁bur
▁hop
▁Ad
▁across▁
ided▁
owever
▁feel▁
▁once▁
▁am▁
▁Z
ern
less▁
ely
▁nothing▁
▁pri
ially▁
▁different▁
▁ter
▁world▁
ER
ont▁
ize▁
▁Then▁
▁feel
▁Mr
▁keep▁
ven
▁wee
▁during▁
▁behind▁
▁val
▁Ind
▁consid
anding▁
ching▁
ists▁
▁help▁
gan
▁oth
▁imm
▁leg
▁person
▁does▁
▁this
ional▁
ics▁
raw
ord▁
▁often▁
ically▁
ool
▁probl
omp
▁lear
▁experi
vi
ank
▁and
▁world
▁opp
▁wind
ently▁
ool▁
▁Bl
▁already▁
▁lead
ark▁
▁read
▁why▁
ated
▁Gr
uck
ary
▁best▁
▁Tr
▁seen▁
▁Q
ither▁
▁My▁
ber
be▁
▁couldn
▁ra
▁cho
▁better▁
sp
▁see
▁began▁
▁cas
▁One▁
▁desc
▁art
▁devel
▁simp
▁coll
▁gave▁
▁nec
red
▁Pro
oin
▁To▁
▁answ
▁young▁
▁sign
▁direct
▁night
ger▁
oph
What▁
any▁
▁writ
abl
illed▁
vern
▁toward▁
▁var
▁new
▁along▁
▁thing▁
▁room
▁heard▁
▁Con
erc
D▁
▁care
ead
▁side▁
▁lov
arly▁
ock▁
ured▁
▁So▁
▁prot
▁On▁
▁sure▁
▁af
▁fact
br
ile
▁fore
▁requ
▁become▁
▁American▁
▁Is
ild▁
▁aff
▁contro
▁Engl
▁stre
outh▁
par
ens▁
▁tri
side▁
▁looking▁
▁sal
ime▁
▁less▁
irc
aut
▁imag
▁El
▁fur
▁commun
▁dro
▁dre
ep▁
ins
dd
▁av
though▁
ix▁
▁Ph
▁After▁
▁inform
▁they
ately▁
▁offic
ward▁
ains▁
▁sle
ange▁
▁thir
ise
▁kind▁
▁help
▁famil
ru
N▁
ourn
oth
▁anything▁
▁having▁
▁govern
▁Her▁
__
▁least▁
T▁
osed▁
▁front▁
▁flo
▁rather▁
▁away
▁pract
ached▁
air▁
▁sever
▁auth
▁Car
▁room▁
sy
ograp
▁busin
▁large▁
ular▁
akes▁
▁whole▁
vent
▁black▁
to▁
▁pain
▁equ
itut
aced▁
haps▁
man
▁home▁
com
ton▁
▁run
▁complet
▁making▁
ines▁
▁fun
▁prof
▁water▁
▁white▁
▁human▁
▁lo
▁love▁
▁Pr
eng
▁upon▁
ok
▁adm
▁Christ
▁prom
ves
ount▁
umm
▁within▁
ty
als
aining▁
aybe▁
▁particul
▁sing
▁hers
eh
▁prob
▁develop
▁ben
ended▁
▁body▁
▁hour
▁stat
▁woman▁
ters
▁Germ
▁continu
itch
ents
iver
▁able▁
esc
iting▁
▁squ
▁Gre
ortun
▁mor
▁Brit
▁again▁
▁let
▁became▁
os▁
▁early▁
ands▁
ton
▁given▁
▁fil
▁repl
ins▁
▁hea
▁hands▁
ax
▁open▁
ressed▁
apter▁
imes▁
]▁
▁second▁
▁fre
▁typ
iqu
ump
▁taken▁
▁est
▁trying▁
▁light
▁plan
▁bar
▁door▁
ik
ww
▁doc
▁held▁
wor
echn
▁high▁
▁trad
,_▁
▁point▁
uff
▁among▁
▁someone▁
▁number▁
▁organ
uck▁
▁does
▁asked
▁pop
▁met
oon▁
▁hard
orr
▁hard▁
iter
▁All▁
ren▁
▁prop
edi
ivid
▁big▁
af
ograph
up▁
▁light▁
▁family▁
▁other
▁##▁
odd
iec
ward
▁people
tered▁
▁sit
▁several▁
▁door
▁done▁
--
▁call▁
amm
▁examp
▁rest
▁quite▁
ject▁
▁list
▁pap
▁cult
▁mean
▁later▁
ier
ogn
▁name▁
▁important▁
▁Sc
▁mag
ron
▁then
▁mind
▁Pl
conom
not▁
No
ould
▁Univers
oke▁
▁ris
▁Wor
▁fig
▁years
▁themsel
▁build
▁started▁
ife▁
▁sto
ner▁
ality▁
▁thre
▁John▁
▁four▁
ail▁
▁days▁
ink
▁voice▁
▁incre
▁low
▁self
▁house▁
▁tried▁
▁stood▁
ices▁
▁Har
way
And▁
▁eng
ames▁
sc
▁cond
▁doing▁
▁possib
▁full▁
▁charac
▁good
▁sugg
▁women▁
▁month
ery▁
orth▁
▁twent
▁power▁
te▁
▁fing
▁known▁
▁brought▁
rat
▁doub
ribut
ending▁
les
yn
▁believe▁
▁ment
▁arri
ds
tern▁
▁yet▁
ody▁
▁hun
▁Col
ult▁
▁Am
▁laugh
▁manag
▁but
▁job
▁night▁
▁With▁
▁Ex
ipp
▁ant
bed▁
els▁
ici
▁eyes
▁great
▁mind▁
▁half▁
▁heal
We▁
ake
▁Par
▁social▁
▁bed
illi
▁close▁
oup▁
▁sol
▁scre
elling▁
io▁
ury▁
▁sense▁
▁Ge
It
▁lim
▁course
▁real▁
ages▁
▁sat▁
...
▁getting▁
▁No▁
▁As
urop
ems▁
roduc
itting▁
ink▁
elf▁
▁miss
of
ook
It▁
▁pleas
▁oper
▁quick
▁mot
▁book▁
▁doesn
outh
▁near
▁Em
IN
▁How▁
ues▁
▁moment▁
▁everything▁
▁Re
b▁
▁lot▁
▁idea▁
▁mother▁
ativ
▁girl
▁hund
▁ident
▁circ
▁home
▁probably▁
inal▁
ics
dered▁
land
▁de▁
▁mark
▁face
▁political▁
son▁
▁tou
ross
▁kept▁
▁father▁
bo
amed▁
ident▁
▁cal
▁God
▁Comm
▁order▁
etimes▁
▁past▁
ll
ets
▁Ab
ier▁
▁ap
▁soon▁
▁York
▁Char
▁arg
▁turn▁
▁your
▁lik
▁surpr
ern▁
▁perc
▁effect
▁forg
ounc
aint
▁techn
▁cat
▁forc
▁whether▁
▁The
▁contr
ences▁
ities
ike▁
▁Ma
▁rece
▁abs
▁smil
▁mem
▁Or
▁These▁
',▁
▁suff
▁By▁
sych
▁wouldn
▁however
▁dev
▁individ
▁hur
▁Not▁
ested▁
orn▁
▁hear▁
▁bir
ounded▁
man▁
▁pot
▁fac
▁Sch
angu
ley▁
iss▁
ates
ides▁
▁enc
▁class
cess▁
▁taking▁
▁phys
▁—▁
ived▁
ories▁
pect
▁read▁
▁together▁
▁TH
ches▁
end▁
ull
▁hon
ugg
ship▁
▁words▁
▁prev
▁Ed
▁Europ
▁beaut
rem
▁econom
ual
▁fact▁
▁dest
▁sudd
▁case▁
But▁
▁coming▁
▁piec
▁means▁
▁men
ented▁
▁power
▁obs
▁saf
ite
▁invol
▁describ
▁vol
aught▁
▁#▁
▁Rob
▁show▁
▁form▁
▁start
▁wall
▁using▁
▁law
son
lex
ak▁
earch▁
▁others▁
▁stra
▁cla
▁University▁
▁talk▁
▁needed▁
ape▁
▁air
ased▁
▁Le
▁swe
▁sci
eared▁
▁five▁
▁id
▁orig
ision▁
▁conn
▁leave▁
ose
Yes
▁lab
ecially▁
▁land
▁div
▁top▁
ior▁
▁Dav
isc
z▁
▁jo
▁hor
▁foo
▁working▁
ingly▁
▁spir
▁perf
▁Lond
▁er
▁state▁
ital▁
▁public▁
▁iss
▁activ
▁mas
eph
▁thought
iously▁
▁later
▁fiel
▁Even▁
stitut
▁paren
▁maj
oci
▁infl
▁person▁
▁children▁
ert▁
by▁
▁whose▁
▁unc
ological▁
▁moment
▁hadn
▁house
▁change▁
▁necess
kn
ature▁
orts▁
icked▁
▁water
eak▁
any
▁ill
used▁
▁cover
▁moved▁
▁certain▁
▁walked▁
▁inside▁
▁esp
ether
land▁
ened
ows
illing▁
▁priv
▁lost▁
ology▁
iety▁
▁No
ison
▁attent
▁bott
▁Fl
▁ang
ears▁
▁term
▁Tw
▁makes▁
ean▁
▁conv
▁times▁
▁spr
▁stri
tion▁
▁Mc
ied
ination▁
ewh
▁either▁
▁rest▁
▁Chapter▁
▁living▁
▁Fren
▁wro
ps▁
▁United▁
▁anim
▁Af
▁place
▁try▁
udd
▁dark
▁sym
ments▁
▁reached▁
ific▁
ified▁
▁Chin
▁heart▁
▁Qu
▁thous
▁fut
iding▁
ade
ization▁
ored▁
▁ask▁
ustr
▁recogn
▁ann
▁surv
▁draw
▁rad
▁prec
▁repres
▁cannot▁
▁Bar
ang▁
▁Some▁
▁outside▁
▁God▁
way▁
ements▁
▁simply▁
ra▁
▁following▁
▁###▁
▁dark▁
▁Pa
ushed▁
▁word▁
asp
▁We
▁Press
▁heav
ams▁
▁caus
▁fall
ner
▁Geor
▁gen
▁Per
▁mur
▁sett
▁pulled▁
▁coun
▁money▁
▁Dr
ott
▁live▁
▁above▁
enly▁
AR
ians▁
▁sent▁
▁near▁
uch
▁relation
struct
▁before
▁fail
▁actually▁
▁breath
ounds▁
▁situ
▁matter▁
▁exist
▁And
ips▁
oon
▁mill
▁including▁
lic
ests▁
'.▁
▁longer▁
▁Be
▁crit
▁immedi
ateg
▁clear▁
▁line▁
idence▁
▁phot
▁Pol
▁example
▁boy
its
onn
▁fav
ever▁
anced▁
▁nodd
▁understand▁
irt
▁tod
▁rev
You
ense▁
▁war▁
ush▁
▁hold
▁invest
▁else▁
itive▁
▁more
▁father
▁mess
▁run▁
▁cut▁
▁bring▁
▁pict
▁dam
▁fa
fully▁
orted▁
ential▁
▁trav
ression▁
▁success
ances▁
▁says▁
ym
▁year▁
▁author
▁memb
▁course▁
▁chec
▁peri
▁British▁
▁story▁
ral▁
ures
▁roc
ife
▁sound▁
iff
ouse▁
tr
▁elect
▁comb
▁feet▁
▁langu
▁perhaps▁
ats▁
yl
inning▁
ane
▁meet
▁says
ainly▁
▁Pet
ording▁
ots▁
▁mother
▁Now▁
▁fif
▁camp
itions▁
▁information▁
▁bit▁
▁especially▁
▁Ro
▁slow
OR
ency▁
▁super
ley
▁food▁
▁start▁
▁possible▁
▁gra
▁themselves▁
▁che
C▁
▁mean▁
aff
▁Pe
▁view
▁seems▁
▁air▁
▁foc
omb
He▁
▁dat
▁herself▁
▁himself
▁sun
itary▁
▁school
▁batt
▁group▁
▁ren
atic▁
▁stop▁
▁feeling▁
Y▁
eping▁
▁gone▁
▁summ
▁opened▁
O▁
itud
acked▁
ging▁
uf
ipped▁
he
ells▁
ising▁
▁sus
ayed▁
▁dang
yr
▁Man
rop
▁myself▁
int
▁rememb
▁system▁
▁pati
▁care▁
▁perform
▁z
iver▁
pping▁
▁purp
▁move▁
els
eas
▁group
▁business▁
ah▁
▁narr
ane▁
uly▁
▁deep▁
▁relig
▁reason▁
▁seem▁
▁free▁
ploy
▁fire
▁local▁
▁progr
apt
▁bey
▁red▁
▁Gu
▁attemp
▁corn
ars▁
▁anyone▁
▁own
▁energ
ilos
▁single▁
▁disapp
.)▁
▁hair▁
▁isn
▁earli
▁From▁
add
ury
▁onto▁
usb
ister▁
▁thinking▁
atever▁
iddle▁
ct▁
▁hands
▁You
▁deep
▁hundred▁
▁rul
▁anal
▁led▁
aces▁
▁Willi
io
▁stand
▁think
▁what
▁viol
▁kid
amb
▁question▁
▁mater
ants
fer
ilosoph
▁discuss
▁whis
▁ke
ecause▁
igned▁
etic▁
▁esc
▁side
▁teach
▁Cr
▁mer
▁finally▁
be
▁city▁
▁remember▁
▁bab
▁together
ER▁
▁comes▁
▁determ
ection
▁death▁
▁late▁
ript
▁hold▁
▁government▁
▁capt
▁coup
▁followed▁
-▁
bled▁
less
ining▁
ecut
▁daugh
▁sat
▁intell
▁Cal
▁An▁
▁funct
▁play▁
▁object
urg
▁arr
▁jud
▁process
▁agre
▁clim
▁enj
▁sex
▁whom▁
▁bad▁
ved
ale
▁That
▁dom
▁control▁
▁She
iced▁
▁met▁
▁fres
▁ess
▁cop
ilt▁
▁non
▁sometimes▁
▁princ
▁aut
▁liter
like▁
▁short▁
▁husb
▁proper
▁scen
▁meant▁
osp
▁behav
acy▁
istic▁
▁respons
▁emot
▁system
▁death
▁second
▁itself▁
▁har
If▁
▁French▁
▁THE▁
chie
▁sour
itted▁
L▁
▁shall▁
▁Jew
▁thing
▁ran▁
▁press
arg
imm
▁sold
earing▁
▁becom
▁wood
▁(▁
▁experience▁
▁Russ
▁turn
▁Sm
iet▁
▁simil
▁through
▁ol
ony▁
▁minutes▁
▁school▁
day▁
vel▁
▁worked▁
ital
▁body
▁who
▁meas
▁cross
▁past
▁six▁
▁stay▁
▁psych
How▁
ator▁
▁everyone▁
▁wrote▁
ag▁
▁mis
oes▁
▁Rep
▁emb
▁journ
▁beyond▁
ap▁
▁ground▁
:**▁
aged▁
aur
ries▁
itional▁
▁tel
Well
▁shar
▁book
▁car▁
eath▁
▁Ag
itten▁
▁bes
▁prett
▁convers
▁true▁
▁sort▁
ioned▁
▁crow
▁York▁
▁popul
—"▁
▁;▁
ishing▁
▁polic
ives▁
▁blood▁
ash▁
▁influ
▁struct
▁step
▁John
▁hom
ote▁
▁far
▁common▁
▁While▁
▁knowled
ists
▁Mich
▁establ
eed
sequ
▁decided▁
▁ten▁
ily
▁first
ening
▁talking▁
aying▁
▁ver
▁beautif
▁profess
▁exact
That
▁intern
▁However
ines
▁env
▁further▁
▁usually▁
▁War
F▁
ON
▁hope▁
▁return▁
EN
▁stopped▁
▁vers
eal
ility
▁although▁
▁assum
▁support▁
▁Sec
▁Ann
▁chur
icip
▁history▁
▁norm
Oh
▁hours▁
une▁
▁others
▁impl
eth▁
ology
eas▁
▁small
ung
ered
▁morn
rif
▁Soc
ps
olution
▁likely▁
▁refer
▁Jo
▁port
ison▁
▁things
▁Im
▁days
▁tot
ical
▁dead
▁at
▁wid
▁shr
▁short
ime
▁girl▁
▁exam
ipl
▁process▁
▁shook▁
ues
ric▁
▁blood
▁histor
AT
▁personal▁
ower▁
▁wonder
▁find
▁general▁
▁Afric
▁Wal
zz
ium▁
▁standing▁
P▁
fl
▁caught▁
▁entire▁
▁frie
▁couple▁
▁meth
▁passed▁
ones▁
thern▁
▁bal
▁refl
▁interest
▁Just▁
▁lay▁
▁decl
▁quickly▁
▁somewh
▁cam
▁separ
▁view▁
her
▁curren
anks▁
▁main▁
ief▁
▁running▁
by
▁friends▁
▁friend▁
▁Gl
This▁
▁mid
ustom
▁vict
reng
▁nearly▁
but▁
▁Dec
▁family
ract
▁arch
▁Mus
▁fell▁
▁kind
▁dead▁
▁problem
AN
▁spent▁
▁pal
▁Hol
▁Rich
igg
▁disp
ams
▁susp
ively▁
oss▁
▁vill
▁arms▁
▁Me
▁words
ung▁
izing▁
▁employ
▁####
ration▁
▁enem
▁shoul
▁children
▁civ
ina▁
▁ready▁
▁Can
agg
▁woman
▁country▁
▁temp
▁Don
▁country
▁hol
▁sitting▁
▁avail
▁mach
St
▁hug
art▁
▁observ
antly▁
▁"▁
miss
▁surf
▁child▁
.**▁
ices
▁meet▁
▁returned▁
▁Hen
ellow▁
▁avo
▁particular▁
▁signific
ater▁
ops▁
fort
su
over▁
G▁
xt
▁maybe▁
▁morning
▁English▁
▁German▁
▁happened▁
▁strong▁
airs▁
▁desp
▁waiting▁
ible
▁occas
thy▁
▁present▁
▁mist
ends▁
▁Fir
▁gri
▁reduc
oy▁
▁else
▁obv
▁pretty▁
▁natural▁
▁tro
▁indust
▁mult
▁ord
▁ign
▁tem
▁sel
▁aud
▁claim
▁doct
view
▁There
▁Or▁
▁fem
olution▁
▁Cor
▁prim
▁deb
▁fo
▁morning▁
inary▁
▁post
▁fire▁
▁Rom
▁educ
▁associ
▁months▁
tly▁
▁hot
▁military▁
▁Arm
▁table▁
▁two
▁continued▁
▁cra
▁empt
▁Aug
▁point
▁indic
▁Rev
▁major▁
aid▁
▁streng
▁level
▁six
oud
oud▁
▁prep
▁towards▁
▁pred
▁attention▁
Ch
▁nor▁
ify▁
▁Cent
▁kitch
▁detail
ister
▁Jan
▁Bro
urs
ersh
utting▁
▁neg
▁mix
pper▁
▁break
!'▁
to
ability▁
rest▁
▁oppos
____
▁shad
▁marri
▁reason
▁heart
▁problem▁
iron
head
▁business
▁suddenly▁
oth▁
acks▁
ashing
org
▁Pres
ently
▁stand▁
▁exh
An
ret▁
▁pp
▁fight
▁pan
▁left
au
▁half
▁name
▁Jap
▁appeared▁
▁grand
▁minutes
▁various▁
▁ago
▁ru
ater
ats
ighb
▁hit▁
▁character
▁nov
orth
▁philosoph
▁ground
▁watched▁
kay
▁pun
▁exactly▁
▁position▁
▁Your▁
idge▁
room
ills▁
▁bi
▁introduc
▁const
▁benef
read▁
▁Comp
▁just
▁increas
▁soft
▁Although▁
▁instead▁
▁record
ously▁
asc
▁low▁
ron▁
▁bow
icult▁
▁force▁
clus
▁mut
▁pay▁
▁grow
isted▁
▁ir
ery
▁mount
ship
▁written▁
ecting▁
lease▁
▁event
▁table
eder
▁job▁
▁Why▁
▁win
▁about
so
ental▁
▁sor
▁colle
▁takes▁
▁Of▁
▁repe
▁den
ebr
▁difficult▁
▁impro
▁Sim
▁gun
▁opportun
▁chall
):▁
▁easy▁
▁twenty
▁nature▁
ol▁
head▁
▁raised▁
▁inn
▁cup▁
▁building▁
ab▁
▁See▁
▁emerg
▁question
iety
▁Hist
▁enough
ightly▁
▁treat
▁case
▁looks▁
▁want
▁space▁
uth▁
▁cold▁
▁lived▁
▁fort
▁food
▁tas
▁considered▁
ames
▁gaz
ately
ges▁
body▁
oring▁
arely▁
▁based▁
▁women
▁saying▁
▁unf
▁mouth▁
isf
aph
▁Stre
▁neighb
▁whatever▁
ze▁
▁control
ensive▁
iny▁
ken▁
▁bri
▁init
▁walk▁
agn
▁corre
▁certainly▁
▁hair
▁coff
▁four
▁cloth
elled▁
▁achie
inct
▁percent▁
AP
ique▁
▁land▁
ones
//
imes
Don
▁speak
ior
▁speak▁
▁members▁
▁strong
ective▁
M▁
aw▁
▁sent
▁today
▁shif
estern▁
▁gard
▁forward▁
▁learned▁
▁test
yst
▁something
ued▁
▁police▁
▁Ital
▁town
form▁
overed▁
▁Fin
use▁
▁spl
▁et▁
epend
▁per▁
▁giving▁
▁sure
▁yes
In
urity▁
▁voice
iness▁
▁interest▁
▁ur
▁tast
ator
▁third▁
▁und
);▁
New▁
▁area▁
▁maint
▁coo
▁Se
por
▁wife▁
▁Gener
▁reve
▁red
▁role▁
▁Cam
▁dog
▁ut
▁Med
aded▁
▁London
▁fund
So▁
▁similar▁
▁deal▁
▁Tur
▁alone▁
▁week
unn
▁son▁
aster▁
▁holding▁
unt
ceed
▁thousand▁
▁foot
▁closed▁
▁chance▁
▁will
ug▁
▁boy▁
▁Ne
▁modern▁
▁blue▁
▁special▁
What
▁another
▁filled▁
abb
OU
▁War▁
▁figure▁
▁Once▁
ces▁
▁World▁
▁Res
▁Mrs
▁floor
teen▁
▁phone▁
inging▁
▁company▁
▁middle▁
▁moving▁
▁round▁
▁leaving▁
▁amb
ication▁
ox
rying▁
igure▁
▁particularly▁
▁compan
▁answer▁
the
▁final▁
▁carried▁
▁tom
aned▁
▁city
action▁
▁money
▁allowed▁
ky▁
▁beginning▁
erve▁
artment▁
▁killed▁
▁Cont
▁compet
▁Mon
ouse
▁simple▁
▁Ir
gre
▁command
oted▁
▁mass
▁road
▁study▁
▁Mac
▁spoke▁
▁gar
▁green▁
▁Acc
of▁
gress
▁around
ubb
▁quiet
My▁
▁comput
▁fall▁
ises▁
▁create▁
ars
arily▁
▁defin
▁Sw
That▁
▁ways▁
▁thro
▁Jos
view▁
line▁
ES
▁George▁
▁opt
lying▁
bid
▁Nov
▁learn▁
▁completely▁
▁fear▁
://
▁private▁
▁beside▁
rac
▁shot▁
ards
▁heavy▁
▁writing▁
▁data▁
▁resul
ages
▁hot▁
▁Their▁
aped▁
ires▁
ape
▁physical▁
▁Ang
ius▁
▁Do▁
▁feet
▁kill▁
▁letter▁
▁dinn
▁Most▁
▁remained▁
imin
▁future▁
ically
▁Wil
ef▁
▁lad
▁occur
▁weap
ub▁
▁old
▁bit
aked▁
icult
▁provide▁
▁Like▁
▁town▁
ides
▁lead▁
room▁
▁poor▁
▁mir
▁needs▁
▁showed▁
▁anything
etwor
▁log
▁evidence▁
▁should
bs
▁age▁
enth▁
uk
irm
▁cit
osing▁
eah
aring▁
▁Thom
▁much
▁troub
ole
▁result▁
▁top
▁James▁
ches
▁individual▁
edd
Do▁
▁step▁
▁itself
▁piece▁
idge
▁fle
▁alone
▁except▁
▁Is▁
pro
▁custom
▁consc
iers▁
▁Co
▁Because▁
▁extrem
▁done
▁ep
▁seas
▁Maybe▁
▁arm▁
let
▁David▁
▁bad
▁sou
ision
erous▁
▁value▁
ature
▁realized▁
▁environ
ai
▁knows▁
cient▁
▁William▁
▁strateg
iled▁
▁deal
▁theref
▁States▁
▁times
▁knowledge▁
▁Lib
▁bed▁
▁office▁
▁sit▁
bling▁
▁watching▁
▁CH
▁scient
▁paper▁
▁mouth
▁floor▁
▁destro
▁Jul
▁Sal
Why▁
pir
▁road▁
We
▁Fre
▁gent
imate▁
▁level▁
▁May▁
that▁
▁South▁
▁respon
▁displ
▁Mart
▁act▁
▁died▁
▁open
eed▁
ights▁
airs
▁Jes
ished
iar▁
▁fresh▁
ains
ove
▁energy▁
▁less
▁oil▁
▁Washing
lex▁
▁tabl
▁economic▁
▁Luc
▁thus▁
▁goes▁
essed▁
▁received▁
▁Ass
▁cause▁
▁Pal
aled▁
▁loved▁
ashed▁
▁Som
▁law▁
▁cel
▁straight▁
▁write▁
▁picked▁
ler▁
▁surr
▁afra
astic▁
anging▁
ald
▁telling▁
▁Dan
▁Every
▁frequ
▁black
rest
ality
enced▁
ments
▁team▁
▁happy▁
▁use
eled▁
▁former▁
lo
▁believed▁
▁eight
▁son
▁relationship▁
▁story
atter
▁played▁
arc
▁quar
apped▁
▁sleep
Not▁
ield▁
yd
They▁
▁wife
aming▁
▁offered▁
alled▁
▁wrong
▁cand
▁imposs
▁Japan
▁hosp
inist
ump▁
▁whisper
king
▁National▁
▁parents▁
ocked▁
int▁
▁meeting▁
▁stepped▁
▁Ber
▁Oct
▁add▁
▁built▁
▁wall▁
▁stret
V▁
ods▁
▁stared▁
▁consider
ences
oved▁
▁terms▁
▁aftern
▁nothing
▁immediately▁
▁Inst
▁cred
egr
▁Two▁
▁America
▁art▁
▁miles▁
ste
inet
▁wish▁
▁regul
▁Apr
▁Sept
ees▁
cle▁
▁subject
▁key▁
▁enjoy
inking▁
▁national▁
▁Her
▁App
ted
▁described▁
▁seeing▁
ille
▁supposed▁
▁Ev
▁acqu
▁Intern
▁nodded
▁fingers▁
▁pock
▁watch▁
▁reach▁
arth▁
▁myself
earch
arch
▁eye▁
▁Pat
uts▁
▁clearly▁
ne▁
▁possible
yster
▁grad
ield
▁North▁
omen
▁music▁
▁De
▁strang
▁Lord▁
R▁
eren
▁arrived▁
▁terr
▁allow▁
unch▁
▁glass▁
▁reading▁
side
▁satisf
ina
▁wrong▁
▁bul
efore▁
▁sac
▁beautiful▁
▁covered▁
▁Micha
IT
▁love
▁Val
▁New
▁plan▁
▁Phil
▁yourself▁
▁lower▁
ople▁
▁Bo
ating
▁leng
ances
▁larg
▁Lou
▁interp
▁King▁
onstr
▁sug
ring▁
▁regard
ounding▁
▁rol
▁II
▁farm
▁dra
▁Well
▁follow▁
▁sty
ians
ling
▁available▁
▁lives▁
é▁
otten▁
icated▁
▁created▁
val▁
ument▁
oned▁
▁transl
▁yet
▁Su
▁execut
▁Bur
▁Many▁
▁free
ara▁
▁sign▁
▁feat
▁beneath▁
▁begin▁
▁edge▁
▁truth
▁break▁
rec
see▁
▁party▁
IS
▁Kn
Sh
rel
▁Our▁
▁huge▁
▁placed▁
▁univers
ender▁
ects▁
aching▁
▁Some
ope▁
▁subject▁
▁exerc
▁Yet▁
▁consum
▁spirit
▁ble
pt▁
TER▁
▁Mil
▁wait
▁virt
▁research▁
▁friends
echan
▁published▁
▁playing▁
▁pain▁
▁named▁
."
▁account▁
▁shoo
▁warm
▁skin▁
ium
▁true
▁language▁
▁understand
▁apparen
▁pointed▁
ler
▁news▁
▁window▁
▁whe
ocrat
▁century
▁effect▁
▁represent
owled
▁They
▁pen
▁easily▁
▁Paul▁
▁forced▁
▁present
ories
▁greater▁
ization
▁hall
▁helped▁
▁turning▁
▁####▁
itude▁
erson
ears
▁dropped▁
▁field▁
▁investig
..."▁
▁project
▁line
ode▁
In▁
▁fight▁
▁fine▁
ables▁
▁after
▁matter
▁heat▁
▁pushed▁
▁offer▁
▁Jack
▁doubt▁
▁All
zen▁
▁slowly▁
▁original▁
▁fru
▁Mat
▁ship
▁secret
▁million▁
▁suggest
lin
irg
co
ax▁
ttp
▁www
▁lin
ient▁
▁fol
▁networ
iple▁
▁Dep
eless▁
▁entire
▁weeks▁
▁Mad
uary▁
▁better
▁Chur
aily▁
▁books▁
▁hour▁
ational
▁specific▁
irt▁
▁intellig
oes
▁nerv
▁higher▁
eless
ading▁
▁changed▁
▁complete▁
▁encour
▁send▁
ms▁
▁contribut
▁image▁
▁return
iving▁
ase
▁path
▁flow
▁throughout▁
She▁
▁occup
▁type▁
▁gone
▁wait▁
rupt
ative
▁growing▁
▁Mal
▁period▁
▁questions▁
▁Part
rog
eter
come▁
▁risk▁
cul
acing▁
▁Lu
▁eat▁
▁works▁
IC
▁according▁
fr
▁Isra
▁ball
▁once
ne
day
▁tit
▁gold
▁rout
ob▁
▁necessary▁
▁stro
▁like
▁directly▁
▁follow
▁aware▁
ma▁
▁reb
▁visit▁
▁include▁
▁ancient▁
eget
roc
itions
▁worth▁
▁added▁
▁share▁
▁analys
▁earlier▁
▁dut
icking▁
ys▁
▁smile▁
▁health▁
▁Robert▁
▁financ
▁wants▁
▁popular▁
▁targ
icle▁
een
▁clear
www
▁For
▁provided▁
▁managed▁
▁glass
▁liked▁
▁difficult
▁due▁
▁Ac
▁cover▁
▁Sl
▁anx
aster
▁Ser
▁Franc
ained
▁temper
ingu
▁inj
▁design
▁Str
▁cup
port
▁paid▁
▁wide▁
▁glanced▁
▁involved▁
ford▁
resp
▁truth▁
▁With
▁grew▁
▁audi
ification▁
▁circum
▁week▁
dom▁
▁happened
ute▁
▁kill
▁nob
▁Octob
▁Another▁
▁sir
reh
▁June▁
▁service▁
▁London▁
ites▁
ompl
▁opin
▁First▁
▁consider▁
ials▁
uel▁
hood▁
▁state
▁expected▁
▁buy▁
ech▁
▁drag
▁chee
▁comfort
▁history
H▁
ama▁
off
▁Je
▁Only▁
▁Bel
▁development▁
▁gives▁
▁expect
▁Canad
▁Reg
▁amount▁
▁attack▁
▁box
▁sun▁
▁lay
▁fair
▁public
▁series▁
▁walking▁
eption▁
▁gif
▁bath
▁freed
▁found
▁bra
ese
rup
▁express
ING▁
▁threat
▁General▁
even▁
▁Jud
▁remind
▁aren
▁most
Is▁
aud
▁paus
iction▁
▁perfect▁
▁Publ
ume▁
RE
▁Perhaps▁
ext▁
▁situation▁
▁king
atur
▁powerful▁
▁understanding▁
how▁
▁show
▁drive▁
ired
▁leading▁
▁counter
▁prison
▁weren
▁independ
▁movement▁
esh
▁save▁
▁smiled▁
▁gets▁
▁game▁
▁required▁
K▁
▁Henry▁
ections▁
oint▁
▁Alex
▁Miss▁
▁warm▁
▁approach▁
ari
▁fix
▁institut
▁conduc
atory▁
cent
oint
▁expression▁
▁Jer
light
▁action▁
▁Rec
ination
▁colon
▁touch▁
▁hab
ension▁
▁earth
ival
▁neither▁
▁sigh
▁shown▁
▁students▁
een▁
▁appear
▁favor
▁Before▁
▁ones▁
—▁
▁window
▁market▁
▁practice▁
▁strugg
▁brother▁
AL
▁ult
▁July▁
aries▁
▁doll
ried
▁problems▁
ief
idden▁
ving
▁our
▁dress
iously
igr
▁concern
▁Chinese▁
aj
▁AN
▁exch
ades▁
▁herself
▁twenty▁
▁absolut
▁diss
▁campa
▁mechan
▁chap
▁order
▁dig
ibility▁
▁syn
▁Gree
acking▁
ai▁
▁afraid▁
▁religious▁
▁army▁
spap
▁none▁
▁parts▁
▁particip
▁brother
ning
let▁
▁broken▁
▁glob
▁Del
ries
▁Gra
▁Great▁
▁changes▁
▁Mor
▁Cour
AS
▁Since▁
▁spread▁
▁rap
▁sea▁
ky
▁eth
▁Jack▁
▁Rem
▁class▁
▁strange▁
▁adj
▁Sam
▁European▁
▁served▁
eling▁
▁resour
ying
▁avoid▁
pri
▁previous▁
▁appear▁
ushing▁
There▁
▁continue▁
▁summer▁
▁attempt▁
▁center▁
ators▁
▁older▁
▁seven▁
▁lines▁
▁uns
iber
▁concer
▁demonstr
▁hardly▁
anks
inated▁
▁last
ements
▁picture▁
▁Off
ives
▁forward
▁corner▁
▁Ben
▁stories▁
err
uff▁
▁kiss
▁visit
xim
▁perfect
▁understood▁
▁rose▁
▁Cong
▁wearing▁
ament
▁ability▁
ander▁
▁word
▁places▁
oured▁
▁weak
adem
▁April▁
▁shows▁
▁States
▁haven
▁consequ
▁smoo
▁Charles▁
▁vari
anged▁
▁tiny▁
rig
▁below▁
▁concent
ids▁
ae
▁mel
▁rights▁
▁theory▁
▁March▁
▁gath
▁fully▁
▁serious▁
▁Cons
umped▁
bur
▁ens
▁relativ
unt▁
▁lack▁
▁terrib
▁Sov
more
▁report▁
ooking▁
ense
▁themselves
oons▁
▁knowing▁
ES▁
▁broke▁
▁film▁
▁slightly▁
ually
▁forces▁
ots
▁During▁
▁presence▁
▁fro
▁list▁
▁smile
▁street▁
▁releas
▁Er
▁wind▁
▁cab
▁pil
▁sleep▁
ority▁
▁Stud
▁foot▁
lied▁
▁human
▁obl
▁Ibid
▁advant
▁explain▁
▁wondered▁
▁merely▁
▁husband▁
▁keeping▁
▁hours
▁becomes▁
▁century▁
▁photograph
▁note▁
▁focus▁
ized
▁West▁
▁nice▁
▁noticed▁
▁:▁
▁tra
aps
▁But
ald▁
APTER▁
abbed▁
▁experim
ency
▁House▁
▁veget
izz
ither
▁rh
▁wra
ony
▁anyway
▁At
▁were
▁Min
▁sand
abor
aging▁
▁gest
aint▁
▁Eg
▁restaur
▁Ol
▁citiz
▁guy▁
▁Mary▁
▁source▁
▁Dem
ument
▁despite▁
▁meaning▁
He
▁hors
▁current▁
ancy▁
▁eight▁
eness▁
AC
▁Feb
▁central▁
▁text
▁pass▁
▁van
▁newspap
lem
▁security▁
▁imagine▁
▁office
▁Dev
▁chapter▁
gn
reci
▁born▁
▁ship▁
itation▁
▁remain▁
ols▁
▁market
▁leaned▁
knowled
▁material▁
▁Hel
▁developed▁
ustral
▁More▁
▁example▁
uals▁
ull▁
▁drew▁
▁brain▁
ana▁
▁Ros
▁Peter▁
▁Thomas▁
▁entirely▁
▁therefore▁
▁bottom▁
▁empty▁
path
itch▁
▁remembered▁
▁Europe
▁girls▁
▁sexual▁
▁Ste
▁September▁
▁included▁
aim
No▁
Are▁
▁od
▁wel
▁access▁
uce▁
▁Ear
▁steps▁
ili
ership▁
▁announc
▁Richard▁
▁cy
▁May
▁Int
aff▁
▁stone▁
orary▁
▁foreign▁
antic▁
▁carry▁
▁model▁
▁look
▁oursel
▁civil
▁Nor
▁size▁
▁altern
▁instr
ils▁
▁ideas▁
aning▁
ples▁
ford
▁August▁
▁mo
▁larger▁
▁barely▁
iling▁
▁thick▁
▁pull▁
▁eventually▁
▁unp
▁Here▁
▁inh
ze
▁potential▁
rom
▁replied
▁pack
▁Sar
▁White▁
▁community▁
▁asking▁
ised
▁had
iction
▁weight▁
▁check▁
▁King
▁Michael▁
ruct
▁direct▁
▁Tre
▁applic
▁shoulder
▁sevent
▁subst
▁three
▁prepared▁
▁mal
▁legs▁
▁soft▁
▁finished▁
▁Po
fer▁
▁desire▁
ublic
ilities▁
▁Indian▁
tw
▁cast
▁Figure▁
▁Arch
▁answer
▁best
▁cris
▁position
▁Capt
ills
▁Let
▁lose▁
do
▁medical▁
▁kitchen▁
oses▁
▁talked▁
▁October▁
▁trust▁
go
▁events▁
▁camer
▁product
▁memory▁
▁recent▁
aces
▁circumst
gu
▁weal
rol
▁So
ores▁
ama
lin▁
orm▁
▁cos
▁serve▁
▁January▁
olic▁
▁evening▁
dom
▁how
▁total▁
▁Pre
▁forms▁
▁where
▁breath▁
▁joined▁
▁fast
▁by
▁pay
▁along
▁search▁
▁response▁
▁box▁
▁government
▁pick▁
itz
▁cultural▁
▁big
▁kids▁
ague▁
▁traditional▁
▁daughter▁
▁prefer
▁Trans
ared
▁leaves▁
▁rob
fully
▁society▁
▁waited▁
▁magn
▁ju
▁accep
ulation▁
▁produced▁
▁Mr▁
ops
▁chair
▁sound
▁age
▁wonder▁
year
unk
▁Calif
▁Commun
▁paper
▁term▁
▁husband
▁challen
▁influence▁
▁aband
▁quick▁
▁People▁
oke
ipe▁
well
▁entered▁
▁tablesp
anch
where▁
▁Vi
▁aver
▁discovered▁
▁character▁
▁famous▁
▁respond
▁emph
▁belong
▁ten
acc
▁spend▁
▁groups▁
▁constr
▁points▁
Yeah
▁highly▁
▁constitut
▁difference▁
▁broad
▁married▁
▁tax
aches▁
▁soon
▁ther
▁Austral
▁capital
eds▁
▁shared▁
▁financial▁
▁ninet
▁Mont
▁secret▁
▁Now
▁caused▁
▁soldiers▁
▁brown▁
▁moral▁
▁deg
When▁
▁range▁
tering▁
All▁
▁opening▁
exic
eding▁
▁intent
ham▁
icag
▁have
▁egg
▁inside
▁expect▁
▁generally▁
eck
▁liber
▁chick
▁instruct
▁Christian▁
▁cost▁
▁everything
▁significant▁
ii
▁Every▁
▁becoming▁
▁bag
▁State▁
ange
▁resist
▁scr
ext
▁catch▁
▁Cath
▁Vict
▁happen▁
▁neck
▁closer▁
▁trees▁
▁appreci
▁chair▁
▁north▁
▁agreed▁
res▁
ingly
▁training▁
unk▁
▁Rel
edy▁
/▁
unch
▁attack
min
attered▁
▁lifted▁
▁Sir▁
▁Though▁
▁harm
▁tend
▁battle▁
▁transform
▁sight▁
▁distinct
arian▁
▁fast▁
▁period
itable▁
▁baby▁
ody
▁come
▁tong
▁company
▁hung▁
▁Inter
▁basic▁
▁effort▁
▁remains▁
ays
▁Com
edly▁
▁decision▁
onsc
▁report
▁sen
▁message▁
▁different
▁Frank
▁cold
anded▁
▁imper
▁Western▁
▁Californ
ON▁
▁bright▁
ha
▁OF▁
▁yourself
▁desper
▁Febru
ady
?_▁
time▁
▁change
▁street
▁nodded▁
▁court
▁suggested▁
▁ton
▁cook
ird▁
▁nav
▁appropri
▁choice▁
▁opportunity▁
▁otherw
light▁
▁chest
▁thoughts▁
▁associated▁
▁church▁
Ar
leg
▁ing
▁stom
▁Jewish▁
▁myster
▁truly▁
▁boys▁
▁still
thers▁
▁front
ionally▁
urb
▁bomb
▁familiar▁
ured
▁join▁
ancing▁
▁origin
ival▁
▁distribut
▁assist
onom
▁distance▁
▁ge
▁Sci
▁path▁
▁film
me
▁lips▁
▁recomm
▁respect
▁watch
▁putting▁
▁rich▁
▁sense
ypt
ground▁
▁starting▁
▁dry▁
▁apart
uments▁
ize
▁surface▁
▁protect▁
▁luck
▁gh
▁conce
▁encoun
▁host
▁fighting▁
rew▁
▁soul
▁Gen
▁CHAPTER▁
▁hell▁
▁produce▁
":▁
▁stayed▁
▁Black▁
IL
▁key
▁reported▁
yth
▁safe▁
ares▁
▁qual
eps▁
▁trem
▁laid▁
▁build▁
▁spect
icient▁
ux
iness
▁rise▁
equ
▁strength▁
itor
asted▁
▁press▁
▁hurt▁
▁either
▁Hav
▁Who▁
▁guess▁
▁_"
▁Mexic
▁fal
▁fear
▁plat
▁engine
▁schol
▁veh
▁adop
icate▁
ma
▁stup
▁stage▁
imp
▁song
▁conversation▁
▁Ox
▁choose▁
men▁
▁reserv
EL
▁experience
▁fit▁
▁drove▁
▁culture▁
▁walls▁
▁version▁
▁)▁
▁fat
▁December▁
▁months
▁Soviet▁
vert
▁eye
▁anti
▁entr
▁teasp
▁wore▁
for▁
▁East▁
oo▁
▁Hum
orrow
▁results▁
▁ban
inted▁
ss
de▁
▁Both▁
▁music
▁normal▁
▁ce
▁sounds▁
▁idea
▁ahead▁
▁Act
▁Sk
which▁
▁clo
▁hes
▁How
▁finding▁
▁indeed▁
▁Que
overn
▁Kenn
wood▁
▁Other▁
▁Oh
▁Journ
▁Mel
▁support
▁slow▁
▁America▁
hood
osph
▁Mod
▁rid
▁judg
▁wast
▁accept▁
▁production▁
▁quiet▁
▁increase▁
unct
▁willing▁
uzz
ham
▁doing
▁carefully▁
bre
▁arms
ertain
▁design▁
▁ordered▁
▁impossible▁
▁por
▁loss▁
▁when
▁Where▁
▁surprised▁
bert
▁issue▁
▁accomp
▁trouble▁
▁bill
▁record▁
▁mort
▁November▁
▁cell
▁appears▁
▁test▁
▁explained▁
▁convinc
▁liqu
ession▁
▁celebr
▁–,▁
ocks▁
▁Scot
▁interested▁
ittle
RO
▁contact▁
elt
▁member▁
ounts▁
▁stuff
▁train▁
▁Japanese▁
▁wine▁
▁straight
▁Ob
idence
▁fine
▁pair▁
▁rail
▁hat
▁could
▁administ
▁saying
▁color▁
▁shou
▁prepar
▁scene▁
▁purch
▁tree▁
▁firm
▁text▁
enty▁
▁struck▁
▁nature
▁US
uh
rep
▁restr
▁decis
▁threw▁
ces
ads▁
ower
▁Angel
lie▁
▁cou
▁gold▁
▁Bra
▁cool
▁daily▁
▁drink▁
▁Each▁
▁Roman▁
ees
▁sea
ston
▁same
uls
▁Eliz
▁extra
▁bought▁
▁result
▁established▁
▁der
Then▁
▁complex▁
▁hyp
▁descript
▁interview
▁salt▁
▁section▁
▁female▁
▁dog▁
▁project▁
usion▁
▁claim▁
reg
▁England
▁staring▁
▁historical▁
▁Its▁
▁area
▁legal▁
▁wild▁
▁Virg
▁emphas
▁unless▁
▁Boo
set▁
▁Us
▁ice▁
acy
▁mic
▁natur
▁Those▁
▁brief
▁turns▁
▁pieces▁
▁Yes
▁peace
▁canc
▁space
▁coffee▁
▁Count
▁grow▁
▁direction▁
ius
▁construct
▁Sil
▁king▁
iff▁
http
▁gro
▁shut▁
▁international▁
▁alt
▁fash
otic▁
▁while
▁enemy▁
▁Mur
▁England▁
ipping▁
▁today▁
▁Kh
▁Tra
▁Paul
aul
▁future
▁attract
▁Jac
▁rolled▁
▁intellect
▁thin▁
▁bor
ederal▁
▁sin
▁pressure▁
▁conditions▁
▁ever
▁eat
▁young
arn
ino
zy▁
ict▁
▁crowd
▁lying▁
▁spot
▁strength
▁elev
part▁
▁Then
aps▁
▁sem
rew
▁tells▁
▁clean▁
▁dish
eted▁
▁pressed▁
ope
▁policy▁
sk
▁health
▁Marc
▁Pap
usted▁
▁medic
ene
mar
▁determined▁
▁contemp
▁calling▁
▁daughter
▁perspect
oti
▁Old▁
▁birth
▁Bal
▁Serv
▁murder
▁price▁
pped
itor▁
▁south▁
▁fool
Al
▁cig
ster▁
▁depart
aling▁
▁fish▁
▁hoped▁
▁letters▁
bs▁
▁Americans▁
▁Di
rian▁
▁chem
▁object▁
▁poet
respond
▁cost
▁insp
▁trade▁
omet
▁react
IG
▁effects▁
▁respect▁
▁designed▁
▁society
iel▁
▁numbers▁
▁Was▁
ours▁
▁which
▁Mill
▁mental▁
▁grabbed▁
▁somewhere▁
▁Mag
ana
▁Did▁
▁gun▁
▁Coll
▁Let▁
....▁
▁staff▁
▁actual▁
▁mirr
▁environment
▁President▁
ption▁
"—
▁rac
▁base▁
icks▁
▁learning▁
▁autom
▁sounded▁
▁north
▁areas▁
▁names▁
▁shape▁
ette▁
ls▁
▁die
▁tight
▁success▁
▁amaz
▁special
▁population▁
▁Isl
▁wash
▁action
▁acknowled
ac▁
▁Thr
▁mass▁
▁calls▁
cles▁
▁important
▁San▁
▁pray
▁Sen
▁greatest▁
▁structure▁
rid
▁earth▁
▁mostly▁
▁unif
▁metal▁
val
▁twel
▁rate▁
iant▁
▁dinner▁
▁cro
▁hesit
▁conscious
▁Israel
▁obt
▁libr
▁Jesus▁
▁smiled
ED▁
Did▁
▁frag
▁page▁
▁Span
▁male▁
fri
▁nut
▁pin
▁symb
▁bran
erson▁
▁sister
▁also
ips
▁McC
under
rial▁
▁ended▁
▁shoulder▁
▁February▁
▁ones
ker
▁river
II
▁Vol
▁pattern
▁Russian▁
▁quality▁
▁sky
ced
ny▁
UR
oyal▁
ns▁
▁Dis
▁realize▁
▁die▁
▁sorry
▁remark
▁wis
enomen
▁explan
ocol
oms▁
▁telev
▁deliver
▁gaze▁
▁Chicag
▁separate▁
B▁
if▁
▁pros
▁failed▁
▁rain
ting
▁opposite▁
icted▁
ene▁
▁mentioned▁
uous▁
▁fish
▁mine
▁river▁
▁tor
yt
▁carrying▁
▁rock▁
erry▁
Of▁
▁south
amic▁
ara
▁sweet▁
▁related▁
▁eating▁
ios
▁lives
▁cases▁
▁charge▁
▁Wat
icles▁
▁thousands▁
▁Lat
▁Greek▁
▁critic
col
▁spirit▁
▁ali
▁extra▁
▁court▁
▁sister▁
▁research
▁remaining▁
emat
▁US▁
▁magaz
▁chief▁
▁taste▁
ave
▁skin
▁critical▁
▁positive▁
▁consist
uten
▁AND▁
▁okay
There
▁obvious▁
ij
▁late
▁According▁
▁dram
▁trail
que▁
▁possibly▁
ucle
▁function▁
de
using▁
▁cell▁
▁mob
TI
▁Maj
ucking▁
▁Such▁
▁sharp▁
uss▁
▁game
▁headed▁
▁parents
▁interesting▁
▁reality▁
▁author▁
▁conclud
W▁
uel
▁West
ht
eenth▁
▁drawn▁
▁capital▁
ges
lev
▁safet
▁animal▁
▁Are▁
▁regular▁
▁Cre
Just▁
▁African▁
ional
▁common
▁excell
▁forget▁
▁flat▁
sch
▁touched▁
▁science▁
▁eag
▁yellow▁
▁taught▁
eeth
▁jack
▁peace▁
ims▁
ocratic▁
▁Street▁
▁accompl
port▁
▁Park
▁drop▁
▁x
▁sex▁
▁official▁
mission▁
▁fold
▁enjoy▁
▁Lady▁
▁troops▁
▁diseas
▁unable▁
▁president▁
▁Desp
▁formed▁
▁wooden▁
▁information
▁fortun
▁successful▁
ering
where
▁evening
ker▁
▁bodies▁
:_▁
▁organiz
▁full
▁smell▁
▁suppose▁
▁defe
▁archit
omin
ternal▁
▁-▁
▁flav
▁mention▁
▁handed▁
ellow
▁crowd▁
ney▁
▁crossed▁
ulated▁
▁seat▁
▁thirty▁
cont
▁bag▁
▁draw▁
▁Art
▁suppl
▁horse▁
▁clothes▁
alu
ades
▁cast▁
▁Ant
▁thick
known▁
Un
TH
▁compar
▁treatment▁
EC
▁glad▁
▁destroy
▁Cle
inter
▁excit
▁grown▁
▁train
▁Add▁
▁settled▁
Your▁
▁command▁
uggl
ught▁
eful
ients▁
▁drink
---
▁proper▁
▁sugar▁
▁fellow▁
▁Ke
▁Sund
▁doctor▁
▁recognized▁
▁err
▁village▁
▁Elizab
▁fright
▁shel
▁ech
▁program▁
▁Mos
ember
▁Christm
▁discipl
▁France
▁notice▁
▁white
▁refused▁
▁setting▁
usc
▁sho
▁Bu
▁dream
▁cool▁
▁narrow▁
▁speaking▁
▁territ
▁would
▁concentr
▁smaller▁
▁professional▁
▁."▁
▁nation
▁quickly
▁spot▁
osition▁
▁prevent▁
verse▁
▁officer▁
▁Tal
▁intended▁
▁increased▁
oler
och
---|
▁presented▁
ran
▁Law
▁Cambr
▁faith
▁unw
▁feels▁
▁Te
▁capac
▁pursu
you▁
arity▁
zed▁
▁states▁
▁bear▁
oom
▁been
ships▁
▁Des
▁showing▁
▁laughed
▁trib
ucked▁
▁Paris
ords▁
▁alive
▁somehow▁
▁feelings▁
▁earlier
reds▁
▁usual▁
▁Tom▁
▁mad
▁media▁
olit
▁Pri
▁purpose▁
per▁
▁died
ases▁
▁dressed▁
oken▁
▁sides▁
▁History▁
▁studies▁
▁marriage▁
▁growth▁
thus
▁Cur
apping▁
atives▁
▁limited▁
▁et
▁analysis▁
ato▁
▁vide
▁won▁
▁spring▁
▁Times
ille▁
▁perm
▁enorm
▁accept
▁account
▁sear
▁sudden▁
OL
ugh▁
▁lie▁
▁categ
▁guil
▁beat▁
▁conflic
▁impact▁
▁attention
ox▁
▁Red▁
▁sum
▁stir
▁thirty
▁Port
▁drug
▁party
▁silence▁
▁systems▁
▁la▁
▁breakf
▁Inc
▁**_
▁Tod
▁conclus
▁Budd
▁travel▁
▁stuck▁
▁Washington▁
ably
izes▁
▁Gold
▁fant
▁ways
▁corpor
▁convent
▁knew
▁gall
▁Carol
▁station
claim
▁concept▁
forc
▁levels▁
▁outside
▁Du
▁Dar
▁English
▁Sometimes▁
▁impress
OM
▁negoti
▁suspic
ties▁
▁tour
ids
▁sick
▁phenomen
pe
▁issues▁
ica▁
ibly▁
ector▁
pper
▁sold▁
century▁
▁board▁
▁leaders▁
▁colum
▁oblig
▁situation
▁till▁
▁useful▁
▁passing▁
eds
ka▁
▁may
▁phr
▁books
For▁
▁perfectly▁
▁Ham
▁domin
▁field
▁inher
▁site▁
▁quant
▁Sy
▁cut
▁card
▁Three▁
▁calcul
empl
▁emotional▁
Ex
▁speed▁
berg
▁furn
▁equip
▁lawy
ri▁
▁added
▁terrible▁
▁Despite▁
▁thinking
▁hidden▁
isl
osen▁
▁minim
▁throw▁
▁ded
▁correct
▁brief▁
▁sid
▁Conf
ronic▁
▁prove▁
▁num
▁City▁
ashing▁
entially▁
▁questions
▁dream▁
▁Div
▁finger▁
▁Captain▁
ait
▁inner▁
▁bull
▁Europe▁
▁illustr
▁silver▁
▁sad
burg
▁Kar
▁mixt
▁ve
▁performance▁
not
ger
_**▁
▁extremely▁
▁sav
▁younger▁
sm
▁Army▁
▁Will
▁noted▁
iers
▁emp
▁Miss
▁sky▁
▁officers▁
▁task▁
itely▁
▁connection▁
▁material
▁guard
five▁
▁accepted▁
▁stuff▁
▁Princ
enh
▁pra
▁instance
akes
inct▁
▁Marg
▁happen
▁dyn
Where▁
▁Steph
▁experienced▁
ament▁
ufact
▁little
▁global▁
▁rom
▁freedom▁
▁Sur
▁has
▁pret
▁Govern
▁rum
▁trees
▁bar▁
based▁
▁variety▁
▁band
▁standard▁
▁essential▁
▁responsible▁
ider▁
▁blank
ud▁
ively
▁worried▁
▁Mo
▁swall
▁sacrif
▁relax
▁worry▁
▁length▁
▁animals▁
US
▁activity▁
▁/▁
▁Doc
▁apparently▁
▁accur
▁trip▁
].▁
▁Bre
▁rising▁
bert▁
▁somewhat▁
▁Spr
▁computer▁
▁oil
▁accompan
▁general
olf▁
▁types▁
right▁
wards▁
▁ham
▁ago▁
▁vast▁
▁Rh
▁sight
▁thank▁
▁content▁
alog
▁Lev
▁fab
▁least
▁fallen▁
▁slipped▁
▁battle
arett
▁building
ander
▁centur
▁correspond
▁throat
▁news
▁squee
▁hanging▁
▁god
▁close
▁vision▁
________
▁behavior▁
▁basis▁
▁address▁
▁silence
▁language
▁innoc
olf
ability
▁store▁
▁going
▁enter▁
▁confirm
ites
▁upper▁
▁Hal
▁embr
▁fat▁
▁board
▁snow
▁escape▁
▁fought▁
▁dim
▁dozen▁
▁falling▁
elm
osh
▁proved▁
▁property▁
Americ
▁Republic
▁calm
▁rule▁
ined
▁details▁
▁Will▁
▁danger
▁bringing▁
▁introduced▁
attle▁
▁fifty▁
▁kitchen
asts▁
▁lights▁
▁lot
▁confer
▁guys▁
▁Church
▁easier▁
▁eg
▁rules▁
▁machine▁
▁features▁
▁Bern
▁tall▁
▁ST
ayl
ella▁
board▁
▁method▁
▁dangerous▁
▁gathered▁
▁Nav
▁Street
ishment▁
▁images▁
▁driving▁
▁Sol
orrow▁
ease▁
▁possibility▁
▁why
eared
▁claimed▁
▁develop▁
En
▁traff
▁gotten▁
▁individuals▁
yg
▁reasons▁
▁Any
ifying▁
▁Ell
▁withd
▁progress
▁master
▁Not
▁deeply▁
▁soul▁
▁event▁
▁neighbor
▁meaning
▁Institut
▁Web
▁laughed▁
As▁
ov▁
▁neck▁
▁sympath
▁patients▁
raft▁
▁fasc
▁prem
▁ought▁
▁workers▁
ounted▁
▁witness
illy▁
▁Pers
▁exhaus
▁from
oughly▁
.'
▁Bas
well▁
ammed▁
▁below
▁boat▁
▁interpret
▁move
▁product▁
▁concerned▁
▁sweet
▁challeng
▁scientific▁
esth
ewor
▁obviously▁
▁Kr
▁Finally
▁Bill▁
▁Polit
yle▁
▁baby
▁force
▁effective▁
▁manner▁
▁Joe▁
▁species▁
ause
▁univer
htm
▁sust
▁spiritual▁
▁Tom
▁master▁
jected▁
thusi
▁efforts▁
▁elements▁
▁La
▁wedd
▁fresh
▁chest▁
▁importance▁
▁Ren
▁relatively▁
▁phone
▁journal
▁techniqu
▁doors▁
▁receive▁
▁studied▁
bing▁
▁drawing▁
▁Av
ule▁
▁initi
▁fifteen▁
▁career▁
Who▁
▁busy▁
▁direction
▁tub
▁wild
▁Washington
ata▁
▁nor
AM
▁civil▁
▁revolution
asm
▁therap
ications▁
▁plastic▁
▁provides▁
▁embarr
▁percent
irect
▁favorite▁
udg
▁worse▁
▁princip
ocking▁
▁nucle
▁plant▁
▁France▁
▁reput
▁Italian▁
vers▁
▁degree▁
▁countries▁
▁unus
ro▁
To▁
ient
▁landsc
bles▁
ography▁
▁conver
▁leader▁
▁afternoon▁
▁Emp
oral▁
▁pill
▁seen
▁Counc
▁addition▁
teen
ishes▁
▁speech▁
▁status▁
▁suggest▁
▁ourselves▁
vest
▁Without▁
▁Hit
▁simpl
▁Sand
▁Associ
▁recently▁
▁removed▁
▁Libr
▁Sus
with▁
▁teaspoon▁
▁Just
▁winter▁
▁gentlem
inger▁
▁fixed▁
▁recognize▁
amp▁
▁decide▁
ware▁
▁primary▁
Let
▁Squ
utt
▁pleasure▁
aking
▁Prof
▁wished▁
▁prog
▁sell▁
▁month▁
▁Conn
▁Arth
▁sequ
▁tone▁
▁describe▁
▁Frank▁
▁discussion▁
▁beautiful
met
▁flu
▁additional▁
off▁
▁hotel▁
back▁
▁Mark
▁silent▁
ex▁
▁cir
▁condition▁
See▁
▁sought▁
right
▁Cast
▁creating▁
aker▁
▁companies▁
ais
▁worst▁
▁Tor
▁desk
▁heads▁
Ph
▁double▁
dr
▁Charl
▁dress▁
ih
▁cigarett
ID
cted▁
▁Cap
ointed▁
▁plenty▁
▁destruct
▁answered▁
aries
upp
▁shouldn
▁distingu
ordin
iring▁
urely▁
▁heat
▁authority▁
▁stock▁
▁ball▁
▁Rog
▁cod
umbled▁
ocr
▁promise▁
▁thor
▁gently▁
▁radio▁
▁enjoyed▁
▁hoping▁
▁China
eth
inger
▁must
onic▁
▁weeks
▁address
▁minute▁
▁approach
▁hell
ster
▁Bet
▁International▁
▁persu
▁sorry▁
▁Harv
▁complex
ino▁
▁lips
▁handle▁
▁average▁
▁Atl
▁tick
▁nine▁
Fr
▁golden▁
▁Mir
▁education▁
▁bank
▁gray▁
coh
▁("
▁merc
▁House
▁garden▁
▁cer
▁recip
▁smoke▁
▁pulling▁
▁ic
▁plans▁
▁station▁
▁vac
▁pet
ban▁
▁unh
▁Jenn
▁roy
▁guard▁
ugged
ittee▁
▁carri
▁enthusi
▁ec
ulate▁
▁uses▁
▁effort
▁rein
▁plant
▁increasingly▁
ude▁
ned
olved▁
▁kinds▁
agon
▁Gal
▁inqu
▁style▁
▁management▁
▁remov
▁begun▁
▁tea▁
ths▁
owned▁
▁wood▁
▁speech
▁bottle▁
▁tears▁
▁vul
▁president
▁reminded▁
▁culture
▁moments▁
uses▁
▁midd
▁Egypt
▁problems
▁Ver
▁aside▁
▁marked▁
▁require▁
▁rock
▁ash
▁Aust
▁rich
▁Mark▁
▁raise▁
▁signs▁
▁thinks▁
▁hundreds▁
▁exercise▁
AL▁
▁Musl
▁Jon
▁specific
▁Still
▁forest
▁angry▁
▁notes▁
▁meat▁
▁discussed▁
Come▁
▁color
▁active▁
onna▁
▁trou
ral
▁oce
▁equal▁
▁manif
vis
ivity▁
▁horse
▁Virgin
▁Dor
▁negative▁
▁afternoon
▁Wood
▁Sn
▁brilli
▁Ter
racted▁
▁track▁
▁Psych
▁wear▁
iles▁
▁arrang
▁Haw
▁leave
▁listen▁
▁date▁
▁careful▁
▁compared▁
▁rib
▁season
▁anymore
▁shoulders▁
here▁
▁ho
▁fair▁
▁labor
looking▁
pet
▁cous
▁push▁
▁cross▁
▁social
▁student▁
▁latter▁
▁terror
▁manufact
iat
athemat
▁constant▁
esh▁
▁conserv
▁capable▁
▁bound
▁pregn
▁embarrass
▁Ap
▁Naz
▁faith▁
ched
▁Fur
▁sched
▁domest
▁bank▁
▁invent
Okay
ires
▁connected▁
▁arrest
▁above
▁ride▁
ilities
▁existence▁
▁clean
▁isol
▁hearing▁
▁nose▁
▁song▁
ka
▁murm
▁retre
▁seek▁
inent▁
▁houses▁
quar
▁team
▁wonderful▁
▁novel
eck▁
▁streets▁
▁treated▁
▁listening▁
illa▁
▁brain
▁proceed
▁relationship
▁internal▁
▁Sel
une
ault▁
▁vent
▁wrapped▁
▁Ath
▁Life▁
▁What
▁actions▁
▁movement
▁church
▁Out
▁faces▁
▁Sam▁
▁sauc
▁Colon
▁Victor
▁teeth▁
▁attribut
used
▁talk
▁pale▁
aged
▁massive▁
▁rain▁
▁flying▁
▁bell
▁focused▁
▁inev
incol
ighted▁
▁equally▁
▁audience▁
▁interview▁
▁occurred▁
▁happens▁
cle
▁Viet
bel
▁immediate▁
eal▁
theless
▁Op
▁milk▁
▁bound▁
▁remove▁
haps
line
ped▁
▁Can▁
▁perce
▁chosen▁
eph▁
▁offers▁
▁appropriate▁
foo
ball▁
▁principl
▁wet▁
overy▁
▁locked▁
▁largely▁
▁Instead
▁requires▁
She
▁begins▁
▁aspect
▁majority▁
elop
▁Gar
men
anda▁
antly
mosph
mon
▁hide▁
▁asle
▁neur
itched▁
▁values▁
▁ordinary▁
▁Def
tered
▁twelve▁
▁architect
▁otherwise▁
▁absolutely▁
ecul
▁Ash
idly▁
▁worse
▁advantage▁
▁More
▁square▁
▁supply▁
▁Nothing▁
ails▁
▁rubb
▁concern▁
▁journey▁
▁pure▁
▁Mas
▁apart▁
▁Something▁
▁rif
▁Bost
▁perman
▁Fe
▁made
▁slowly
▁tonight
aine▁
eyed▁
▁frustr
▁proced
▁cow
▁horr
▁butter
▁ships▁
agement▁
▁unex
ugged▁
▁service
▁windows▁
▁rit
iment
▁settl
▁MA
eness
▁exhib
▁race▁
▁August
▁ple
▁Prot
▁firm▁
▁prosp
▁Mass
▁next
▁decor
▁Sa
arm▁
▁resc
▁helping▁
▁valu
▁incred
▁commerc
▁argument▁
▁Tex
!_▁
▁tall
▁crew▁
▁fill▁
acks
▁integr
▁nobody▁
eting▁
▁subsequ
oe
▁horiz
▁suit
▁wave▁
▁killing▁
▁behavi
ula▁
▁clin
▁compon
▁Smith
▁literary▁
▁nur
▁loud
▁hospital▁
▁hate▁
▁Mrs▁
▁Id
▁hero
▁About▁
▁families▁
nam
▁Over▁
ET
aves▁
▁Win
icians▁
▁lies▁
▁Social▁
▁ask
▁Mary
▁planning▁
▁lem
▁tort
▁Jews▁
▁extended▁
▁promised▁
▁convinced▁
acts▁
▁tree
Thank▁
▁mere▁
▁struggle▁
ises
▁forth▁
▁ahead
▁tend▁
▁Which▁
key
▁measure▁
▁comment
▁vess
▁novel▁
▁Beh
eral▁
▁iron
▁pattern▁
▁agree▁
rie
aken▁
▁missed▁
▁community
Lond
▁rat
▁sympt
▁Adm
▁released▁
▁campaign▁
▁Jeff
iment▁
▁multiple▁
▁services▁
fort▁
▁reproduc
▁missing▁
loy
▁aim
▁choice
resh
ected
zy
▁Mem
ica
▁cook▁
▁propos
▁excellent▁
OO
EN▁
▁rub
▁set
▁join
▁Union▁
▁explos
ble▁
▁maintain▁
▁Met
▁High
▁Cop
▁desk▁
▁large
▁slid▁
▁letting▁
vement▁
▁deliber
▁west▁
▁academ
▁network▁
▁patient▁
▁collection▁
stre
▁South
▁sees▁
wood
▁Pan
▁his
▁Edward▁
▁Den
▁organization▁
alls▁
▁doubt
▁goal▁
],▁
▁'▁
esis▁
▁twice▁
▁birth▁
▁ring▁
▁treas
▁function
ators
▁teleph
▁atmosph
▁Indeed
▁concept
oked▁
▁behavior
▁Ca
▁practice
▁Harr
▁ingred
und▁
ously
▁replied▁
▁frequently▁
▁method
▁cruc
▁China▁
▁Camp
▁sharp
▁Mer
anny▁
▁Lincol
▁changing▁
▁grate
IV
▁cart
▁loss
▁notion▁
rol▁
▁City
▁tired▁
ract▁
▁behind
ways
▁outl
▁rooms▁
ols
▁Det
term▁
▁caut
▁faced▁
▁minute
▁Bes
▁stop
▁laws▁
▁northern▁
▁lady▁
▁reference▁
ission▁
▁figures▁
▁daw
▁tablespoons▁
▁views▁
▁Muse
▁clothes
▁camp▁
▁unique▁
iffer
▁surely▁
▁band▁
au▁
ounds
▁flow▁
▁househ
▁bowl▁
▁absor
▁balance▁
▁wrote
▁tight▁
▁medium▁
▁assumed▁
▁Norm
▁World
▁statement▁
▁appearance▁
▁Sou
▁Revi
▁blind
▁motiv
▁Here
irty▁
▁credit▁
den▁
▁stim
▁burning▁
▁genu
▁reality
▁Sant
▁indeed
▁whispered
▁Germany
▁accident
▁shout
▁review
▁surprise▁
ney
▁terrif
▁asp
▁broad▁
imately▁
▁Eth
▁Colle
▁flight▁
ited
▁shrugged
ified
▁Att
▁bent▁
raq
icing▁
▁mixture▁
▁Spec
asing▁
ucted▁
▁suffered▁
▁challenge▁
▁precis
▁lit▁
▁grass
book▁
▁plants▁
▁applied▁
▁enormous▁
▁Hall
fortun
▁magic▁
▁advent
▁warri
▁mountain▁
▁depend
▁gain▁
▁overwh
▁compos
▁trouble
▁shoulders
▁Arab
▁distance
Cl
▁Jess
▁college▁
▁belief▁
▁threat▁
▁objects▁
▁continued
▁relation▁
▁Gard
▁chose▁
▁knowledge
▁grav
▁estim
▁release▁
empt
▁apartment▁
▁intelligence▁
kin▁
▁Department▁
sl
▁Ven
▁cried▁
▁passage▁
ENT
ird
▁rig
▁cups▁
▁schem
▁Paris▁
cr
ano
▁Satur
▁activities▁
▁driven▁
Tr
arant
ners▁
▁delic
▁answered
ored
▁flat
▁climbed▁
▁iron▁
▁initial▁
▁Black
ny
▁Father▁
▁surrounded▁
▁hy
▁Harry▁
▁Spanish▁
▁federal▁
▁metaph
▁expressed▁
▁Bab
▁dry
rete▁
▁curt
▁block▁
▁southern▁
roph
▁toss
▁via▁
▁Barb
▁circle▁
▁please▁
▁Congress▁
use
olly▁
▁legs
▁wear
CH
▁lob
▁make
wards
▁leg▁
▁resources▁
▁lie
▁stick▁
▁stands▁
▁seat
▁beauty▁
▁incor
▁Had▁
▁leads▁
▁relations▁
itude
▁Youn
▁dinner
▁allows▁
▁reduce▁
▁milit
istics▁
▁colleag
ript▁
▁club
▁struggl
aker
▁theat
▁bread▁
▁Be▁
▁losing▁
▁contemporary▁
▁ox
▁IN
▁gas▁
▁being
▁subt
atically▁
▁disease▁
rence▁
▁Joseph▁
▁violence▁
▁anger▁
umin
asting▁
▁discour
▁island▁
▁win▁
field▁
▁pages▁
og▁
atures▁
▁River▁
icle
▁wine
▁walls
▁anticip
▁products▁
unte
▁moon
▁facing▁
▁remember
com▁
▁sick▁
▁knife▁
▁reports▁
▁industry▁
iot
ett▁
▁Exc
▁movie▁
▁TO▁
▁trust
▁distant▁
thr
bled
▁Buddh
▁comfortable▁
---▁
▁Gab
orter▁
▁Christmas▁
▁Ger
▁independent▁
bor
▁chann
▁preserv
▁succeed
▁Lab
ables
▁Big▁
▁map▁
▁thrown▁
▁sob
▁clut
▁file▁
▁regard▁
▁matters▁
▁wip
▁tied▁
idents▁
▁relie
Bl
▁Have▁
**.▁
▁fun▁
▁chocol
▁labor▁
They
▁bigg
▁Go
erted▁
▁noise▁
▁replaced▁
▁etc
▁Nob
▁Sub
▁hung
▁Lew
key▁
▁sending▁
▁scar
urance▁
▁longer
van
▁alcoh
▁guess
▁safe
▁highest▁
▁forgotten▁
▁east▁
▁discuss▁
▁Iraq
▁teeth
▁Heal
▁includes▁
▁urg
▁candid
▁observed▁
▁Kore
▁exchange▁
▁Middle▁
▁chopped▁
▁revealed▁
▁poor
ider
▁Doug
▁surprise
▁identity▁
rent
▁Cat
▁burst▁
▁Ry
▁ensure▁
▁kissed▁
▁murder▁
▁mol
▁stick
▁thanks▁
ten
▁jump
▁Wom
zing▁
▁might
▁shop▁
▁purpose
▁saved▁
▁hoo
▁reven
▁disor
▁darkness▁
▁identified▁
▁belief
▁identify▁
▁Royal▁
ken
▁betr
▁garden
▁title▁
▁invited▁
ini
occ
▁Ben▁
▁airc
▁largest▁
apes▁
▁admir
▁admit▁
▁technology▁
▁totally▁
acle▁
▁buried▁
throp
▁sed
night▁
▁Martin▁
▁shot
ems
▁fruit▁
▁defined▁
▁sleeping▁
part
tion
▁few
▁Hon
▁Lar
▁evil▁
▁safety▁
▁chicken▁
▁burned▁
▁drinking▁
ena▁
▁Hor
▁Georg
isters▁
▁intens
▁reduced▁
ils
▁hated▁
▁craw
Can▁
▁happy
▁teaching▁
iy
▁cases
▁helps▁
standing▁
▁dism
▁referred▁
enly
▁runs▁
▁shift▁
ED
▁bat
▁Lind
▁calm▁
ibr
ita▁
▁Civ
▁Earth
▁plus▁
▁insist
▁listened▁
▁Bea
▁hole▁
▁danger▁
▁benefit▁
▁experiences▁
▁formal▁
▁television▁
sewh
▁Tro
▁Fore
▁giant▁
▁tomorrow
ini▁
▁jumped▁
▁surface
icial▁
▁smooth
"_▁
ilit
▁Cult
▁expans
usion
inning
▁assume▁
▁Ref
▁optim
▁solid▁
▁writer▁
ender
▁Lo
▁TV▁
anked▁
▁merch
▁achieve▁
▁breaking▁
▁Everyone▁
iance▁
▁honest
▁shadow▁
▁stomach▁
▁Lee▁
▁increasing▁
▁flew▁
▁planned▁
▁conqu
▁Central▁
▁whenever▁
▁screen▁
berg▁
▁wake▁
▁forty
▁Germany▁
▁fucking▁
▁champ
▁numerous▁
▁darkness
▁asc
▁odd▁
▁Mount
▁opinion▁
we▁
Now▁
▁bac
▁dust
ereas▁
▁extent▁
▁cha
▁snow▁
▁healthy▁
London
ighter▁
▁orders▁
▁regarded▁
isp
rip
▁proph
▁approached▁
ression
▁possess
▁necessary
▁nurs
▁cerem
▁heading▁
ests
▁fly▁
▁Instead▁
▁reass
▁II▁
▁easy
▁corrid
▁mixed▁
▁intellectual▁
▁except
▁uncom
▁fairly▁
▁loose▁
▁org
iday▁
▁High▁
▁wondering▁
AN▁
ber▁
▁bloody▁
▁Christian
▁lost
terly▁
ended
▁Rand
▁Nic
▁politics▁
▁suggests▁
▁lit
▁Britain▁
AD
▁five
gh
▁dear▁
▁committed▁
▁determine▁
▁manage▁
▁stopped
One▁
▁Jim▁
▁India
▁mathemat
▁repeated▁
▁responsibility▁
▁Econom
▁humans▁
▁pick
▁Marsh
▁miss▁
rey▁
▁coc
uing▁
▁demand▁
▁require
▁unconsc
▁condition
go▁
▁screen
▁interests▁
▁represented▁
▁Grand
yright▁
▁slight
▁shaking▁
▁combination▁
ette
▁cav
▁walk
▁methods▁
▁bol
▁Book▁
▁tradition
ension
▁reaching▁
oyal
▁Lord
▁advert
▁gradu
▁Africa
▁teach▁
▁rarely▁
Maybe▁
▁buildings▁
▁coffee
▁match▁
▁ready
cles
ift▁
▁vot
▁hurt
▁wide
▁repeated
▁memory
▁really
▁offering▁
▁Elizabeth▁
IR
▁Ow
▁quot
▁loud▁
▁doctor
▁.
▁hall▁
▁trick
▁Little▁
▁discover
▁lect
▁weather▁
—"
orical▁
▁evalu
▁Hann
▁finish▁
EM
▁summer
amental▁
▁damage▁
▁Eas
▁roll
▁thumb
▁Profess
▁plain▁
▁-
▁nearby▁
▁commercial▁
▁Nat
▁duty▁
▁anyone
▁prin
▁commit
▁skills▁
class▁
▁Again
▁code▁
▁exclus
▁overwhelm
▁tact
▁checked▁
▁development
▁closely▁
▁weapons▁
.:▁
▁paint
▁false▁
▁claims▁
▁fulf
▁Good▁
▁island
▁proud▁
▁cream▁
▁rot
▁rever
▁serving▁
atic
tical▁
cest
▁Flor
▁Green
▁parad
▁unl
▁Any▁
▁legisl
▁Whit
▁ends▁
▁tex
▁mine▁
▁cities▁
▁spoken▁
▁article▁
▁Irish▁
Pro
▁rare▁
▁theory
▁je
amin▁
▁apolog
▁prevent
ATI
▁bond
▁horses▁
▁beat
▁armed▁
▁pleased▁
while
▁Post
▁David
▁bright
osev
▁tunn
▁precisely▁
▁Carl
you
ancy
▁stage
▁context▁
▁storm
▁imagined▁
▁La▁
▁damn▁
▁visited▁
▁jer
down▁
▁Britain
▁Church▁
▁bridge▁
reme▁
▁necessarily▁
urd
▁drug▁
▁demand
▁coat▁
▁prote
▁painted▁
was▁
▁lots▁
icit▁
ections
▁assess
bro
▁Hill
▁Thus
▁nose
▁capacity▁
▁remar
▁constantly▁
▁First
ography
▁judge▁
▁Lie
ground
▁guy
▁forest▁
▁Bi
▁Use▁
▁suffering▁
American▁
▁live
▁native▁
▁failure▁
▁dance▁
▁hospital
▁visible▁
Hey
▁fet
▁French
cy
▁Add
▁blow▁
▁disease
▁somebody▁
▁clou
rical▁
▁relev
▁store
▁crime▁
ales▁
▁spre
▁pictures▁
▁Brown
▁diagn
▁recon
▁target▁
▁refug
▁conversation
eler
▁Rad
▁tax▁
umble▁
▁bare▁
▁Robert
▁contained▁
▁alternative▁
▁cock
▁gift▁
▁Having▁
▁Kir
▁allowing▁
▁supported▁
▁publish
▁differences▁
arly
▁Fig
▁North
▁copy▁
Good▁
ieth▁
▁India▁
▁practical▁
▁definitely▁
▁blue
▁weight
▁kid▁
ibility
▁pushing▁
▁memor
OS
ums
▁rand
▁alive▁
▁coming
▁marriage
▁reaction▁
html
▁round
▁seconds▁
▁gle
▁Stan
▁Take▁
▁Everything▁
▁argued▁
▁bask
▁substant
▁located▁
▁tradition▁
▁Leg
▁tren
▁pocket▁
▁cutting▁
▁domestic▁
▁Mean
▁fingers
aping▁
▁roll▁
▁permission▁
iling
▁hope
▁everyone
▁philosophy▁
▁coast
▁transp
▁parall
▁Second▁
▁online▁
▁promot
▁glance▁
▁region▁
▁crim
▁girls
Why
▁Spir
▁tell
▁energy
elle▁
eff
etr
▁detail▁
war
▁elb
action
▁tools▁
▁progress▁
▁expos
▁suit▁
▁principle▁
▁——
▁lon
▁arrived
▁discover▁
ission
▁flour
▁Oxford▁
▁aspects▁
▁display▁
▁considerable▁
ilt
urity
▁scrap
▁intim
▁maxim
▁dismiss
▁Dut
▁trail▁
▁treat▁
ided
ads
▁puzz
▁temperature▁
▁certain
▁compreh
▁eyebr
▁works
▁Court▁
gar
bon▁
▁sources▁
▁letter
▁Daniel▁
▁contain▁
On▁
fted▁
isms▁
acted▁
▁thoughts
▁insisted▁
aire▁
▁toler
▁papers▁
▁mission▁
ential
▁cells▁
▁breathing▁
▁IS
▁army
▁ax
▁Pac
▁bus▁
▁webs
OR▁
iest▁
▁content
▁decision
▁surrounding▁
▁scrat
▁dear
▁Queen▁
▁please
▁announced▁
iny
▁correct▁
greg
▁Sever
▁olive▁
▁upst
▁middle
▁scene
▁heaven
▁Kat
iven▁
Because▁
▁Lea
▁Red
▁lady
▁holds▁
▁signed▁
agu
▁number
▁stretched▁
lik
▁Wind
▁Louis▁
▁Nap
▁Thus▁
▁stress▁
▁lines
▁elsewh
▁buck
▁California▁
body
▁resem
▁widely▁
▁performed▁
▁Ire
iana▁
▁wand
▁Part▁
▁overl
▁fantas
hib
▁tea
▁Prince▁
▁advice▁
▁ca
▁dogs▁
▁vulner
▁joy
▁flash
▁weak▁
▁Roosev
▁apply▁
ero
▁dil
▁mark▁
▁Francisc
ae▁
▁Fam
▁Penn
▁intr
▁knees▁
▁sighed
Let▁
▁bowl
▁guarant
▁strike▁
▁strategy▁
▁causes▁
▁corner
Oh▁
▁Gall
▁adding▁
char
▁Tayl
▁Party▁
▁emerged▁
▁typical▁
▁construction▁
ouring▁
unched▁
▁Ret
▁unn
▁butter▁
▁finds▁
▁acting▁
▁sword▁
inch▁
▁teen
▁dried▁
▁voc
▁flesh▁
▁declared▁
▁prison▁
▁throat▁
osis▁
they▁
itted
▁Sudd
▁sheet▁
▁shirt▁
▁neut
▁trip
▁grand▁
▁pocket
▁senior▁
▁radi
▁touch
ounced▁
▁campaign
no
agged▁
▁Simon▁
▁plane▁
▁advance▁
ties
▁modern
▁rop
cher▁
▁hill
▁relief▁
▁Journal▁
how
aine
▁prior▁
▁conflict▁
▁sidew
▁events
▁fields▁
▁contains▁
▁stock
ek
aks▁
▁Matth
▁frown
▁meant
▁birds▁
▁My
▁explo
▁yester
▁Bob
▁Would▁
▁count▁
▁keeps▁
▁flowers▁
▁Reb
▁Smith▁
Mr
▁mix▁
▁accompanied▁
▁Dist
▁card▁
▁royal▁
▁leather▁
▁Max
▁lunch▁
▁volunte
▁lunch
▁value
▁existing▁
can
▁Back▁
▁location▁
eur
cher
eter▁
▁page
▁began
▁enemy
▁kiss▁
▁split▁
▁inches▁
▁pig
▁Shak
▁contain
▁attitude▁
Ah
▁Ott
▁Bill
▁cooking▁
▁ideal▁
east▁
▁grin
▁subs
▁infin
icit
house▁
▁never
▁places
▁waved▁
▁uniform
▁hang▁
▁religion▁
▁core▁
)_▁
▁Wall
▁camera▁
▁smooth▁
▁western▁
▁fourth▁
utenant▁
▁heavily▁
▁recorded▁
▁du
▁abandoned▁
▁Child
▁innov
▁route▁
anct
ola▁
▁programm
So
▁lic
▁crack
▁cooper
▁femin
▁surviv
▁trained▁
▁secure▁
▁irrit
▁Sav
▁proposed▁
que
▁vit
night
▁proport
▁Cub
▁Exp
▁Arthur▁
▁passion
▁obsc
lessly▁
▁cleared▁
▁advanced▁
▁characters▁
ati
▁reluct
▁cogn
▁James
▁kids
▁reform
▁description▁
▁Ur
▁Ill
▁inhab
▁confidence▁
▁Bol
▁Place▁
gar▁
▁needed
eav
kes▁
▁benefits▁
▁volume▁
▁feature▁
yn▁
▁Time▁
▁tiss
▁#####▁
...'▁
field
▁nervous▁
▁shut
lands▁
▁bigger▁
▁Ah
oid▁
Have▁
▁express▁
▁incl
▁sets▁
▁starts▁
▁seeking▁
agr
▁raw▁
▁Jane▁
▁communic
▁directed▁
ults▁
▁dipl
▁paying▁
ume
▁poured▁
▁engaged▁
▁informed▁
▁restaurant▁
▁Dun
▁stor
▁access
▁nation▁
▁Gi
▁jew
▁pointing▁
▁returning▁
▁vig
▁Dad▁
▁ate▁
▁suic
▁Park▁
▁season▁
▁Li
▁Dam
▁agent▁
▁brings▁
▁mission
▁motion▁
▁pist
nes
friend
▁Const
▁forever
▁Laur
bit
ople
▁ancest
▁relative▁
hear
▁memories▁
erpr
▁St▁
arded▁
eld
▁awaren
▁---|
▁born
▁ven
▁Good
▁director▁
▁bread
▁element▁
ph▁
▁unre
▁School▁
▁ultimately▁
▁Make▁
▁baking▁
▁creative▁
▁solution▁
▁developing▁
ston▁
▁Bob▁
▁stars▁
▁stress
▁Scott
▁steel▁
▁wanting▁
▁attached▁
▁lock
▁means
▁swung▁
▁powers▁
▁sup
▁Society▁
▁industrial▁
▁economy▁
▁changed
▁lovely▁
▁whispered▁
▁ice
onym
ician▁
▁terms
▁items▁
▁states
▁both
▁Jesus
▁animals
▁entrance▁
▁marry▁
▁tang
▁regarding▁
▁fundamental▁
eu
ims
▁Sarah▁
▁diplom
▁deeper▁
▁Auth
▁records▁
no▁
ommod
▁improve▁
▁nuclear▁
▁University
ye
ait▁
ecess
▁muse
▁rough▁
▁background▁
▁Los▁
▁chance
▁Eng
▁unit▁
▁See
▁represent▁
▁decre
▁impression▁
▁crew
▁rhyth
▁leadership▁
put▁
athan▁
encies▁
▁attempts▁
▁generation▁
oz
▁diam
▁cabin
win
▁Mike▁
kin
▁Corn
ierc
▁contrad
▁patterns▁
▁Latin▁
stein
OT
▁Mah
▁enh
▁examples▁
▁conscious▁
▁boat
▁beer▁
▁relationships▁
mer▁
▁aston
▁post▁
▁dealing▁
▁Land
▁fell
▁gonna▁
▁waste▁
▁study
▁fired▁
ification
▁spending▁
▁curs
▁Louis
▁known
▁stone
itation
▁decades▁
▁Sun
▁Aven
▁dict
▁Sunday▁
▁instead
▁surg
▁alarm
▁urban▁
▁destroy▁
▁organized▁
mp
ms
▁owned▁
▁wag
ceed▁
▁dust▁
▁Through▁
▁cars▁
▁Chicago▁
▁newspaper▁
▁immediately
▁aspect▁
▁Ha
▁elabor
Sp
Mar
▁Tit
▁reflected▁
this▁
work▁
▁Man▁
▁sail
▁quietly▁
▁came
▁speed
▁salt
mark
▁Hot
▁chapter
▁figured▁
ought
▁cry▁
ailed▁
▁dying▁
▁Clin
anz
▁star▁
▁trial▁
iveness▁
▁driver▁
▁income▁
Per
ricult
▁contract
▁everybody▁
▁writing
▁politics
▁shouted▁
rist
▁myth
▁invas
▁Columb
▁literature▁
▁Soph
going▁
▁forty▁
▁laugh▁
▁flex
▁Whatever▁
▁des▁
▁undert
▁voices▁
▁combined▁
▁Art▁
▁arranged▁
▁pan▁
▁aggress
▁Charlie▁
▁perform▁
▁environment▁
▁Rome
▁violent▁
idel
▁plate▁
▁measure
▁dollars▁
RA
fe
ello
▁feed▁
▁IN▁
▁called
▁delivered▁
alys
▁none
▁costs▁
▁uncomfort
▁typically▁
RI
uit▁
▁recru
▁closed
iar
▁cryst
▁grandm
▁Ram
▁Using▁
iles
▁frame▁
▁video▁
▁providing▁
▁Ele
▁Stev
▁shop
▁guide▁
▁alb
▁whole
ieties▁
▁Coo
uments
▁cash▁
▁selling▁
win▁
▁shall
inding▁
▁stairs
▁someone
oles
▁abstr
▁wanted
▁absence▁
▁anywhere▁
▁communication▁
thers
▁scream
la
ida▁
▁dad▁
▁presum
anna▁
▁lift▁
▁Tim
ertain▁
ograph▁
ulation
▁brothers▁
▁motion
▁shake▁
ING
▁gasp
▁Under
▁fashion
▁tongue▁
▁tum
▁exist▁
iable▁
▁extreme▁
▁traffic▁
▁Nich
▁eleg
▁ears▁
▁landed▁
▁parties▁
▁teacher▁
▁Hard
▁Margare
▁perhaps
▁River
▁factors▁
▁pron
▁Council▁
▁opposed▁
▁staying▁
▁resistance▁
▁gradually▁
Re
▁Leon
▁stairs▁
▁equipment▁
Journ
▁reveal▁
erman
ultane
▁Morr
▁contrast▁
▁decisions▁
auc
na▁
▁Dre
Figure▁
▁silent
▁rushed▁
usal
▁transc
▁machine
▁unlike▁
▁operations▁
rad
▁grat
▁hang
▁guns▁
azz
▁awk
▁forth
▁Under▁
▁paused▁
tur
▁hasn
▁principles▁
▁conven
▁nod
▁marg
oking▁
▁green
▁pink▁
keep
▁dar
▁puts▁
▁sugar
▁groups
▁captain▁
▁national
▁roof
▁Within▁
▁Air▁
▁response
▁ears
▁bedroom
▁Lis
▁surren
▁disappeared▁
ora▁
▁Palest
▁Catholic▁
▁education
cept
▁sword
▁holl
▁ignored▁
▁justice▁
▁practices▁
▁staff
▁affect▁
▁writers▁
▁vic
▁orange▁
who▁
▁Cas
▁main
▁oven▁
▁partner▁
ya▁
▁potat
▁grass▁
▁biggest▁
▁steps
▁accord
▁circumstances▁
ocrac
▁dragged▁
she▁
▁Never
▁windows
oe▁
▁deserv
▁external▁
▁Sup
ata
war▁
▁afford▁
▁concrete▁
▁peas
alism▁
alized▁
▁agricult
▁epis
▁degre
ordinary▁
▁protection▁
itive
▁envel
▁steady▁
▁occur▁
▁Ep
▁schedul
▁warning▁
▁farm▁
▁chain▁
▁shoot▁
▁comfort▁
▁data
▁expression
▁individual
▁ain
▁Germans▁
▁Holly
▁acts▁
▁center
▁ring
▁Mother▁
▁cot
▁aid▁
called▁
▁cultiv
▁swept▁
▁Far
▁Merc
▁Island
▁attend
▁intervent
istic
▁Cass
▁reck
orious▁
▁yards▁
irl
tim
▁Read
▁conditions
▁attempted▁
▁investment▁
At▁
▁simple
▁happening▁
▁cheer
▁habit
▁exposed▁
▁knocked▁
icity▁
kins
riger
▁citizens▁
ector
▁batter
den
adel
▁prepare▁
▁manner
▁shifted▁
▁echo
▁grim
▁gentle▁
▁curious▁
▁everywhere
rent▁
irst▁
▁brut
▁wound▁
▁stupid▁
▁smiling▁
igning▁
▁review▁
▁intense▁
▁establish▁
peror▁
▁visual▁
▁beach
▁Lake▁
ictions▁
▁roof▁
▁shock▁
▁divided▁
▁ideas
▁moves▁
U▁
set
▁von▁
▁painting▁
▁Books
▁program
fore
▁hast
▁meat
▁style
▁Among▁
▁already
bar
▁tail
▁Four▁
▁Earth▁
▁meeting
ype▁
eman▁
▁blame▁
▁Rach
ecc
▁rolling▁
▁unusual▁
▁California
oor▁
▁cru
▁Rock
▁aside
▁flood
▁legit
▁sof
▁boys
alling▁
▁lowered▁
eau
▁saw
▁slight▁
ault
▁divine▁
▁movements▁
▁Ly
rect
itors▁
▁mood▁
ights
▁rabb
▁killed
▁Get▁
▁race
▁link▁
▁players▁
just▁
isions▁
▁elimin
▁explained
▁destroyed▁
▁truck▁
▁wealth▁
ession
▁advoc
▁invis
ki
ville
orting▁
▁Research▁
▁annoy
▁riding▁
ST
▁godd
▁park▁
▁breast
▁Eli
▁ethn
dering▁
▁further
▁prefer▁
mm
rel▁
uals
▁Hay
▁stead
▁absolute▁
▁countries
▁joy▁
▁charged▁
▁size
▁divor
▁document
ns
▁Ul
▁beach▁
▁libert
▁slept▁
board
▁psychological▁
▁Hom
more▁
▁charm
▁seconds
▁tears
▁systems
▁circumstances
▁used
▁shock
▁agreed
▁grandf
▁narrative▁
▁hyd
▁Techn
▁victory▁
▁East
erman▁
▁block
▁serious
▁naturally▁
▁searching▁
▁previously▁
ero▁
lease
▁worry
▁transm
ulating▁
▁Syst
▁accounts▁
Tell▁
▁waves▁
▁consciousness▁
illeg
cer
oman▁
▁trag
▁quietly
▁application▁
sely▁
▁pip
▁CI
ooks▁
▁YOU
▁creation▁
▁reputation▁
▁hat▁
▁plays▁
▁ridicul
rim
.),▁
▁theore
▁disturb
▁hurried▁
▁grateful▁
▁defense▁
▁sufficient▁
▁Gh
▁Loc
▁Hell
▁pack▁
▁divers
▁collaps
▁parking▁
roll
▁journey
▁working
▁adult▁
▁Christ▁
▁rapidly▁
▁readers▁
iph
asp▁
▁odd
ours
icles
ik▁
▁Day▁
▁knees
▁vision
▁bedroom▁
▁wedding▁
▁Mosc
otted▁
ishment
▁horrib
▁Es
▁Hun
▁interf
▁recall▁
▁Someone▁
▁industry
▁apparent▁
▁friendly▁
mod
ete▁
▁Adam▁
▁rode▁
▁tun
▁egg▁
▁ignor
▁worn▁
▁yours
imming▁
ria
mond▁
▁cat▁
▁valuable▁
kh
▁sides
▁slave▁
▁accommod
▁expensive▁
▁cust
▁Several▁
come
▁Bus
year▁
▁revol
▁overall▁
ibl
▁earn
▁Ray
▁empty
▁explanation▁
what▁
ington▁
oms
▁sad▁
▁asks▁
▁arrival▁
LE▁
enty
▁cheek
ula
stein▁
▁stories
▁radical▁
▁technical▁
▁Max▁
▁Oper
▁negl
▁engine▁
▁operation▁
▁appreciate▁
alk▁
four▁
▁purs
coming▁
▁Mov
▁detailed▁
▁Supp
▁effici
▁shooting▁
tor▁
two▁
▁Boy
▁Go▁
▁flesh
▁rice▁
▁Pen
▁spite▁
▁filling▁
▁captured▁
▁occupied▁
▁difficulty▁
On
fol
▁cub
▁travel
",▁
riev
▁bother
▁twisted▁
▁ultimate▁
▁WH
▁inspired▁
owed
▁impr
▁#
▁chamb
▁model
▁schools▁
▁considering▁
▁Hear
with
▁poll
▁distinct▁
AT▁
▁Star
▁cream
▁pepper▁
lic▁
akers▁
vere▁
▁Ra
▁Holl
▁Mond
▁crisis▁
▁incorpor
▁Men
▁condem
▁cheese▁
▁analy
▁winter
▁science
▁Temp
formation▁
▁simultane
▁preferred▁
etime▁
▁harder▁
▁interrup
▁transfer
alk
thod
▁Southern▁
▁originally▁
see
▁admitted▁
ogen
oses
▁welcome▁
OW
▁fly
from▁
enger▁
▁career
▁Shakesp
ews
▁scale▁
▁alongside▁
oir
▁stair
▁classic▁
kins▁
ums▁
edy
ague
▁goods▁
▁operating▁
▁eggs▁
▁packed▁
▁remarkable▁
eenth
▁sket
theless▁
▁partly▁
▁Alf
▁instant▁
▁describes▁
amber
▁Sher
▁counc
▁fault
▁cloud▁
▁kicked▁
▁signal▁
LE
▁ped
▁favour
▁honor▁
▁History
▁whereas▁
▁fier
▁inspir
▁police
▁gained▁
▁therefore
▁Alexander▁
▁officials▁
▁Deb
▁loyal
▁length
umph
▁agents▁
▁centre▁
▁equival
▁liquid▁
here
▁Fif
▁conference▁
▁vir
edge▁
▁Shar
▁Van▁
oning▁
▁meal▁
▁farther▁
▁bast
▁altog
teenth▁
▁creature▁
▁Stal
▁materials▁
aws▁
▁mom▁
▁layer▁
▁recalled▁
▁brilliant▁
▁threatened▁
▁Direct
▁Green▁
▁reject
▁latest▁
▁Academ
ocracy▁
▁newly▁
▁cosm
▁guards▁
▁millions▁
▁Gil
▁kil
▁Jimm
▁Human▁
▁portra
▁Bow
▁sam
▁cler
▁clus
See
▁caf
▁dining▁
▁mainly▁
▁demanded▁
▁seriously▁
Get▁
that
▁exact▁
▁completed▁
▁particular
▁severe▁
▁closing▁
▁illeg
▁annual▁
▁dramatic▁
▁club▁
▁appeal
▁games▁
▁minor▁
▁Israel▁
▁disg
▁brown
▁Revolution
▁occasionally▁
til▁
water▁
▁oppon
▁photo▁
▁Rod
▁stay
writ
ample▁
earest▁
▁inevit
▁Also▁
▁soil▁
▁warned▁
▁emotions▁
▁primarily▁
cluding▁
▁appl
ki▁
▁doctr
▁van▁
▁bone▁
▁self▁
▁sales▁
▁folded▁
▁affected▁
▁fest
▁Develop
▁extraordinary▁
uman▁
▁youth▁
▁picture
▁Lyn
etty▁
▁coinc
▁desperate▁
▁Bay
▁tossed▁
▁assigned▁
ising
▁tip▁
▁hypoth
IM
▁Day
▁tent
▁furnit
obi
▁Court
▁tour▁
▁hiding▁
ensive
▁religion
hel
▁Moreover
▁attacked▁
▁concerns▁
▁anch
▁Civil▁
▁bird▁
▁chuck
▁linked▁
▁lux
▁bear
▁climb▁
▁dreams▁
▁students
▁administr
▁feed
etary▁
▁overs
Tw
▁assem
▁root▁
▁Colonel▁
alf▁
▁aesth
ially
rict▁
▁argue▁
▁percept
▁refriger
▁Organ
▁eager▁
▁yog
ership
▁Long▁
▁attacks▁
eman
▁Sing
▁names
▁paint▁
stone▁
▁worth
▁reasons
▁digital▁
▁controlled▁
AB
▁pian
igration▁
▁collabor
▁achieved▁
Pl
na
ular
▁Holy▁
▁juice▁
▁frozen▁
▁addition
consc
▁west
▁lucky▁
▁muscles▁
▁advis
▁Writ
▁http
▁artist▁
rich▁
▁Mom▁
aves
▁pool▁
."_▁
▁Fil
▁gal
▁unb
▁Foll
▁astr
▁budg
▁brand
▁moon▁
▁badly▁
▁unknown▁
▁RE
rid▁
▁Pur
▁rid▁
▁soph
▁listen
agh
▁Est
▁plun
▁rush▁
▁models▁
oming▁
orous▁
▁Alex▁
▁Uncle▁
icy
ike
▁om
west▁
▁manusc
▁raising▁
▁Cambridge▁
rav
▁Early▁
▁George
▁bones▁
▁breakfast▁
alism
▁date
▁often
ona▁
▁soldier▁
▁sauce▁
▁Unfortun
▁demands▁
▁techniques▁
▁sandw
▁lemon▁
ushes▁
▁unlik
▁however▁
▁B▁
▁Long
▁row▁
▁universal▁
▁Marx
▁Pier
ieval▁
▁Table▁
▁assass
▁crazy▁
▁ug
▁Aut
▁youth
▁quarter▁
▁literally▁
▁living
▁agreement▁
▁moth
▁Grand▁
▁prime▁
▁occasion
▁barri
▁disag
▁dign
alist▁
")▁
▁SE
▁Jam
rient
▁Bell
▁tool▁
▁spring
▁contempl
▁subsequent▁
pled▁
▁Test
▁confl
back
ocks
▁barr
▁immigr
▁married
esy▁
▁Duke▁
▁Africa▁
▁property
uit
▁gig
▁bree
uct▁
▁Pass
▁Walter▁
▁normally▁
▁lod
▁induc
▁naked▁
▁shadows▁
▁sanct
ida
▁Disc
▁manip
etimes
▁appoint
▁leaning▁
▁division▁
▁perpet
▁fram
▁lung
ien
ounce▁
▁Anton
▁Master▁
raph
▁pot▁
▁causing▁
inem
▁Come▁
▁Center▁
▁Johnson▁
▁AR
▁Ta
▁Secret
▁notice
▁soldiers
▁throwing▁
▁universe▁
▁childhood▁
antic
▁alleg
▁rear▁
▁passed
▁buying▁
▁portion▁
▁ros
▁jump▁
▁shirt
eau▁
▁prol
▁likes▁
▁Institute▁
Go▁
▁fit
▁lip
agan▁
▁protest
▁wounded▁
▁perspective▁
▁pounds▁
▁crucial▁
▁pav
ewed▁
▁host▁
▁indicate▁
▁FB
▁Jas
▁Anna▁
▁shoes▁
▁tough▁
▁phrase▁
▁stomach
▁Zh
▁Up
▁even
▁collected▁
asm▁
▁gate▁
ique
▁closer
▁storm▁
▁check
▁sweat
Journal▁
olve▁
▁rates▁
istered▁
▁moder
▁adopted▁
▁assured▁
istan
▁Anth
▁take
▁cent▁
▁musical▁
▁respond▁
▁studying▁
▁consequences▁
ocracy
▁faster▁
▁_(
▁Ari
▁shit
▁blew▁
▁slip▁
▁faint▁
▁sentence▁
▁DN
▁Vis
▁blur
▁stiff
▁lined▁
▁violence
▁opposition▁
▁inex
▁outer▁
▁rights
▁snapped▁
▁processes▁
Ind
▁corp
bu
cour
work
outs▁
▁Society
▁compass
▁Italy
▁Brown▁
▁mountains▁
ois
uts
▁Pot
oric▁
▁blind▁
▁pleasure
▁singing▁
▁collective▁
ifies▁
▁honey
▁beings▁
▁Whether▁
▁map
▁rust
▁option▁
▁finished
▁Tri
▁heard
elly▁
▁Chap
▁agree
▁trade
▁facts▁
▁Jerusal
Gr
rob
ileg
iner
▁One
▁pecul
ensions▁
esty
▁landing▁
▁electric▁
▁essentially▁
▁Act▁
▁sand▁
▁shouted
kel
▁bless
▁unhapp
▁ear▁
▁region
▁village
▁activity
▁encouraged▁
Ab
▁———
▁anger
▁Sat
▁Summ
▁dirty▁
▁message
▁survive▁
▁covering▁
▁criminal▁
etic
▁Fel
▁leaves
▁Andrew▁
▁devoted▁
my▁
▁Dougl
▁witness▁
▁wheel
▁foods▁
▁centuries▁
▁intention▁
ado▁
▁uncle
▁owner▁
▁Public▁
▁prosecut
▁attended▁
▁sla
▁blin
▁strongly▁
▁many
inity▁
▁aircraft▁
▁Ju
▁None▁
▁exclaim
▁Stephen▁
book
▁Tel
▁sacred▁
▁eastern▁
aiss
case▁
▁jobs▁
agger
▁bet▁
▁Arist
▁coast▁
aced
ublic▁
▁flick
▁refer▁
▁conduct▁
▁virtually▁
▁oun
▁stream▁
UN
▁height▁
▁withdraw
▁param
▁softly
quis
umber▁
▁Being▁
▁Canadian▁
▁suspected▁
▁telephone▁
An▁
▁ath
▁Benn
ribed▁
▁confr
▁classes▁
▁lap
▁forb
▁risk
ework▁
ellig
▁Patr
▁ill▁
▁accum
▁whist
▁Press▁
bles
ilder
▁Benj
▁mirror▁
▁minister▁
▁butt
antry▁
eller▁
▁grasp
▁weapon▁
▁factor▁
▁interpre
▁continues▁
▁pile▁
▁lightly▁
▁tablespoon▁
ores
▁Log
▁fruit
▁recept
▁guests▁
▁apartment
Good
▁rav
▁Nor▁
▁Next▁
▁woke▁
▁positions▁
▁definition▁
▁carp
▁briefly▁
▁picking▁
▁preparing▁
▁Iv
igen
tha▁
▁offer
";▁
erd
atch▁
▁approxim
Pr
ck
▁Dick
▁blade▁
ington
▁pride▁
▁indicated▁
▁stupid
▁Canada
▁hired▁
uv
▁pover
▁estate▁
▁measures▁
▁Inf
▁Prov
aints▁
▁fate▁
▁explod
▁Eastern▁
elv
▁Why
▁implement
▁Gri
▁cul
road▁
▁Phot
▁quoted▁
▁controvers
▁tension▁
▁expecting▁
hand
iced
▁),▁
▁Don▁
▁Gabri
▁spoke
▁depends▁
▁occasional▁
▁scientists▁
medi
▁tomat
▁refers▁
stand
▁padd
▁Major▁
▁Edd
▁ank
▁anxiety▁
Qu
born
oll▁
▁gods▁
▁units▁
▁believe
▁spectac
OC
▁Dal
▁Gord
▁flour▁
▁Jr
▁Chicago
▁Company
▁feared▁
▁unfortun
▁currently▁
▁Arg
▁Philosoph
orry
▁traum
▁results
▁headquar
AS▁
▁stol
▁contract▁
▁chocolate▁
▁impossible
▁freedom
▁Cambridge
ners
▁Rub
▁favor▁
ounting▁
▁context
mind
▁Still▁
▁minds▁
▁seeds▁
▁border▁
▁academic▁
▁substitut
▁addressed▁
▁permanent▁
aug
▁audience
epts▁
orial▁
▁Soon▁
unning▁
▁Event
▁suffer▁
▁involved
c▁
▁By
▁__▁
cript
life▁
ishop▁
▁exped
▁muscle▁
▁pleasant▁
oog
place▁
▁debate▁
▁enl
▁milk
▁Scott▁
▁smart▁
▁hill▁
▁vital▁
geant▁
▁bunch▁
▁authent
▁Hind
▁subm
▁burn▁
▁Russia
▁Philip▁
ek▁
▁pit
▁Educ
▁classical▁
ients
▁yell
▁poem▁
encing▁
▁followed
▁organization
sh▁
....
▁outr
▁defend▁
▁Les
▁cry
▁entit
ione
burg▁
▁entry▁
▁comprom
▁Company▁
▁uncertain
bal▁
▁patri
▁wiped▁
▁anxious▁
▁veter
▁feeling
▁medium
▁manager▁
▁stretch▁
▁entertain
▁depending▁
▁scul
▁shoes
uality▁
▁policy
▁proof▁
uration▁
▁Richard
▁transfer▁
▁Over
▁gang
▁opportunities▁
▁lord
▁bitter▁
ographic▁
ples
▁relief
▁Library▁
▁employed▁
▁involves▁
▁Professor▁
cel
▁poison
▁settle▁
▁handful▁
▁mad▁
▁conducted▁
▁customers▁
▁orch
▁areas
▁interact
▁existence
▁properly▁
▁AC
adelph
▁enterpr
▁workers
▁distribution▁
ivity
point▁
▁cried
▁waist
▁specifically▁
▁grace
▁follows▁
▁request▁
▁available
atch
▁Pop
▁wisdom▁
▁Committee▁
▁flag
▁jeal
▁gathering▁
cre
aked
▁Office▁
▁cooked▁
▁relevant▁
ulf
anned▁
eline▁
▁ourselves
▁environmental▁
ases
wing▁
▁rubbed▁
▁Look▁
enz
▁bom
▁nam
▁Pear
▁reader▁
▁anybody▁
▁Meanwhile
▁nineteenth▁
▁Nix
eded▁
▁Greg
▁expected
▁suspect▁
▁struggled▁
ya
engu
▁grab▁
▁Internet▁
orts
▁bother▁
▁persons▁
▁selected▁
▁Four
▁Never▁
comm
▁fert
unted▁
▁Right▁
ologist▁
▁reflect▁
▁awareness▁
▁Bor
▁delight
▁laughing▁
▁stronger▁
▁programs▁
Now
▁difference
▁irre
amped▁
▁Liter
▁issue
Chap
atched▁
house
▁Lincoln▁
▁library▁
uty▁
▁depos
▁fewer▁
▁single
▁guilty▁
iah▁
▁Bir
▁complicated▁
rett
▁early
▁grip▁
Br
esis
raft
▁precious▁
▁sne
▁only
oot
▁Ess
▁hotel
▁image
▁persist
▁functions▁
▁III
▁wise▁
▁Young▁
▁curios
▁limit▁
▁remote▁
▁evidence
▁Mid
oves▁
▁Jord
▁started
▁performance
Ad
anda
hold
▁Alice▁
▁citizens
▁Mic
▁aim▁
▁wish
atherine▁
▁Neither▁
▁communities▁
▁Class
▁bodies
▁leader
oration▁
▁Johnson
▁reh
▁sadd
▁toil
▁navig
▁attend▁
▁scared▁
▁sharing▁
▁Does▁
▁paused
ola
▁danc
▁Security▁
alls
▁fer
▁superior▁
mond
vere
▁separated▁
▁drin
ec▁
▁[▁
▁emer
▁rule
isters
▁dirt▁
anning▁
▁concerned
▁obst
▁dough▁
▁hunting▁
▁options▁
▁resulting▁
▁concerning▁
▁capture▁
▁commander▁
▁reasonable▁
▁drank▁
▁officer
hand▁
▁streets
▁acquired▁
▁launched▁
▁striking▁
▁visiting▁
▁Tell▁
▁magic
▁pitch
▁Could▁
▁authorities▁
jo
ugs▁
▁mile▁
▁spotted▁
▁scattered▁
▁bure
▁Medic
▁blocks▁
▁magazine▁
▁belonged▁
▁prisoners▁
▁ingredients▁
▁Alb
▁Fri
assad
atively▁
▁engage▁
▁issued▁
▁gover
▁hopes▁
▁Island▁
▁ignore▁
▁opinion
▁Unlike▁
▁nights▁
▁Science▁
▁Mom
▁Crit
▁Form
ville▁
▁tired
▁songs▁
▁answers▁
▁Hitler▁
▁corporate▁
▁twentieth▁
iam
osis
ache▁
▁plann
▁reinforc
▁Fa
▁went
bably▁
▁presence
iro
▁ta
▁mood
▁Five▁
▁Nick▁
▁attach
▁backed▁
▁pressing▁
Is
orters▁
▁election▁
▁Abb
▁unm
▁der▁
apped
▁fed▁
▁Keep▁
▁miser
▁triumph
▁washed▁
▁jacket▁
▁members
▁atmosphere▁
▁fifty
▁Jackson▁
▁greatly▁
▁landscape▁
▁principal▁
enses▁
▁knife
▁player▁
▁distract
▁east
▁reply
▁editor
▁letters
▁predict
▁touching▁
don
▁dimin
OP
aid
▁fib
▁Russia▁
free▁
▁passion▁
▁subjects▁
▁prominent▁
▁smoke
▁flash▁
attering▁
idn
▁lur
anne▁
▁dial
▁species
▁technique▁
lav
▁Bry
▁Ern
▁symbol
isation▁
▁Congress
▁Arn
▁De▁
▁abo
▁Much▁
ilding▁
pected▁
▁attorn
▁Muslim▁
▁administration▁
Con
▁Rome▁
▁Chief▁
▁cards▁
▁economy
▁consciousness
▁Bri
▁Too▁
▁cake▁
▁contrast
▁confirmed▁
▁protected▁
ila▁
▁Lee
▁upd
▁harm▁
▁tongue
▁Tony▁
▁Nichol
▁artists▁
▁Review
▁device▁
▁endless▁
▁encl
▁stir▁
▁wings▁
▁arrive▁
▁encounter▁
hol
▁Dad
▁Billy▁
▁issues
▁composed▁
AG
some
▁taste
▁upset▁
▁Arab▁
▁trigg
▁assemb
▁cause
itten
▁...▁
▁cann
▁Very▁
▁hyper
▁dialog
▁sites▁
▁cancer▁
▁courage▁
▁electric
ani
▁).▁
▁nic
▁Peter
▁edition▁
IS▁
osex
▁ber
▁bottom
▁appeal▁
▁appointed▁
▁rou
▁limit
▁horses
▁vehicle▁
▁selection▁
▁colleagues▁
gen
ute
▁Row
hr
▁sons▁
▁responded▁
▁SP
▁boss
▁Steve▁
UC
osts▁
▁shape
▁tender
▁du▁
▁harb
▁mirac
ced▁
piec
▁Isa
▁client▁
▁containing▁
▁structures▁
▁recognition▁
▁infer
▁mistake
▁numbers
▁remind▁
▁mistake▁
ria▁
asty▁
▁hier
▁replace▁
▁en▁
▁Vietnam
▁doctors▁
▁alg
▁mart
▁Kate▁
▁granted▁
▁training
▁represents▁
town▁
athers▁
isting▁
ucks▁
▁adap
atives
▁perceived▁
ok▁
▁Mess
▁decade▁
ales
▁crazy
▁population
▁Today
▁diet▁
▁driver
▁clouds▁
▁honest▁
▁Stat
▁excess
▁counter▁
▁dedicated▁
▁dece
▁tone
▁adjust
▁excited▁
▁painful▁
▁delicate▁
▁institutions▁
▁firmly▁
▁gate
▁deck▁
▁torn▁
▁testim
▁encourage▁
▁destruction▁
▁editor▁
▁instinct
car
irty
ring
▁Cho
▁deliver▁
hu
ott▁
▁Kev
▁Afgh
▁temple▁
▁Kl
▁site
▁assign
unction▁
ologists▁
▁printed▁
abil
eton▁
▁tightly▁
▁conclusion▁
ura▁
Every
▁joint▁
▁tucked▁
▁College▁
▁cott
▁lover
▁palm▁
▁rooms
▁Chris▁
▁Given▁
▁consci
▁occasion▁
▁Ba
▁Flo
▁Law▁
▁Plat
▁families
▁feelings
▁beginning
▁regularly▁
▁distinction▁
▁interpretation▁
▁sovere
▁million
▁interior▁
▁symptoms▁
▁Orig
there▁
▁Aunt▁
▁collap
▁poetry▁
iger
▁Aud
▁Dri
▁edge
▁stars
▁Indians▁
▁Henry
▁gather▁
▁priest▁
▁weather
rend
▁Stra
▁blaz
▁rang
▁vote▁
▁migr
▁Thank▁
▁Until▁
▁rocks▁
▁suspect
▁founded▁
▁branches▁
▁effectively▁
▁holy▁
▁occurs▁
▁billion▁
▁household▁
▁organizations▁
▁Spe
▁radio
▁wash▁
cy▁
▁Heb
▁Nik
▁figure
):
▁notes
▁crowded▁
▁convince▁
▁ease▁
▁breakfast
▁wound
▁edges▁
▁lun
▁helpl
▁escape
▁Americans
▁transport
▁Freder
▁trace▁
▁Way
▁coat
▁guit
▁shiver
▁commonly▁
▁structure
▁belong▁
ager▁
▁Hall▁
▁inch▁
▁President
▁fix▁
▁scarc
▁stood
▁downst
▁string▁
▁talking
illy
▁chief
▁wire▁
▁marks▁
▁propag
she
▁adequ
enance▁
▁stated▁
▁amazing▁
▁Martin
▁Nevertheless
▁Bon
▁note
▁Simil
▁Union
▁grey▁
▁Besides
▁acceler
▁patient
▁escaped▁
▁services
▁emergency▁
ois▁
urt▁
born▁
▁drugs▁
ded▁
▁Angl
▁speaking
▁rural▁
▁crossing▁
▁university▁
urt
▁Canada▁
▁garlic▁
▁teachers▁
urn▁
From▁
▁Anne▁
▁devot
▁integ
▁needs
▁falls▁
▁union▁
".▁
▁revers
▁racial▁
▁AL
irts▁
▁organic▁
▁Cra
▁Modern▁
▁passeng
▁climate▁
ails
ders▁
▁mush
▁angry
▁obtain▁
▁O▁
▁Aff
▁doz
▁smart
▁thrust▁
▁otherwise
▁production
mill
▁Cab
▁Cro
arian
▁chin▁
▁revel
▁practically▁
bling
▁Out▁
▁rhet
▁fuel▁
▁Copyright▁
▁Od
▁asleep
▁Margaret▁
rence
▁stal
▁Dutch▁
▁Later▁
▁habit▁
▁parallel▁
▁Sea▁
ields▁
▁button▁
▁genuine▁
ogg
▁foundation▁
▁dish▁
▁thigh
▁banks▁
▁theme▁
▁bathroom
▁squeezed▁
▁profession
ano▁
▁lam
foot▁
▁limits▁
def
▁get
umes▁
▁adapt
▁port▁
▁rang▁
▁excuse▁
eap▁
▁burn
▁spar
▁que
▁Rose▁
▁brush▁
▁Museum▁
▁earned▁
▁seized▁
▁seemingly▁
▁commitment▁
Gre
▁sod
▁Last▁
▁Further
▁executive▁
▁clar
▁meal
▁Found
▁dare▁
▁rules
▁policies▁
▁happiness▁
▁literature
sal
▁aimed▁
▁artist
▁houses
▁Os
▁liberal▁
▁privileg
▁software▁
▁Swed
▁nice
ailing▁
▁Group▁
▁Thomas
▁spare▁
IGH
iz▁
▁"'
isk▁
▁Introduc
▁Constitut
▁happening
▁secretary▁
▁department▁
▁buy
itudes▁
▁double
▁horror▁
▁testing▁
▁Bey
▁abund
▁shit▁
▁Fortun
▁prices▁
▁imperial▁
▁Sev
▁Suddenly▁
▁thoroughly▁
▁these
▁Government▁
▁Gro
inely▁
▁roots▁
▁stare▁
▁Kennedy▁
▁examine▁
▁halfway▁
▁manifest
▁roughly▁
▁Virginia▁
▁wrec
▁Special▁
▁luck▁
▁Roger▁
▁Kath
▁hiss
▁shore
▁forehead
▁glasses▁
▁purchase▁
▁lock▁
▁weigh
▁computer
ince
▁philosophical▁
▁Pow
▁———.▁
▁details
▁perspective
▁imagination▁
▁loves▁
▁Health▁
ena
aded
cast▁
▁animal
▁myst
▁sake
▁worked
▁instructions▁
jud
▁bon
▁gesture▁
▁identity
opp
▁third
▁acted▁
▁profound▁
▁Lear
▁rate
▁vine
while▁
▁poet▁
▁accused▁
▁authority
▁sensitive▁
▁translated▁
icy▁
▁pool
▁conventional▁
ued
ada▁
▁gam
▁baseb
▁usual
▁Ga
Some
▁doors
▁fail▁
▁heavy
▁solid
▁eaten▁
▁combat▁
▁Glob
oop
anting▁
▁creatures▁
har
▁Mot
emed▁
inned
▁Brad
▁god▁
▁finger
▁slaves▁
▁dancing▁
▁explore▁
▁Hill▁
▁Communist▁
▁revolution▁
ori
sec
▁Second
▁Behind▁
▁eleven▁
▁stones▁
▁Harvard▁
▁entering▁
angel
▁reading
▁soo
▁Bay▁
▁stored▁
▁Cel
▁Brun
acious▁
▁seated▁
▁overcome▁
UL
▁park
▁defeat▁
▁Pacific▁
▁storage▁
▁approaching▁
white▁
▁fashion▁
▁personality▁
ada
ote
▁hem
▁boots▁
▁section
▁Call
ologies▁
ibb
time
▁Oxford
▁Women▁
▁artific
▁projects▁
▁traveled▁
▁tables▁
▁photograph▁
▁gas
▁felt
▁dreams
▁phase▁
▁handsome▁
Joh
▁fuck▁
▁Third▁
umbling▁
ographical▁
Gu
irm▁
oma▁
▁Eff
▁Kal
▁Admir
▁Publish
▁frowned
▁Service▁
▁survived▁
▁employees▁
ita
▁motor
▁abrupt
▁goals▁
▁unlikely▁
▁continuing▁
▁properties▁
▁rose
▁nearest▁
▁tendency▁
▁courty
inations▁
▁disappoint
▁Also
▁Christoph
▁introduction▁
rich
▁Brand
▁elder
▁parts
▁bacter
▁films▁
▁parked▁
ouch
▁Life
▁Work
▁bird
style▁
▁click▁
▁mirror
▁emphasis▁
▁lav
ussel
▁justice
▁Saturday▁
▁Note▁
▁cloud
▁forces
▁logic▁
▁struggling▁
Who
▁jok
▁sits▁
▁Boston▁
▁Charlot
▁BC
▁gor
AV
▁Isab
▁deny▁
▁uneas
▁awful▁
▁wealth
▁maintained▁
syl
▁Contin
▁skill▁
▁Islamic▁
▁Dr▁
▁Others▁
▁sliced▁
▁amounts▁
mann
▁dug▁
▁everyday▁
▁extensive▁
itu
▁pir
▁lamp
▁obtained▁
▁experiment
▁drunk▁
▁normal
▁receiving▁
▁electronic▁
icians
▁Exper
▁shortly▁
▁Australian▁
▁revolutionary▁
▁conj
▁salv
▁sinc
▁user▁
▁devast
▁creates▁
▁rebell
▁walks▁
▁utterly▁
▁innocent▁
▁Morg
▁canv
▁cough
▁deleg
▁weapon
▁yesterday
J▁
▁Cy
▁SH
▁mode▁
▁branch▁
▁desert▁
▁traveling▁
▁Lieutenant▁
emin
oly▁
uman
▁shud
▁Blue▁
▁Maria▁
▁height
▁AD
itz▁
▁vamp
▁bridge
▁ocean▁
▁tries▁
▁Put▁
▁hide
▁oxyg
ulous▁
▁bits▁
▁writer
▁centuries
▁evolution
▁inquir
▁messages▁
▁instantly▁
▁C▁
▁heads
▁Ru
▁Jones
▁chemical▁
▁activities
ta▁
ials
▁Mol
rets▁
▁partner
▁colonial▁
▁Unfortunately
▁investigation▁
▁Vill
▁vibr
▁enjoying▁
▁competition▁
TER
bol▁
elle
▁Up▁
▁faint
▁deploy
his▁
face▁
▁denied▁
▁document▁
▁equivalent▁
▁Az
icism▁
▁debt▁
▁victims▁
can▁
▁beer
▁viewed▁
▁faces
▁select▁
▁weapons
▁beating▁
▁closest▁
▁gay▁
▁edited▁
▁recipe▁
▁bearing▁
▁objective▁
do▁
▁Fort▁
▁orders
▁planet
▁returned
▁confused▁
comp
▁bore▁
▁tail▁
▁thereby▁
▁significance▁
▁Road
▁desert
▁funds▁
kl
▁mess▁
▁finally
▁visitors▁
▁Greec
▁Luke▁
▁pour▁
▁steam
▁speaks▁
▁teacher
▁arguments▁
_."▁
▁buff
▁task
▁Asian▁
▁rapid▁
ference▁
▁mutual▁
▁provinc
▁Northern▁
tend▁
▁spark
▁unexpected▁
obb
rie▁
▁tap
ersonal▁
▁attracted▁
▁concluded▁
▁evolution▁
aly
▁Swe
▁Dan▁
▁authors▁
▁fishing▁
▁Ins
▁try
▁Brig
▁nost
▁Claud
▁gender▁
▁documents▁
ella
▁Mun
▁crime
▁improv
▁penetr
▁slammed▁
▁checking▁
▁Association▁
eek
▁Hand
▁plate
▁price
▁Grace▁
▁Hamil
ude
oven
▁pump
▁consol
▁School
▁sheer▁
▁texts▁
▁reaches▁
▁judgment▁
▁mountains
▁somewhere
spe
ien▁
▁CON
rimin
▁Men▁
▁mand
uality
▁dynam
▁helpful▁
▁nowhere▁
▁mos
ennis▁
▁autonom
▁compens
ask
omed▁
place
▁Magg
orders▁
stream▁
▁swallowed▁
imb
▁Mand
▁Wolf
mental▁
▁contact
▁Between▁
▁Francis▁
aks
▁UN
ari▁
olesc
oster
▁define▁
▁uniform▁
▁Philadelph
ived
▁Eis
▁Hop
▁Japan▁
▁surprising▁
▁bow▁
▁Santa▁
▁mention
▁tended▁
▁forever▁
▁returns▁
▁philosophy
▁Fred
▁Lucy▁
▁bathroom▁
▁prosper
▁waiting
▁examined▁
▁gap▁
▁soci
▁Nazi▁
▁funny▁
▁flowers
▁mobile▁
▁ling
▁casual
▁pepper
▁rested▁
▁---|---▁
▁initially▁
)**▁
onder
clock▁
▁seven
▁victim▁
Look
anny
▁Holm
▁rope▁
▁sculpt
idently▁
▁spo
▁opens▁
▁Looking▁
atter▁
▁bags▁
▁ghost
▁Road▁
▁forgot▁
▁comment▁
▁dangerous
cast
▁bru
Like▁
Take▁
▁enab
▁truck
▁Hitler
▁humili
▁powder▁
iday
alled
▁incomp
▁sorts▁
▁producing▁
URE▁
olutions▁
▁standards▁
ani▁
▁Simp
▁web▁
▁media
▁promp
▁pieces
▁tests▁
▁told
force▁
▁element
▁discovery▁
law
▁nurse▁
▁reward
▁William
▁resting▁
▁universe
pm
such▁
▁Jean
about▁
▁nightm
▁Battle▁
▁shaped▁
▁conflict
▁explains▁
▁beauty
▁vegetables▁
lymp
▁Viol
immed▁
▁Brian▁
▁involve▁
▁era▁
▁conspir
▁crying▁
▁democratic▁
Wor
eaf
ye▁
Our▁
▁Force▁
▁charge
▁wherever▁
ona
▁dou
▁Nobody▁
▁frightened▁
▁Army
▁Card
sen
▁legend
iful▁
▁Eric▁
▁bill▁
▁supporting▁
▁underlying▁
▁Ral
organ
▁learn
▁silk▁
▁carved▁
▁Supreme▁
▁smelled▁
ints▁
▁Jones▁
ora
▁eggs
▁enforc
▁formation▁
▁Hea
▁dogs
▁penc
▁print▁
▁suitable▁
▁track
▁cloth▁
arts▁
▁Love▁
▁Therefore
▁substantial▁
▁Gw
▁jur
▁Beat
▁always
▁sports▁
▁grounds▁
▁Republican▁
▁rect
▁articul
▁American
▁autum
▁guest▁
▁clinical▁
▁frequent▁
▁incident▁
▁nom
▁Ther
igger▁
▁Bible▁
▁Michael
▁Roosevelt▁
▁dread
▁Susan▁
▁plants
▁repeat▁
employ
pres
astic
▁Fair
▁Fried
▁drunk
▁teams▁
▁woods▁
ressing▁
▁customer▁
▁connections▁
wr
road
▁ratt
▁Wilson
▁homes▁
▁loving▁
▁peered▁
oper
▁asks
▁asleep▁
▁column▁
▁trading▁
UT
ean
elly
▁sooner▁
▁writes▁
▁possessed▁
▁Six
▁tox
▁Minn
▁cours
▁pace▁
▁succeeded▁
ulf▁
▁McK
▁matters
▁subtle▁
.'"▁
▁funny
▁Ze
Will▁
▁pupp
itious▁
▁Confeder
uj
ares
▁miles
▁incident
▁cigarette▁
▁Dur
▁haz
▁Samuel▁
▁suffici
▁collect▁
▁floating▁
▁meetings▁
▁sank▁
▁servants▁
chem
▁Iran
▁inhabit
▁rescue▁
▁psychiat
▁invisible▁
Ne
▁share
▁actions
▁background
▁cheap
▁crimin
▁officers
▁reflection▁
▁Pak
▁clen
istan▁
▁Jean▁
▁Texas▁
itter
▁Beck
▁wire
▁Wilson▁
▁colors▁
▁attractive▁
Or▁
▁Imper
▁Italy▁
▁wider▁
▁degrees▁
▁base
▁bund
▁analysis
▁insurance▁
▁personally▁
▁Do
▁cu
▁Braz
▁Matt
acement▁
▁symbol▁
▁argument
hi
▁ran
With▁
athe▁
▁graph
liament
▁shadow
▁worthy▁
▁climbing▁
▁elsewhere
cop
ason
▁pilot▁
▁listed▁
▁tremend
▁hierarch
▁measured▁
ray
abet
▁deli
▁retire
▁values
▁treatment
ta
▁fifth▁
overing▁
▁derived▁
▁suddenly
including▁
▁hint▁
▁Mexico
▁intrig
▁Zeal
▁cheese
▁laughter▁
▁disappeared
▁publication▁
▁recommended▁
▁transformed▁
ged
▁County▁
▁confident▁
▁impressed▁
▁prior
▁papers
▁sequence▁
▁wet
achus
▁Cree
▁neat
▁skill
▁Napole
▁planet▁
▁serves▁
▁brushed▁
▁muttered
▁biological▁
ele
▁_**
▁tie▁
▁glimp
▁tough
making▁
▁broken
▁Political▁
▁temporary▁
How
me▁
▁AB
ache
▁college
▁smiling
▁waters▁
▁clothing▁
▁tomorrow▁
ager
▁flashed▁
▁characteristic▁
isk
lyn
row
▁Sin
▁priest
▁tempor
▁buildings
▁stopping▁
▁neighborhood
ls
▁Tib
▁crack▁
▁shopping▁
▁mysterious▁
▁photographs▁
hist
spec
otta▁
▁Circ
level▁
▁trial
▁Almost▁
▁End
▁gods
▁suppos
▁ritual▁
▁mounted▁
▁supplies▁
berry▁
▁Alan▁
▁distr
▁sake▁
▁depth▁
▁disappear
ords
▁fellow
▁turned
▁resist▁
▁consistent▁
eys▁
olds▁
▁crou
▁spat
elling
ience▁
▁German
▁cared▁
▁nutrit
▁freshly▁
▁rational▁
▁scholars▁
nel▁
orph
eway▁
▁stubb
▁Albert▁
▁instant
▁prayer▁
▁carefully
▁medicine▁
cons
▁Air
cept▁
related▁
▁laughing
▁earliest▁
▁welf
▁Olymp
▁load▁
▁Boston
▁Mount▁
▁faded▁
▁breast▁
▁articles▁
▁entitled▁
UM
▁Daw
uster
▁und▁
▁Remove▁
▁emotion
▁studio▁
▁stirring▁
▁concentration▁
iana
nam▁
▁fields
▁dropping▁
itter▁
▁surpris
▁arrested▁
IF
low
▁ye▁
▁collect
▁nations▁
▁Phys
▁chin
▁approximately▁
IP
down
▁Neg
▁alle
▁dumb
oster▁
▁cheap▁
lim
ule
hip▁
rate▁
uted▁
when▁
▁coal
▁goal
▁Helen▁
▁shame▁
▁stimul
▁random▁
▁involving▁
▁Democratic▁
▁Of
▁mac
made▁
▁Batt
▁Caes
▁tape▁
▁healing▁
▁romantic▁
▁smok
▁artill
▁sheets▁
▁warmth▁
▁Australia
dis
▁Expl
▁cher
▁Super
▁indul
▁spun▁
▁urge▁
▁analog
▁circle
▁sweat▁
▁inspect
lor
ooks
▁seg
▁Jacob
▁plans
▁trusted▁
inf
▁Hu
era▁
wide▁
▁Empire
▁pretend▁
▁operation
▁permitted▁
▁Sym
tive▁
▁doorway
▁concepts▁
▁technology
▁Beg
▁J▁
▁aer
▁Jews
▁scent▁
▁platform▁
▁relieved▁
▁strategic▁
tor
ician
▁sniff
shaped▁
▁fabric▁
▁cognitive▁
▁researchers▁
some▁
▁nons
▁chron
▁Corpor
▁noble▁
▁maximum▁
bal
ball
▁swir
▁synth
atural▁
▁Berlin▁
▁illness
▁existed▁
▁demonstrated▁
▁jun
bridge
bed
addy▁
▁loos
▁swif
▁wheel▁
▁decades
▁believes▁
▁professor▁
▁approaches▁
▁translation▁
ev▁
Very▁
▁drive
▁strict
▁excitement▁
▁voy
▁evil
▁drag▁
▁loaded▁
▁qualities▁
▁moving
▁consult
▁encountered▁
▁successfully▁
▁Le▁
▁Wes
▁til
▁type
▁corrupt
▁markets▁
▁Berlin
▁fiction
▁logical▁
▁role
▁Food▁
▁Free▁
▁arist
▁honor
▁counsel
▁evident▁
▁transport▁
▁attempting▁
▁horm
▁advice
▁gazed▁
▁winning▁
bon
rupt▁
▁bomb▁
▁lean▁
▁happens
▁enemies▁
▁screaming▁
▁Nel
▁Rest
▁tale▁
▁woods
▁versus▁
▁football▁
▁swimming▁
▁everywhere▁
ray▁
▁haul
▁obser
▁since
▁knock▁
▁Protest
▁security
Any
▁Ak
▁lan
inder
▁figh
▁Domin
▁running
▁mountain
▁products
▁shocked▁
Can
▁pup
▁Fish
▁Turk
▁stagg
agement
▁Joseph
▁afraid
▁cycle▁
▁challenges▁
▁perception▁
▁Imp
pping
atures
▁noise
▁valid
▁commod
▁mystery▁
▁generous▁
Hist
▁barg
▁points
▁splend
▁medieval▁
▁rejected▁
▁constructed▁
▁Pic
▁Mach
▁Treat
▁growth
▁expert▁
▁finely▁
▁ladies▁
▁ward
▁divid
igious▁
▁pictures
▁influenced▁
▁neighborhood▁
▁characteristics▁
ala▁
▁Tomm
▁grave▁
▁ceiling
▁appeared
▁TV
otyp
▁din
ittee
▁Fran
inner▁
mission
▁switch▁
▁*
▁Len
cled▁
▁brid
▁bite▁
▁fancy▁
▁waited
▁stolen▁
▁Angeles▁
▁choices▁
▁Stand
▁forms
▁drops▁
▁cotton▁
erts▁
sylvan
▁sing▁
▁dispos
▁Please▁
▁kilomet
▁theories▁
▁Sad
▁awa
three▁
uffled▁
▁People
▁glimpse▁
▁trapped▁
▁satisfied▁
By▁
ux▁
▁tear▁
▁cities
▁desire
▁Journal
▁damned▁
▁origin▁
▁magnific
▁ast
oving▁
▁March
▁adult
▁Daniel
athan
▁caval
▁Ron
▁dad
long▁
essions▁
▁cheeks▁
▁saving▁
Pe
ée▁
▁games
▁dollars
▁Mexican▁
▁territory▁
▁intu
▁sleev
▁depend▁
▁stuffed▁
▁invasion▁
▁assistant▁
▁distinguished▁
bul
▁Joy
belie
▁Mother
▁Hy
icks
▁Him
▁Home▁
▁fabric
▁scarcely▁
▁describing▁
prof
▁Pract
▁datab
▁screw
abbing▁
▁holes▁
▁Jackson
▁purple▁
▁Finally▁
▁Lang
▁Sign
▁Broad
▁spell▁
**_▁
olding▁
▁clients▁
▁dominant▁
▁emerging▁
▁comparison▁
ras
terior▁
▁solve▁
▁urged▁
▁promote▁
ttps
uffed▁
under▁
▁skills
▁Aristot
▁Lim
▁FBI▁
▁bell▁
▁burst
▁hero▁
▁thou▁
▁Cover▁
▁Power▁
▁indiffer
▁NE
▁Vinc
▁soup▁
▁strip▁
▁towns▁
Chapter▁
▁shoved▁
▁Federal▁
▁connect▁
▁potentially▁
▁deliberately▁
▁duty
ressed
▁valley▁
▁genetic▁
▁spirits▁
▁equipment
▁Lt
Sure
▁Rud
▁sighed▁
▁sophist
▁displayed▁
▁scram
▁Jimmy▁
▁levels
▁confusion▁
és
oop▁
shire▁
▁diver
▁knows
▁grasp▁
▁Matthew▁
▁assault▁
Sc
▁Fle
▁Lin
▁News
▁Lewis▁
▁uncle▁
▁presents▁
▁vegetable▁
Cam
▁Gir
bury▁
▁Jerem
rolled▁
itative▁
▁courage
▁ending▁
▁Atlantic▁
bec
anted
occup
▁cash
ugging▁
▁termin
▁firing▁
▁stable▁
▁Australia▁
arl
▁guns
▁Brook
▁clock▁
▁thy▁
▁pressure
▁dressing▁
▁criticism▁
▁sensation▁
▁understood
erb
hatt
hour▁
▁Mitch
▁sauce
▁fascin
▁Ireland
▁charges▁
encies
▁match
▁conservative▁
ram
▁tore▁
▁prohib
▁Mediter
Or
The
uary
▁Low
▁acquaint
▁comments▁
▁physically▁
egg
▁Care
produc
▁observe▁
ects
agon▁
▁Goog
▁noteb
▁rely▁
▁Emily▁
▁elected▁
▁embrace▁
▁recording▁
icop
inson
▁cens
▁kingdom▁
▁sacrifice▁
outs
rell
▁outdo
▁exagger
▁photos▁
▁affairs▁
▁desperately▁
▁disgu
▁kick▁
▁flower▁
▁friendship▁
▁whir
▁Women
▁shell
▁expert
▁fill
▁athlet
▁Rachel▁
▁marched▁
▁introduce▁
▁Asia
▁lip▁
▁Party
▁reach
▁because
▁estimated▁
dri
▁Berg
▁cars
▁request
▁unconscious▁
▁bron
▁thri
▁eager
▁Father
▁Alexand
▁Minister▁
Where
▁Hung
▁Bank▁
▁Spain
▁therm
▁button
▁script
▁exists▁
▁brothers
idg
▁easily
▁march▁
▁elaborate▁
▁Wr
▁McG
▁glow▁
▁decent▁
▁tapped▁
▁ceiling▁
alization▁
▁contents▁
▁horrible▁
▁shouting▁
▁AP
atory
▁amus
▁borr
▁rebu
▁State
ainted▁
▁Think▁
▁colour▁
▁Sab
▁affirm
▁fears▁
▁folks▁
▁humans
▁failure
▁sample▁
▁chances▁
▁desired▁
▁smoking▁
▁recommend
▁resources
AY
Some▁
▁Elect
▁proud
▁footst
▁significantly▁
eps
▁sum▁
▁fled▁
▁consul
▁restaurant
OD
▁Hur
▁Age▁
▁aspir
▁fool▁
▁Death▁
▁shade▁
▁confron
▁defend
▁regret
▁isolated▁
AR▁
icism
▁Cross
iments▁
▁anywhere
▁placing▁
ala
eat▁
imil
▁Hart
gling▁
▁yard▁
▁alien▁
▁boxes▁
▁Mexico▁
▁features
▁improved▁
▁Imag
▁buzz
▁horn
iveness
▁Produc
▁Empire▁
▁palace▁
▁interrupt
oust
fting▁
▁dance
▁marsh
▁files▁
▁lands▁
▁lawyer▁
▁surprised
had▁
▁viv
▁agency▁
▁sensed▁
▁greeted▁
▁Bos
▁Barn
enness
▁Other
▁assert
▁criter
eton
eller
▁cells
▁slide▁
▁scenes▁
ét
amin
▁yard
▁moist
▁follows
OV
▁appet
immer
ucky▁
▁Lead
▁gaze
▁Pengu
▁scand
▁naval▁
▁roads▁
inkle▁
▁twice
▁wealthy▁
oen
▁Occ
▁flut
▁solem
▁precise▁
▁Fol
▁Tam
▁midst▁
▁unpleas
▁Rav
▁birds
▁motor▁
▁adults▁
▁sandwich
▁survival▁
▁committee▁
irs
▁Ann▁
▁Hollywood▁
apes
eare
▁Syl
▁When
Would▁
▁sink▁
inged▁
▁Later
▁plot▁
▁correl
▁endeav
▁hills▁
▁balance
▁imagination
away▁
▁Web▁
▁remain
▁increases▁
ucks
istry▁
▁stops▁
because▁
Par
inian▁
repren
▁strange
▁platform
struction▁
pic
▁CE
illa
▁Abra
▁Hosp
▁Rout
▁rifle▁
▁crushed▁
▁planted▁
▁dependent▁
Am
uz
But
IN▁
▁dawn▁
owning▁
▁Today▁
▁Massachus
▁exposure▁
▁stranger▁
iders▁
▁Portug
▁anthrop
▁cousin▁
▁cracked▁
▁hesitated
▁prospect▁
overy
▁bour
▁Foreign▁
oqu
tra
heim
▁Fort
icals▁
sized▁
▁foreign
El
iated▁
neath▁
lighten
▁opened
▁Library
▁eighteen▁
▁Desc
▁net▁
eries▁
▁boss▁
▁covers▁
▁launch▁
▁purely▁
▁Jonathan▁
▁marketing▁
▁trous
▁boats▁
▁lesson▁
▁terror▁
aissance▁
▁artistic▁
▁peculiar▁
abs▁
▁Equ
▁eds
inder▁
ba
ado
▁CA
▁Sun▁
▁folk▁
▁grinned
▁scholar
▁tender▁
▁resulted▁
▁appearance
▁strategies▁
ela
▁_'
▁FOR▁
▁lake▁
▁slipp
▁troops
aration▁
▁Things▁
emet
▁Ross
▁pale
▁ships
▁chairs▁
▁lessons▁
▁Pennsylvan
▁suggesting▁
rey
▁Belg
▁lights
▁experiment▁
iot▁
cling▁
▁moments
▁passes▁
▁pursue▁
▁magical▁
▁observation▁
Fig
Sorry
▁Data▁
▁Howard▁
▁changes
▁forming▁
▁minimum▁
▁acknowledge▁
▁Ka
▁brand▁
▁distur
▁farmers▁
▁outcome▁
▁theoretical▁
zer▁
▁fan
▁Bush▁
▁embod
▁search
▁indicates▁
▁impressive▁
▁panic▁
▁bureauc
▁chamber▁
▁Islam
▁Jake▁
▁seed▁
▁status
▁Wy
ietz
▁**"
▁such
▁owners▁
▁forgive▁
vin▁
▁Cathol
▁dealt▁
▁dozens▁
▁reaction
▁explaining▁
akers
mann▁
▁gran
▁Offic
friend▁
▁ruled▁
▁Justice▁
▁personal
▁sections▁
agan
atom
▁Aar
▁tid
iving
▁Priv
itting
▁shed▁
tly
gener
▁goss
▁reconc
itarian▁
▁extend▁
▁labour▁
▁intimate▁
che
▁Best▁
▁agend
▁skept
▁interv
▁users▁
▁Virginia
▁Adv
umed▁
▁ethical▁
▁fiction▁
▁Emma▁
▁Indust
▁accurate▁
real
▁Bure
▁deck
issipp
▁oldest▁
▁retriev
▁reserved▁
Man
thy
lights▁
▁eternal▁
▁fundament
▁startled▁
▁exception▁
▁sixty▁
▁schools
▁regional▁
▁statements▁
norm
▁budd
first▁
▁boots
efully▁
▁Water▁
▁catching▁
▁representation▁
▁AS
▁pepp
▁homes
▁Should▁
▁Buck
istics
scale▁
▁damp▁
▁cancer
▁tissue▁
▁satisfaction▁
▁Ray▁
▁Trad
▁guid
ongst▁
▁Philipp
▁flavor▁
▁waving▁
▁fortune▁
▁Navy▁
▁crisis
▁stores▁
▁virtue▁
▁Williams
▁emotion▁
urp
ption
▁soldier
▁survey▁
▁manufactur
eff▁
▁awak
▁acid▁
▁agent
▁carro
▁depri
▁ugly▁
lad
▁bay
▁Magn
▁Carl▁
▁straw
▁widesp
▁Tar
lands
▁celeb
▁scale
icitly▁
▁score▁
▁silver
▁bullet▁
▁slightly
▁inclined▁
▁Ec
▁Vo
med▁
▁le▁
▁Club▁
▁archae
▁curled▁
▁interesting
▁transition▁
ontane
▁corn▁
▁dull▁
▁aboard▁
▁natural
▁familiar
▁shining▁
▁Egyptian▁
▁referring▁
▁dw
▁Ford▁
▁Page▁
▁cheeks
▁detect
▁safety
▁feeding▁
ques▁
trans
▁soil
▁horrif
▁orient
Look▁
▁cruel
▁movie
▁pierc
▁taken
▁accident▁
ode
sey
▁bub
Hello
ashes▁
▁guilt▁
▁essence▁
▁lou
orter
▁joke
▁Queen
▁wishes▁
▁interrupted▁
▁BE
otten
▁Maur
tedly▁
▁eleph
▁mask▁
▁yellow
▁intent▁
▁manager
▁Economic▁
mo
▁Ts
▁Ut
peror
▁repet
▁border
▁dishes▁
▁El▁
erie▁
▁fuck
▁belt▁
▁searched▁
▁belly▁
▁steep▁
▁drifted▁
▁grinned▁
________________
vin
orted
▁outf
▁accus
▁apple▁
Perhaps▁
▁Taylor▁
oul▁
▁Cold▁
▁Books▁
▁Times▁
▁therapy▁
ags▁
ware
▁ISB
▁DNA▁
▁pop▁
▁keen▁
▁brave▁
▁refuse▁
▁beliefs▁
▁purchased▁
eing▁
▁bone
▁cliff
▁etern
▁links▁
▁library
▁forcing▁
▁upstairs▁
▁association▁
▁communicate▁
abs
known
▁Feder
▁objects
▁readily▁
▁understanding
▁cob
rant▁
▁Kent
▁profit▁
▁consists▁
▁silently▁
alg
paren
▁nick
▁Matt▁
▁bond▁
▁wrest
▁beaten▁
May▁
ews▁
▁cath
▁Conserv
▁parties
▁factory▁
▁regions▁
▁sisters▁
▁Ky
▁gn
ypt▁
▁hit
▁Hugh
▁gray
▁Progr
▁thousand
▁Elizabeth
▁dominated▁
▁assistance▁
ira▁
▁Jun
▁range
▁exceed
ustomed▁
▁helicop
▁affection
▁possession▁
▁references▁
▁repeatedly▁
▁situations▁
▁angle▁
▁assessment▁
law▁
▁Who
▁wea
▁Oliv
▁bones
▁alcohol
▁safely▁
▁alcohol▁
▁celebrated▁
haired▁
▁Grant▁
▁grain▁
▁Valley▁
▁facilit
▁beloved▁
▁elegant▁
▁murmured
▁components▁
OG
boy
▁Esp
▁Mort
▁queen▁
▁affair▁
▁suppose
▁combine▁
▁Secretary▁
▁contributed▁
igu
pos
▁Heg
only▁
▁config
▁tasks▁
▁weekend
▁revealing▁
uce
artment
▁flung▁
▁harsh▁
▁Beyond▁
▁Intellig
Le
iful
▁Lam
ergy▁
agers▁
▁bars▁
ication
▁flight
▁thunder
▁DC
▁if
▁Dom
▁hearts▁
▁hundred
▁democracy▁
▁Shel
▁companies
oves
othy▁
▁cinem
▁sang▁
▁grace▁
▁imagin
onymous▁
▁Mississipp
▁newspapers▁
▁transformation▁
▁Nev
uded▁
▁Six▁
▁Try▁
▁lingu
▁Han
▁row
▁Ten▁
▁Wild
▁stages▁
▁substance▁
Here
▁Fal
▁Ever
▁sham
▁tank▁
▁steam▁
▁stiff▁
▁target
igenous▁
▁periods▁
▁believing▁
▁realm▁
▁expansion▁
La▁
ario▁
rose▁
▁Ball
ooked▁
▁balcon
▁missing
▁preserve▁
▁Historical▁
gov
▁Wed
aught
▁Face
▁Self
▁soup
▁Laura▁
▁ghost▁
▁hungry
▁poems▁
▁hungry▁
▁exercise
▁routine▁
oot▁
▁yeah
▁shell▁
▁tower▁
▁Golden▁
▁counted▁
▁location
▁stumbled▁
▁Christopher▁
ios▁
▁demonstrate▁
onut▁
▁nervous
▁Francisco▁
oan
icity
▁jaw▁
▁Thomp
▁Years▁
▁Tim▁
▁cap▁
▁arrest▁
▁talent▁
▁interrog
▁servant▁
▁happiness
ifications▁
▁identical▁
aily
icken▁
▁sale▁
▁weird▁
▁reform▁
▁Anthony▁
▁remembering▁
▁acid
▁pen▁
▁League▁
▁avoided▁
▁Moh
▁era
▁Nick
▁bush
▁fate
▁Quest
▁Nancy▁
▁regime▁
▁imprison
▁relationships
▁NY
▁III▁
▁Vers
▁helm
▁wond
▁cuts▁
▁shore▁
▁versions▁
ATION▁
After▁
▁camera
▁intelligence
▁Cav
▁Meg
▁tack
▁ocean
▁fault▁
▁Manhatt
▁excess▁
▁mighty▁
▁laughter
oom▁
▁Seb
▁boil
▁skel
asses▁
▁brick▁
▁resent
ias
mat
▁Sea
ouses▁
alysis▁
▁immense▁
▁forehead▁
▁recommend▁
▁spreading▁
world
▁Comb
▁pray▁
▁cabin▁
▁essay▁
▁protection
AND
▁PR
och▁
▁Ian▁
▁List
▁chim
▁fever
▁Twenty
▁achiev
▁guided▁
▁produces▁
▁concentrated▁
ico
▁Ken
▁Bull
▁virg
▁Except▁
▁leaders
Me
▁patients
▁machines▁
ugs
raw▁
orith
Christ
▁shame
▁slaugh
▁dynamic▁
▁bowed▁
▁captain
▁clever▁
▁intensity▁
▁Night
▁injur
▁Papers
▁swing▁
▁Charles
▁multipl
▁advantage
▁performing▁
af▁
▁DE
row▁
▁Die
raph▁
▁fist▁
▁thumb▁
▁educational▁
alf
▁Om
Right
▁Wall▁
▁layers▁
▁studies
▁protest▁
▁TW
▁amp
▁gut
ules▁
▁Time
▁bare
▁poetry
▁Set▁
ias▁
itors
▁echoed▁
▁Earl▁
▁arbit
▁compr
ounder▁
▁rather
▁effects
▁conversations▁
aled
▁Theod
▁fatig
▁valley
▁solution
▁settlement▁
▁('
▁knee
▁fans▁
▁bench▁
▁Family▁
▁jerked▁
▁obvious
▁emotions
▁whoever▁
▁vulnerable▁
▁participants▁
aws
bell
four
▁guys
▁Group
▁noted
▁reply▁
▁quality
▁shrugged▁
▁residents▁
▁Information▁
▁difficulties▁
▁headquarters▁
▁mant
▁pear
▁baseball▁
▁mechanical▁
▁simultaneously▁
▁Na
inth▁
icated
▁Andre
▁Griff
▁built
▁lived
▁sixty
▁Invest
▁client
▁colored▁
edly
▁Saf
ante▁
▁empir
▁rough
▁basket
▁choosing▁
ifer
▁juice
▁plane
▁triang
▁enemies
▁critics▁
▁devices▁
▁transparen
fig
▁ON
▁Stu
▁Bart
▁item▁
▁copies▁
▁descend
▁praise▁
▁gripped▁
▁Cz
enses
▁nerve▁
▁Barbara▁
olis
riet
viron
oused▁
uccess
▁Toront
▁square
▁housing▁
▁protein▁
▁sliding▁
▁switched▁
':▁
AY▁
emic▁
▁earn▁
▁maybe
▁victory
▁tremendous▁
▁uncomfortable▁
▁Tok
▁sie
fire▁
▁ripp
▁index▁
▁Friday▁
▁tracks▁
▁generated▁
umber
▁Mons
▁semi
▁sheep
roll▁
▁Tues
▁hole
▁trop
▁drugs
ranean▁
▁Johnny▁
▁monarch
▁maintaining▁
▁preparation▁
AD▁
med
ayer▁
unks▁
▁code
▁warf
Thanks
▁facult
▁fleet▁
▁parent
▁burden▁
▁lasted▁
▁decline▁
▁witnessed▁
▁artificial▁
▁gather
▁welcom
▁empire▁
▁purposes
▁Franklin▁
▁furniture▁
▁gentleman▁
▁discussing▁
▁ok
▁Phill
▁shrie
▁seriously
▁continuous▁
rast
▁rott
orders
▁Center
▁talks▁
▁ambassad
▁amongst▁
▁statement
▁individuals
▁possibilities▁
Dr
ATION
igan▁
▁Ruth▁
▁Madame▁
▁adolesc
▁dismissed▁
▁transferred▁
spr
▁Joe
ushed
▁Amaz
▁Fire
▁Stew
▁fract
▁crying
▁powers
▁chamber
▁circles▁
▁underneath▁
▁intelligent▁
▁Ms
egro▁
▁comr
▁cited▁
▁former
▁shapes▁
▁demanded
▁operate▁
▁sometimes
child
▁diet
▁Power
▁error▁
▁gently
▁Patrick▁
▁Studies▁
▁elderly▁
loc
ota▁
▁Conc
▁groc
▁reson
▁risks▁
▁solar▁
▁Making▁
▁gestured▁
▁directions
▁governments▁
ped
cult
▁Anyway
▁ongoing▁
▁Division▁
▁expanded▁
enna▁
▁lake
aving▁
▁Langu
▁salad▁
iblical▁
▁enable▁
▁regret▁
▁retired▁
▁collapse▁
▁screamed▁
umer
▁Roll
▁Surv
▁Asia▁
▁disgust
▁deserve▁
▁Benjamin▁
▁invented▁
And
eyn
Coll
▁les
▁funeral▁
▁insight▁
▁district▁
▁Quar
▁Liber
▁framework▁
▁necessity▁
Does▁
kers▁
rous▁
▁Orle
▁rank▁
▁narrow
▁prompt
▁governor▁
▁Revolution▁
▁threatening▁
kr
▁Al▁
▁Var
▁pound▁
▁Lincoln
▁session▁
▁television
▁Fitz
idential▁
la▁
▁Sid
aste▁
▁wing▁
▁blank▁
▁craft▁
▁classes
▁modest▁
▁Vietnam▁
▁Williams▁
▁secondary▁
▁UK▁
athers
▁Freed
▁glory▁
▁murdered▁
▁paintings▁
▁Jers
▁vice▁
▁Afghan
▁Hotel▁
▁abuse▁
▁appreh
▁higher
▁behalf▁
▁lonely▁
▁guessed▁
▁arriving▁
▁interests
▁Christians▁
kend▁
▁pudd
▁exclud
▁topic▁
fulness▁
▁characters
▁responses▁
opl
▁Tol
▁Yet
awed▁
▁Sydn
▁slop
▁knee▁
▁contrary
▁offices▁
▁shelter▁
?**▁
vis▁
▁Gor
ieties
minute▁
▁Donald▁
▁completely
▁assumption▁
▁consumption▁
AK
▁June
▁sin▁
▁sort
▁beans▁
▁stream
▁Medical▁
▁accomplished▁
▁na
resent
▁keys▁
▁skull
▁implications▁
fash
most
▁jung
Please
ensity▁
▁thresh
▁blanket▁
▁website▁
▁aesthetic▁
▁passenger▁
▁contribution▁
▁requirements▁
▁hac
▁steal▁
▁joining▁
▁painting
▁characterized▁
▁representative▁
▁Coh
▁Beth
itated▁
▁Taylor
▁ethnic▁
▁scheme▁
▁generate▁
▁realised▁
▁PL
▁LOR
▁griev
▁rage▁
▁write
▁roles▁
▁actors▁
His▁
▁Fab
clock
emen▁
assed▁
▁Give▁
▁White
▁suffering
▁agricultural▁
)—
v▁
mun
ribe▁
▁tempt
▁Bruce▁
▁Spain▁
▁shower▁
▁suited▁
▁weakness
▁exhausted▁
▁Furthermore
▁contribute▁
▁automatically▁
OW▁
serv
▁PAR
▁Jason▁
▁proclaim
ali
her▁
▁Van
▁blow
These▁
ernal▁
▁alien
▁posit
▁print
▁fence▁
▁Rather▁
▁parent▁
▁basically▁
▁,"▁
▁tar
umps▁
▁maid
▁arts▁
▁tent▁
▁ripped▁
▁pursuit▁
▁strategy
▁territory
▁incredible▁
▁interaction▁
ima▁
mail▁
▁chat
▁sher
ewing▁
ocial▁
▁older
▁ration
▁lifting▁
▁relaxed▁
▁abstract▁
▁Following▁
▁complained▁
za▁
▁Insp
▁micro
▁hence▁
▁spontane
▁cleaning▁
▁delicious▁
▁widespread▁
ading
▁abol
▁outs
▁deter
▁rows▁
▁Social
▁arrange▁
▁avoiding▁
▁suggested
▁generations▁
▁grandmother▁
▁establishment▁
yme▁
stone
▁bay▁
ester▁
▁Julia▁
▁Saint▁
▁explor
▁mushroom
hi▁
▁Bert
▁CIA▁
▁kidn
▁jacket
▁shots▁
▁underm
▁Hannah▁
▁shares▁
▁chronic▁
▁hitting▁
▁demanding▁
▁discipline▁
eli
ENT▁
ele▁
five
▁Cit
▁Cook
▁Mind
ensed▁
▁senses▁
▁pouring▁
▁networks▁
ET▁
pow
addy
bury
▁Land▁
▁wrist
▁alarm▁
▁shallow▁
▁Churchill▁
inth
rop▁
▁Sour
▁jobs
▁penn
▁rent
▁sales
▁Democrat
").▁
Cont
▁Sor
wise▁
inson▁
▁arrog
▁switch
▁glasses
▁Tob
attle
▁Hans
▁laws
▁Elean
arting▁
icting▁
▁cheek▁
▁inters
▁superv
▁swear▁
▁illness▁
▁standard
▁management
▁Shakespeare
▁Pil
▁Perc
▁pages
▁hospit
▁slice▁
was
▁ly
kind
▁eyel
urance
▁seventy
▁visits▁
▁medicine
▁shifting▁
▁victim
▁Senate▁
▁deadly▁
▁Constant
▁percentage▁
▁RA
aze▁
ela▁
▁orb
▁Compl
▁efficient▁
▁regardless▁
ble
anim
ede▁
reat
ding▁
▁util
▁Spirit
▁coordin
▁dreamed▁
▁Business▁
▁acknowledged▁
_,▁
▁Bec
page▁
▁pizz
▁profit
▁heaven▁
ja▁
ibli
▁Lad
Only▁
atisf
▁cort
▁neph
▁fond▁
▁source
abilities▁
▁inevitable▁
ige▁
▁mudd
▁Eight
▁Ryan▁
▁Short
▁frame
▁failed
▁indign
▁consideration▁
▁Oce
load▁
▁mud▁
anges▁
eight▁
▁sole▁
▁squad
▁Study▁
▁humanity▁
▁consequence▁
iah
▁nois
urrect
▁Light▁
▁Inside▁
▁quarter
▁Republic▁
▁entrepren
'"▁
hard
▁parag
▁commer
▁superior
▁Ast
▁bew
▁tyr
▁mail
▁wick
▁maneu
unting▁
▁Egypt▁
▁sixteen▁
▁unnecess
▁engagement▁
ouss
▁Nietz
▁Kevin▁
▁awake▁
▁prejud
▁casual▁
▁D▁
▁stere
inting▁
▁beings
▁tales▁
▁fierce▁
▁glowing▁
▁punishment▁
Ed
▁x▁
mon▁
▁Sex
▁mamm
▁unst
▁Stone▁
▁panel▁
▁affairs
▁architecture▁
aser▁
▁Shad
▁tatt
▁dating▁
▁reverse▁
Col
arat
boy▁
case
▁riv
▁impul
Please▁
▁seats▁
▁extract
▁reward▁
▁electrical▁
▁grandfather▁
▁Bul
▁Fut
▁Dave▁
▁pione
▁observed
▁recovered▁
▁PRO
oria▁
▁Fred▁
▁beef▁
▁Nicholas▁
asy▁
▁Ein
▁Syn
▁useful
▁corners▁
▁employment▁
▁abandon▁
▁compare▁
▁Development▁
▁Fro
▁uncon
▁despair
▁duties▁
▁democracy
▁Had
▁Cook▁
▁peak▁
▁Prime▁
▁delighted▁
▁suggestion▁
▁nud
fall▁
▁brig
▁pars
state▁
▁fund▁
▁incon
▁tooth
▁tends▁
▁phenomenon▁
amn▁
auth
▁vert
aware▁
▁dying
▁pause
▁coach▁
▁geomet
▁pulls▁
▁Morgan▁
▁departure▁
▁underground▁
orig
odes▁
▁Daily▁
▁Thanks▁
▁entrance
▁portrait▁
adv
▁obedi
▁bothered▁
oli▁
▁Terr
inkled▁
▁dared▁
▁tested▁
▁worship▁
▁pregnant▁
▁aggressive▁
▁presidential▁
▁Fo
foot
low▁
mark▁
▁trick▁
▁answers
▁awkward
▁breathing
▁independence▁
▁owe▁
▁Open▁
▁grave
▁grief▁
▁Catherine▁
▁reception▁
eur▁
grad
▁Dyl
▁Carm
▁Jeff▁
▁Convent
▁network
ertainly▁
▁Israeli▁
▁bottles▁
▁companion
▁behaviour▁
▁sophisticated▁
▁Si
abul
oned
▁tob
acter
▁Gill
▁cord
▁Roman
▁surge
▁reveals▁
▁registered▁
alt
rap▁
▁Che
▁Mik
Cross
acher▁
▁cards
▁dates▁
▁satell
▁Either▁
▁warning
▁advised▁
▁minister
▁Scottish▁
eway
▁Sir
▁outp
▁basis
▁partners▁
▁wandered▁
▁vegetables
box
▁Son
▁sew
▁desir
▁immort
▁awkward▁
▁doorway▁
List
▁vague▁
▁Alfred▁
▁Avenue▁
pre
,**▁
inner
▁dig▁
▁inhib
▁magazine
alty▁
▁beast
▁prest
▁Atlant
▁elite▁
▁anxiety
▁immune▁
▁student
▁required
▁mechanism▁
▁operations
▁]▁
erto▁
iger▁
▁Eve▁
▁Miller
▁Imperial▁
▁Introduction▁
▁Da
▁payment▁
▁Remember▁
▁generation
▁IT▁
▁Nixon▁
▁promise
▁besides▁
▁virtual▁
▁birthday▁
▁instance▁
▁Hud
▁Hug
▁Resp
▁file
▁facts
▁goals
atively
▁Jacob▁
▁pants▁
▁fourteen▁
▁responsib
▁VII
oven▁
rons▁
▁Happ
▁diverse▁
▁Sergeant▁
▁exchanged▁
▁instrument▁
▁distinctive▁
BC▁
rens
▁kne
esty▁
▁Around▁
▁breathe▁
▁extract▁
▁suicide▁
issa▁
▁Down
▁gloom
▁guilt
▁moved
▁pulse▁
▁series
▁rubber▁
▁tunnel▁
▁retreat▁
▁weekend▁
▁VI
tery▁
▁bench
▁castle▁
▁countless▁
kes
oman
▁Hoo
▁Cand
▁cere
▁leap
▁Were▁
▁odds▁
▁peeled▁
▁Ireland▁
▁obliged▁
▁Similarly
▁historian▁
▁proportion▁
six▁
▁mail▁
▁meals▁
▁undoub
▁council▁
ologically▁
▁component▁
▁conception▁
▁explanation
▁IV
inge▁
▁carn
anger▁
agging▁
▁cruel▁
▁algorith
▁absorbed▁
▁gul
innam
otal▁
▁aged▁
▁Apparen
▁Police▁
▁admitted
▁historic▁
▁SU
ripp
▁spok
▁spell
▁melted▁
▁strictly▁
oc▁
▁–;▁
▁antiqu
▁impati
▁exciting▁
ropri
▁Leo▁
▁dwar
▁fan▁
ontal▁
▁ended
▁Davis▁
ications
▁homosex
▁options
▁willing
▁category▁
▁prostitut
▁nu
▁repr
▁ties▁
▁bears▁
▁curve▁
▁drinks▁
▁wholly▁
▁customers
▁practices
▁stepping▁
▁candidate▁
▁procedure▁
CE▁
adequ
▁July
▁dess
▁Apoll
▁monit
anking▁
▁crash▁
▁invite▁
▁Administ
▁potatoes▁
Comm
now▁
▁Club
▁clock
▁wrap▁
ptions▁
▁dated▁
▁hammer
▁ceremon
▁childhood
▁reliable▁
▁testimony▁
▁accustomed▁
▁protecting▁
▁Inn
rand▁
▁Box▁
▁surround
▁distributed▁
▁influential▁
rum▁
▁Gib
▁dys
▁medi
▁awake
▁bottle
▁drama▁
▁jealous
▁novels▁
▁yelled▁
▁loyalty▁
▁sentence
▁theater▁
itty▁
omic▁
rogen▁
▁Where
▁barrel
▁Taking▁
▁humanity
olph
▁fee
▁ceas
▁blown▁
▁raced▁
▁Academy▁
▁blowing▁
▁involvement▁
like
yram
▁lets▁
▁mild▁
▁spons
ingham▁
otherap
▁Jerry▁
▁patch▁
▁commiss
▁holiday▁
▁sufficiently▁
des
▁bust
▁glad
▁Theat
▁hers▁
▁Annie▁
▁Negro▁
▁nearby
▁specul
▁strain▁
▁Emperor▁
▁Charlotte▁
eat
▁Oh▁
▁Ric
utes▁
▁unit
olves▁
▁Bible
▁Dark▁
▁Gary▁
▁gifts▁
▁confess
▁imposed▁
▁possess▁
▁guarantee▁
▁processing▁
▁probability▁
SI
Sm
▁Thurs
▁partn
ressive▁
▁injured▁
▁following
▁lighting▁
▁Book
▁balls▁
▁liquid
▁pistol▁
▁records
▁sources
▁Columbia▁
▁agreement
▁infinite▁
zh
oft
▁tip
word▁
▁Adam
▁Eisenh
▁Seven▁
▁conting
▁civilian▁
▁distinguish▁
▁determination▁
IST
bye
yll
etime
high▁
acles▁
▁joke▁
▁battal
▁loyal▁
▁shops▁
▁hostile▁
▁welfare▁
▁hid▁
▁unemploy
▁corridor▁
▁sovereign
▁challenging▁
▁Bat
▁gift
▁piss
▁twelve
▁ignoring▁
rd▁
▁ts
▁Hem
▁blond
▁Corps▁
▁resistance
atty▁
lock▁
▁Mall
▁jail
▁crept▁
▁Spirit▁
▁budget▁
▁dispers
▁kingdom
▁similar
▁mothers▁
▁symbolic▁
▁societies▁
▁rent▁
▁empire
▁grows▁
▁movements
▁presumably▁
▁OK
▁Hend
▁nest
rates▁
▁Clark
▁Ident
▁forget
▁careful
▁lacked▁
▁recovery▁
▁teaspoons▁
▁altogether▁
▁Jim
imens
unned▁
▁images
▁representing▁
uses
▁dim▁
Which▁
▁cave▁
▁Kennedy
▁written
▁misunder
▁featured▁
▁artillery▁
▁assembled▁
ete
▁liv
▁Okay
▁flag▁
▁tools
umping▁
▁marvel
▁poverty▁
especially▁
▁commanded▁
▁depression▁
▁Ey
icts▁
▁Cost
▁Lloy
▁ref▁
▁succ
▁tool
▁rocks
▁wings
▁resign
▁troubled▁
▁converted▁
▁respected▁
▁inevitably▁
▁AT
▁SC
don▁
inch
were▁
▁adds▁
▁chill▁
▁unity▁
▁scream▁
▁Douglas▁
fts
▁Ay
▁g▁
▁Tog
▁spin
faced▁
▁Allen▁
istical▁
▁flames▁
▁stroke▁
▁claiming▁
▁Cow
▁Ton
ecca▁
being▁
▁managing▁
▁peaceful▁
▁publicly▁
▁ON▁
▁dub
▁leaf
▁blond▁
▁pitch▁
▁ranks▁
▁yield▁
▁cooking
▁horizon
▁digging▁
▁elements
edge
▁Dean▁
▁wareh
▁relent
▁clothing
▁director
▁flowing▁
then▁
uated▁
▁inequ
▁spraw
▁Harper
▁washing▁
▁officially▁
amil
▁each
▁rejo
▁Star▁
▁Review▁
▁hollow▁
▁confront
▁removing▁
▁vehicles▁
PL
pd
isms
▁Far▁
▁Karl▁
▁Lawrence▁
my
▁outcom
▁random
▁Through
▁evolved▁
▁rendered▁
▁Commission
▁Jefferson▁
▁examination▁
vy▁
▁Ty
▁Sac
Even▁
▁ass▁
ighter
▁physi
▁Andrew
itching▁
▁assure▁
▁nevertheless▁
▁Are
▁adjust▁
▁armies▁
▁arguing▁
▁belongs▁
▁metaphys
vol
▁put
ighth
▁mild
▁panic
▁quit▁
▁colour
▁breaks▁
▁intend▁
▁secured▁
▁expectations▁
▁da
aire
▁Rain
▁Hawai
▁punct
Washing
▁array▁
▁legitim
▁confused
▁learning
▁experiences
—'▁
▁LE
▁jewel
▁resid
▁thank
▁Sunday
▁crown▁
▁tribut
▁worksh
▁install
▁chapters▁
▁publishing▁
▁intervention▁
anqu
▁mini
eters▁
▁Color
▁faster
▁creature
▁persuade▁
▁discussion
▁discussions▁
Act
"),▁
▁Cec
▁Ker
▁blu
▁di▁
inny▁
shot▁
▁aven
▁funer
▁insul
▁menu▁
▁Again▁
▁grant▁
▁lawyer
▁prince▁
▁strict▁
▁blinked▁
▁collapsed▁
▁reporting▁
](
oli
opath
▁humor
▁whites▁
▁listening
pent
▁unto▁
▁Marcus▁
▁Francisco
▁adequate▁
▁boundaries▁
▁opportunity
irst
▁Texas
▁Treas
▁recoll
▁oxygen▁
▁Association
Gl
inn▁
▁del▁
rated▁
▁queen
▁draft▁
▁scope▁
▁Polish▁
▁survive
▁Commission▁
▁enthusiasm▁
▁Cli
▁This
▁coar
▁whit
access
▁coach
▁theor
▁Albert
▁fitted▁
▁plates▁
▁experts▁
▁Victoria▁
▁doctrine▁
▁educated▁
▁relations
▁sunlight▁
As
▁Hamp
▁Andy▁
▁tips▁
▁Nature▁
▁commit▁
▁vessel▁
▁summoned▁
▁depression
▁traditions▁
▁Wa
▁Lock
▁hills
▁metal
▁garlic
▁Working▁
▁attract▁
▁slightest▁
▁CO
God▁
atever
emble▁
▁Allied▁
▁exactly
▁popular
▁birthday
▁restore▁
▁opinions▁
▁identification▁
itt▁
ectic
▁sons
▁hunt▁
chester▁
▁Korean▁
▁movies▁
▁vertical▁
▁consisted▁
▁Tow
▁ram
▁Town
▁belly
▁Eddie▁
▁assist▁
▁journal▁
▁reducing▁
▁attitudes▁
▁subsequently▁
arily
cient
ospel▁
▁Guard
▁gates▁
▁handle
▁underw
▁neatly▁
▁seldom▁
▁answering▁
▁Bh
uns▁
▁Kle
▁mud
aren▁
▁amid▁
▁damage
▁Gabriel▁
▁approved▁
▁explosion▁
▁participate▁
▁Osc
ority
▁Past
▁mobil
ielded▁
▁Blood▁
▁Victor▁
▁challenge
▁focusing▁
▁commission
▁confidence
▁extension▁
▁partially▁
▁poly
▁exit▁
▁hire▁
▁digest
▁fluid▁
▁verse▁
liament▁
▁glared▁
▁expense▁
▁muttered▁
▁daughters▁
▁surviving▁
▁incredibly▁
EP
▁Ale
▁Pict
▁lord▁
▁metab
▁minds
▁Museum
▁slaves
▁visual
▁volume
▁disagre
▁emperor▁
▁fantasy▁
▁realized
▁thirteen▁
ural
▁Sle
ricul
▁rear
▁Report▁
▁carbon▁
▁Clar
▁bubb
▁ride
retched▁
▁Rights▁
▁creativ
▁foolish▁
▁illegal▁
bet
▁dirt
▁ineff
rospect
▁Danny▁
▁delay▁
▁thanks
▁emerge▁
▁resolve▁
Har
aken
▁Herm
▁Light
▁bulk▁
▁entert
▁Native▁
▁museum▁
▁Cos
▁nap
▁End▁
▁Sylv
▁option
▁yours▁
imental▁
▁judgment
▁favourite▁
▁SA
ups▁
elia▁
umph▁
▁rage
▁cockt
▁hyster
▁pounds
▁channel▁
▁sustained▁
▁acceptance▁
God
alt▁
coll
▁Typ
bell▁
ooped▁
olitical▁
▁signals▁
▁purposes▁
▁defensive▁
▁mathematical▁
q▁
▁Mack
▁beyond
▁Council
▁broader▁
▁confirm▁
▁railway▁
▁carriage▁
▁reflects▁
▁warriors▁
▁structural▁
▁TR
ael▁
ester
ogue▁
uate▁
▁bloss
▁actor▁
▁saucep
▁babies▁
▁killer▁
▁episode▁
▁clearing▁
▁reluctant▁
▁attributed▁
.]▁
IC▁
lessly
world▁
▁inadequ
▁shadows
▁sucked▁
TION
scre
▁Leb
▁bann
▁loun
▁finest▁
▁Christmas
▁sympathy▁
▁descended▁
▁advertising▁
Two▁
veill
▁chor
▁plac
▁bold▁
▁alert▁
▁silly▁
▁intimid
▁laying▁
▁racing▁
Q▁
ez
irts
▁Opp
▁drop
▁harsh
▁vary▁
▁Bobby▁
▁ratio▁
▁Moscow▁
▁admired▁
▁Buddhist▁
▁presentation▁
eek▁
▁furious▁
▁stripped▁
▁elsewhere▁
anj
una▁
▁sha
illed
▁Lanc
▁Moon
▁Davis
▁afford
▁bourge
▁autumn▁
▁carries▁
▁delivery▁
▁reporter▁
▁detective▁
ERS
wise
▁Cad
▁Viv
▁kin
▁pon
ingham
itage▁
▁sail▁
rastruct
▁catalog
Rep
enna
roid
▁merg
▁tank
▁After
▁Rever
▁pine▁
olitan▁
▁Oliver▁
▁Admiral▁
▁Section▁
▁arrangement▁
Car
active▁
▁marble▁
▁confined▁
oir▁
▁COM
▁vagu
▁Marie▁
▁explain
▁output▁
▁backward▁
▁persuaded▁
'_▁
idden
▁Love
▁ramp
dness▁
▁Work▁
▁okay▁
▁Angeles
▁rounded▁
▁participation▁
rot
urs▁
▁tut
▁coal▁
▁plain
▁submar
▁Mountain▁
▁sticking▁
▁proceeded▁
▁businesses▁
▁stretching▁
Gener
▁Trib
▁bicy
▁Ralph▁
▁temple
▁ruined▁
▁frequency▁
Rem
▁mun
gles▁
stand▁
▁Illino
▁utter▁
▁blessed▁
▁rushing▁
▁forgotten
▁primitive▁
Was▁
iac▁
aired▁
▁****▁
▁Malcol
▁heels▁
▁spaces▁
▁breasts▁
▁coconut▁
▁secrets▁
▁terribly▁
▁accepting▁
▁discourse▁
Int
igm
▁To
top▁
▁dur
▁Head
▁busy
▁scal
▁velv
▁Harry
▁machin
▁popped▁
▁strode▁
▁thread▁
▁unhappy▁
▁counting▁
▁Victorian▁
▁expressions▁
.—
Be▁
just
lyn▁
▁Farm
▁decade
▁schedule▁
▁companion▁
▁Christianity▁
▁pub
shire
▁Magaz
▁illum
▁Moscow
▁sharply▁
▁offensive▁
▁corresponding▁
ca
ILL
ila
▁UK
aya▁
fall
▁tab
TION▁
▁Emer
▁infrastruct
▁communications▁
▁constitutional▁
▁mans
▁Camer
▁lists▁
▁powder
▁souls▁
▁Graham▁
▁slices▁
▁corridor
▁slapped▁
▁reduction▁
gun▁
eterm
heat▁
▁driv
▁pref
▁Hugh▁
resses▁
▁wilder
▁damaged▁
▁flipped▁
▁industri
▁glorious▁
▁prisoner▁
▁writings▁
dem
Give▁
ience
▁Cut▁
▁keep
cribed▁
▁softly▁
▁package▁
▁programs
▁Probably▁
sub
▁Muh
▁Gent
▁nine
green▁
▁Cape▁
▁blend▁
▁snapped
▁quantity▁
▁Frederick▁
▁terrified▁
▁Throughout▁
▁V▁
ardo▁
▁Amy▁
▁Slow
▁mons
▁plot
▁foods
▁advance
▁custom▁
▁openly▁
▁consumer▁
▁Veg
▁WIT
▁spac
▁Lisa▁
▁focus
▁grin▁
▁waves
▁flame▁
▁knelt▁
▁freely▁
▁somehow
▁Military▁
▁faithful▁
▁influence
▁overwhelming▁
▁fict
▁stole▁
▁sailed▁
▁defeated▁
azz▁
▁Cond
▁tap▁
usive▁
▁smell
▁habits▁
▁unexpect
▁realizing▁
▁meditation▁
▁resolution▁
▁arrangements▁
▁FD
rad▁
arch▁
▁carb
etics▁
▁Freud
uation▁
Cambridge
▁drained▁
▁peoples▁
▁Marshall▁
▁Crow
▁goods
ussell▁
▁mascul
▁Miller▁
▁destroyed
és▁
▁Edm
▁beg▁
▁cave
▁cops▁
▁arbitr
▁blast▁
▁Claire▁
▁College
▁imagine
▁quarters▁
▁resolved▁
ERV
▁belt
▁snar
▁cable▁
▁tanks▁
▁Studies
▁Temple▁
▁confusion
▁communities
▁protective▁
▁undoubtedly▁
▁responsibility
ased
inity
▁Boul
▁Jane
▁Kim▁
▁Probl
▁gang▁
▁Adams▁
▁catast
▁orchest
▁struggle
▁vanished▁
▁container▁
▁personnel▁
hip
oid
▁AM
esch
rates
▁Rick
▁alph
uming▁
▁incap
▁tray▁
▁Unless▁
▁disorder
▁capitalist▁
▁temperature
TE
oma
enne▁
▁fist
▁subd
▁April
▁chain
▁fount
▁pork▁
▁scrut
▁Script
▁drives▁
▁Turkish▁
▁continually▁
lan▁
▁Am▁
▁Coc
▁Lem
rier▁
▁dawn
▁landl
▁pipe▁
▁title
▁sheep▁
▁decisions
▁directions▁
▁passengers▁
ders
ras▁
▁Iraq▁
▁Harold▁
▁magnificent▁
▁Eug
▁Rose
▁Wend
▁cush
▁Turn▁
▁proof
▁sheet
▁impuls
Nothing▁
▁sisters
▁properly
▁disaster▁
▁prevented▁
▁successful
▁maintenance▁
.).▁
▁Jen
John▁
Really
▁route
▁decorated▁
▁eighteenth▁
▁investigation
Ox
▁Dall
▁mead
acent▁
▁atop▁
▁syndr
▁Always▁
▁sealed▁
▁Research
▁satisfy▁
▁eyebrows▁
va
▁Front
ensely▁
▁Transl
▁calend
▁figures
▁blocked▁
▁questioned▁
▁administration
lov
zer
▁steep
▁warn▁
▁Larry▁
▁lover▁
▁September
▁remarked▁
▁indicating▁
Med
dep
pm▁
▁ME
cut▁
▁Tyl
▁pink
▁loose
▁injury▁
▁rehears
▁sustain
▁wedding
▁Independ
▁shorter▁
▁actively▁
▁newspaper
▁villages▁
ann▁
oped▁
ratic▁
▁piece
▁expand▁
▁airport▁
▁helpless
▁recently
▁disorder▁
▁instructed▁
dev
▁i▁
▁ad▁
▁Scient
▁cries▁
▁piano▁
▁Google▁
▁argues▁
▁dragging▁
▁lightning▁
▁suspicion▁
az▁
uous
▁bend▁
▁grief
▁discom
▁draws▁
ielding▁
▁fruits▁
▁hallway
▁shield▁
▁Penguin▁
▁lecture▁
▁polished▁
▁consequences
OT▁
▁Key
▁Obs
aints
▁Bron
▁Ford
▁discl
▁pity▁
▁comic▁
▁eased▁
▁fires▁
▁breeze▁
▁crawled▁
▁doubted▁
▁frowned▁
▁slavery▁
▁grandmother
▁appointment▁
pat
igan
seud
▁Jav
eare▁
▁Seas
olded▁
▁Right
▁Obama▁
▁Norman▁
▁Carolina▁
▁Jerusalem
▁institutions
ante
inal
▁Burg
▁Dick▁
▁Pete▁
▁bike▁
▁backs▁
▁colors
▁desires▁
▁happily▁
▁excitement
▁productive▁
▁ais
▁cad
▁frank
olving▁
▁Clark▁
▁eating
▁voices
▁within
▁Maggie▁
▁materials
▁experimental▁
ha▁
ayed
▁Bod
▁san
asha▁
ifer▁
▁Mann
▁stones
▁Doctor▁
▁slowed▁
▁Children▁
▁Roosevelt
▁swinging▁
▁altogether
▁challenged▁
▁Mult
▁ideal
▁overr
minded▁
▁latter
▁shone▁
▁unders
▁wishing▁
▁breathed▁
▁handling▁
lan
look
▁Bad
▁Ed▁
▁Roy
▁log▁
▁unch
▁Relig
▁myth▁
▁nutri
▁Berkel
▁friendship
TS
da
aky▁
▁sarc
ologist
▁Board▁
▁Kelly▁
▁permit▁
▁waking▁
▁embraced▁
▁evidently▁
▁Solom
▁pride
▁tube▁
▁Brazil
▁album▁
▁hunger▁
▁crystal▁
▁stirred▁
▁assuming▁
wa
imps
izar
▁IS▁
▁Lau
▁Me▁
acon▁
yard▁
▁seam
▁Anglo
▁porch▁
▁worried
▁rational
▁whipped▁
▁abruptly▁
▁comprehensive▁
amph
aust
▁Fest
▁Down▁
▁bitch
▁exempl
▁righte
▁justify▁
▁vessels▁
▁inhabitants▁
enk
▁brew
▁wives▁
▁preoccup
▁standards
▁promising▁
▁relatives▁
▁manuscript▁
TS▁
ello▁
▁styl
▁gorge
▁cousin
▁dense▁
alities▁
▁Surely▁
▁brains▁
▁noticed
▁repair▁
▁dialogue▁
▁explicitly▁
▁CD
ogs▁
▁admin
▁aunt▁
▁neat▁
▁owner
blance▁
▁Valent
▁couch▁
▁Gordon▁
▁delight▁
▁trigger▁
Em
opt
ario
iled
▁Amb
▁empl
▁sink
▁suffer
▁October
▁honour▁
▁Natural▁
▁boiling▁
▁politicians▁
▁fu
▁Lac
iance
▁Barr
▁garb
▁stew
ocation▁
▁enabled▁
▁charming▁
▁treating▁
▁attacking▁
▁preserved▁
May
quir
izing
▁Roy▁
itate▁
lines▁
▁spoon
▁Serve▁
▁accent
▁astronom
▁promises▁
▁investors▁
FF
cor
ify
every
▁Anim
umbled
▁Networ
▁Night▁
▁Monday▁
▁rhythm▁
▁squeeze▁
▁wandering▁
eve▁
▁Dig
▁Wag
▁uph
▁Bush
▁Sull
▁Way▁
omatic▁
▁adopt▁
▁Russell▁
▁Russians▁
▁consumed▁
▁controls▁
▁condemned▁
▁examining▁
▁straightfor
▁surprisingly▁
▁Joan▁
▁pants
▁Global▁
▁fingert
▁sweeping▁
▁remembered
▁meaningful▁
▁supposedly▁
▁competitive▁
rod
sur
Here▁
▁infant
▁rings▁
▁stack▁
▁wrist▁
▁Science
▁rubbing▁
▁proposal▁
▁collection
▁connection
▁concentrate▁
▁Hut
▁beans
weight▁
▁losses▁
▁passages▁
▁uncertain▁
ilst▁
▁Mick
▁oven
▁paras
▁Along▁
▁sensit
▁markets
fish▁
olent▁
▁cure▁
▁leap▁
▁rhythm
ouncing▁
▁walking
▁trembling▁
▁experiments▁
OUR
aned
▁pace
▁scow
▁sixth▁
▁ruling▁
▁bleeding▁
▁ceremony▁
App
irs▁
iner▁
▁cake
▁fare
▁pant
▁poem
▁gear▁
▁leaf▁
▁Wednes
▁column
▁fighting
▁languages▁
▁neighbors▁
▁scrambled▁
Som
tha
▁Der
otes▁
▁leis
▁unse
▁costs
verage▁
▁Avenue
▁email▁
▁incons
▁piled▁
▁assets▁
▁superst
▁tilted▁
▁varied▁
▁landscape
▁personality
pap
ura
zen
▁xx
awa▁
▁ends
ending
▁guests
▁congreg
▁passage
▁unknown
▁memories
IT▁
▁Fer
▁mang
idding▁
▁glance
▁powerful
▁proceed▁
▁Management▁
hor
▁Elli
▁Small▁
▁Cher
▁evac
▁gramm
▁absurd
▁palace
▁wisdom
▁warrior▁
▁managers▁
▁instruments▁
▁unfortunate▁
OUN
clop
heal
▁goes
▁pit▁
power▁
▁couch
▁Tommy▁
▁deaths▁
▁efforts
▁wounds▁
▁monster▁
▁projects
▁installed▁
▁engineering▁
Ge
▁EN
phem
▁Hil
▁Ing
▁Ted▁
▁Word
▁dizz
▁Water
▁frost
▁degree
▁palms▁
▁suburb
▁divide▁
▁planes▁
▁Getting▁
▁conviction▁
Dec
▁Non
▁Plan
▁Tibet
▁crick
▁zone▁
▁pause▁
▁trips▁
▁Consider▁
▁borrowed▁
▁similarly▁
▁progressive▁
▁disappointed▁
▁Mediterranean▁
SS
dec
▁Il
obile▁
▁Rosen
▁hits▁
▁prayer
▁sounds
▁nations
▁raises▁
▁Control▁
▁origins▁
▁technological▁
▁Bed
▁ages▁
▁disgr
▁Field▁
▁Minist
▁sprang▁
▁Persian▁
▁complete
▁balanced▁
ii▁
▁lid▁
IGURE▁
▁Lily▁
▁News▁
▁winds▁
colored▁
▁strikes▁
▁invitation▁
▁legitimate▁
▁mechanisms▁
▁pretending▁
▁separation▁
Pub
aic▁
isch
nut▁
▁Gaz
itzer
▁ster
edged▁
▁coher
▁analyt
▁dischar
▁Ancient▁
▁upright▁
▁Cru
rics▁
▁military
▁practition
▁cop▁
▁ruin▁
▁horror
▁Jordan▁
▁lesser▁
▁islands▁
▁conceived▁
▁eliminate▁
▁publisher▁
iii
▁MAR
▁Two
Never▁
armed▁
irect▁
▁Rather
▁advers
▁empath
▁nasty▁
▁subsid
▁solely▁
etically▁
▁knocking▁
▁automatic▁
za
▁dus
Well▁
▁Curt
▁palm
▁puls
▁rapid
▁Trade▁
▁waist▁
▁mixing▁
▁upward▁
▁recover▁
▁Whenever▁
▁acceptable▁
Im
▁Kim
▁Heat▁
▁movies
▁ticket▁
▁cabinet▁
▁Jerusalem▁
▁categories▁
▁composition▁
SP
ieg
▁ga
▁damp
▁debt
▁hood
▁pard
onian▁
▁exclaimed
▁steadily▁
▁welcomed▁
▁celebrate▁
box▁
▁Lov
▁Bald
▁fores
▁dragon▁
▁rounds▁
▁footsteps▁
▁functional▁
▁Ho
harm
▁Jay
bourn
ching
odge▁
▁YOU▁
▁ambul
▁cattle▁
▁gazing▁
▁patted▁
▁partial▁
▁pockets▁
▁threats▁
▁findings▁
▁pounding▁
;_▁
news
▁Pul
ration
▁Marx▁
▁Spart
▁Peters
▁Sebast
▁label▁
▁reader
▁Warren▁
▁polite▁
▁promoted▁
▁collecting▁
IE
▁**▁
idegg
▁Simon
▁jury▁
▁preced
▁wondered
fashioned▁
▁sounding▁
▁genuinely▁
▁calculated▁
po
▁wiz
▁hip▁
▁congr
▁mortg
▁Better▁
▁monaster
▁commander
▁copyright▁
▁encouraging▁
but
▁Sum
▁tomb
▁County
▁statue▁
▁version
▁worker▁
ago▁
umes
▁debr
▁fur▁
▁Moon▁
▁lamp▁
▁wars▁
▁Office
▁seemed
▁compuls
▁Contents▁
▁patience▁
▁applications▁
rah
uns
▁E▁
aki▁
fts▁
vest▁
▁scor
inate▁
▁honey▁
▁tables
▁volunt
▁elevator▁
▁operated▁
▁appearing▁
▁grandfather
▁CL
ito▁
illing
▁Differ
▁Martha▁
▁ashamed▁
▁persecut
▁confronted▁
▁ideological▁
▁mim
▁pic
etti▁
▁rasp
seven▁
▁Yale▁
formed▁
▁locate▁
▁downtown▁
▁processes
amer
▁haw
▁Bank
▁Year
onnie▁
resist
▁loved
▁Point▁
▁impact
▁players
▁profile▁
▁solutions▁
eb▁
fil
pert
▁Put
▁foss
▁Spenc
▁slope▁
▁ceased▁
▁lowest▁
▁venture▁
▁cultures▁
▁equipped▁
▁moderate▁
▁attending▁
▁compassion
▁practiced▁
resh▁
▁Buff
▁seed
edded▁
▁pilgr
▁shutt
▁anarch
▁flavor
▁hugged▁
▁department
▁embarrassed▁
▁Mu
bye▁
▁coh
eting
uits▁
▁clasp
▁pharm
▁arise▁
▁Environ
▁Strateg
▁relate▁
▁liberty▁
▁recalled
▁Ach
▁umb
inisc
▁Nort
▁hudd
▁matt
▁vacu
▁towel▁
▁Sophie▁
▁curved▁
▁neutral▁
▁envelope▁
▁indication▁
SC
aed
▁Wel
▁Alas
▁Kans
▁nod▁
▁likew
▁chaos▁
▁fortune
▁traffic
▁tragic▁
▁hallway▁
▁Princess▁
▁approval▁
▁shattered▁
▁Chron
▁grim▁
▁bands▁
▁cinnam
▁Reagan▁
▁framed▁
▁defence▁
▁betrayed▁
▁Neur
▁Saint
▁twin▁
▁Bring▁
▁credit
▁Carter▁
bus
▁gi
zes▁
▁Prim
▁ours
▁Valley
▁courts▁
▁Florida▁
▁formula▁
▁vitamin▁
▁scheduled▁
Jes
Sch
▁agg
▁into
▁reun
▁Chann
▁alley
▁diagr
▁nickn
▁decided
▁script▁
▁disappro
▁skilled▁
▁clenched▁
west
cend▁
▁Cart
▁Murph
▁artif
▁oral▁
▁Click▁
▁tracks
▁blacks▁
▁recover
▁cleaned▁
▁columns▁
▁swiftly▁
▁inherited▁
dy▁
oto▁
▁Haz
assy▁
ping▁
▁Back
▁Fact
▁sect
▁tower
▁shiny▁
▁sector▁
▁failing▁
▁matched▁
▁succeed▁
▁instinct▁
▁execution▁
▁historians▁
▁sympathetic▁
▁CP
chief▁
▁Reich
▁jeans▁
▁Indians
▁tasted▁
▁interviews▁
ira
apor
awn▁
▁Lucas▁
▁Muhamm
▁guards
▁invari
▁waters
▁congress
▁graduate▁
▁restored▁
▁slipping▁
ori▁
lace▁
will▁
▁Carn
ensus▁
▁Laure
▁affair
▁patron
▁punch▁
▁writes
▁chicken
▁favour▁
▁hatred▁
▁election
▁thanked▁
▁spinning▁
▁curiosity▁
lers▁
athed▁
uction▁
▁chart▁
▁limbs▁
▁rival▁
▁clearly
▁reminds▁
▁assembly▁
▁critique▁
▁infantry▁
▁situations
▁establishing▁
▁Wars
▁rise
▁Krist
▁given
▁laund
▁nostr
▁Argent
▁acquis
▁Seeing▁
▁sixteen
▁traced▁
▁estimate▁
hou
mans
▁Ark
▁hip
piece▁
▁Poor▁
▁fake▁
▁Coast▁
▁Trump▁
▁labour
▁depths▁
▁prisoners
▁weakness▁
▁Ib
read
▁Rol
fore▁
point
▁Vern
isions
▁maps▁
▁summar
▁trunk▁
▁priests▁
ask▁
ety▁
ween
▁Ext
worth
agger▁
econom
ortion
▁slave
▁Moses▁
▁danced▁
▁fifteen
▁inform▁
▁actually
▁straightened▁
UD
ESS
ban
▁IR
▁Mes
▁Dubl
redict
▁stem▁
▁inclus
▁meters▁
▁reactions▁
▁downstairs▁
ags
two
va▁
ework
▁Champ
▁tried
▁Libert
▁Music▁
▁Robin▁
▁yelled
renched▁
▁crashed▁
▁servants
▁accompany▁
tes
▁apprent
▁blamed▁
▁surveill
▁lifetime▁
▁Education▁
▁transform▁
▁Ltd
play▁
▁oak▁
▁tin▁
▁daily
▁stern
▁acute▁
▁clung▁
▁artists
▁rectang
▁insisted
▁alliance▁
▁miserable▁
▁surrender▁
anie▁
▁epid
ready▁
▁cats▁
▁flatt
▁ordin
▁seal▁
▁posed▁
▁spots▁
▁luxury▁
▁tempted▁
▁differently
▁reflecting▁
uk▁
alyt
▁IV▁
▁ibid
▁pert
About▁
front▁
▁dough
▁shows
▁tide▁
▁Cooper
▁vivid▁
▁allies▁
▁barrel▁
▁crimes▁
▁portfol
▁profound
▁inherent▁
▁diplomatic▁
cur
▁orn
Those▁
▁Sean▁
▁bath▁
▁scrib
▁Stalin
▁dragon
▁pairs▁
▁Charlie
▁Secret▁
istically▁
▁vs
▁Ukr
▁fren
▁rice
grade▁
▁Thorn
▁combat
▁ginger
▁skull▁
▁begged▁
▁verbal▁
▁casting▁
▁remarks▁
▁upstairs
▁organizations
eem
know
▁Finn
ripts▁
▁calls
▁Story▁
▁bonds▁
▁tomato▁
▁jumping▁
▁useless▁
▁applying▁
▁passionate▁
clam
▁Sic
beit▁
enced
▁Carr
▁Hamm
▁wing
CrossR
▁corps
▁mourn
▁toss▁
▁Theory▁
▁altered▁
▁subjects
▁occasions▁
▁requested▁
vas
iser
rix▁
etics
▁Stone
▁golf▁
▁lower
▁roar▁
▁Creek▁
▁leaped▁
▁methods
▁proven▁
▁minority▁
▁sensible▁
olds
▁crum
▁pin▁
▁rail▁
▁sour▁
▁exquis
▁Labour▁
▁Project▁
▁acquire▁
▁psychology▁
▁AF
▁hob
▁Lenn
▁Lewis
▁antib
▁rack▁
▁sunsh
▁clever
▁disrupt
▁Clinton▁
▁affection▁
▁belonging▁
▁nineteenth
conf
▁Obv
anic▁
aved▁
▁Kant
▁beam▁
▁Garden▁
▁ounces▁
▁Windows▁
▁predomin
▁disappoin
▁resource▁
▁diversity▁
efin
▁Raf
▁paths▁
▁existed
▁heated▁
although▁
▁Muslims▁
▁screamed
▁potential
▁Commander▁
▁divisions▁
▁Imm
would▁
▁Gulf▁
▁hurry
▁rocky▁
ecutive▁
▁circular▁
▁differenti
▁expanding▁
▁Pitt
▁ecst
▁glit
▁seeds
▁steel
▁beast▁
▁diabet
▁British
▁scores▁
▁overhead
▁potatoes
▁quarters
▁tonight▁
▁positions
▁fascinating▁
▁negotiations▁
–▁
▁mit
ipher
▁ampl
...."▁
▁Refer
▁views
▁Guide▁
▁intric
▁melanch
▁Pakistan
▁suspicious▁
Cent
▁Kam
▁Dais
▁Parad
▁brows
usions▁
▁Jamie▁
▁Florida
▁needle▁
▁smiles▁
▁midnight
▁standing
▁unpleasant▁
▁realization▁
▁observations▁
ucc
▁Lyd
▁Pra
▁zone
arted▁
▁devil
▁fierc
▁onion
▁Judge▁
▁monitor▁
▁supplied▁
▁controlling▁
▁institutional▁
acco▁
▁push
▁Mama▁
▁airpl
▁dusty▁
▁player
▁senses
▁deemed▁
▁contrary▁
▁glancing▁
▁considerably▁
educ
▁vom
anger
chief
▁sport▁
▁basket▁
▁kicking▁
nic▁
▁Gand
▁Init
▁crad
▁spur
▁taxi▁
▁hurry▁
▁genius▁
▁Against▁
▁Ottoman▁
▁curtain▁
▁disaster
▁biblical▁
▁refusing▁
▁variation▁
Exc
bir
▁Ax
▁Hou
https
▁hips▁
▁sigh▁
▁sends▁
▁Captain
▁System▁
▁spirits
▁district
▁pretended▁
▁evolutionary▁
aka▁
att▁
▁Behav
chester
▁Bureau▁
▁wheels▁
▁illusion▁
▁supports▁
▁disappear▁
▁improvement▁
hh
----
fire
ppy▁
▁Lav
▁Schm
▁bars
▁ferm
▁Sally▁
▁herbs▁
▁removed
▁contributions▁
agne▁
▁winc
▁overt
▁Aaron▁
▁spoon▁
istance▁
▁accessed▁
▁clutching▁
▁comfortable
unci
▁Agr
▁Natur
▁lucky
▁patrol
▁county▁
▁dollar▁
▁Scotland▁
▁adjusted▁
▁employee▁
▁leadership
▁accomplish▁
▁integrated▁
▁civilization▁
__▁
▁y▁
▁Sem
iders
unny▁
▁Didn
▁worst
▁bitter
▁flood▁
▁flows▁
▁sincer
▁domain▁
▁wounded
conscious▁
▁attorney▁
▁competition
▁politically▁
▁populations▁
akh
eld▁
new▁
▁got
▁vend
▁Dear▁
▁Port▁
▁Rock▁
▁owed▁
▁General
▁airport
▁identifying▁
▁administrative▁
six
▁IC
eric▁
▁Dark
▁Stir▁
▁false
unction
▁onion▁
through▁
▁Marine▁
▁refresh
lessness▁
▁Kingdom▁
▁reserve▁
▁followers▁
▁pronounced▁
▁Shakespeare▁
aud▁
ican▁
▁Gray
▁lab▁
▁Camp▁
▁films
▁nights
▁Heidegg
▁inflamm
▁united▁
▁worlds▁
▁republic
▁variable▁
▁wonderful
▁inspiration▁
▁Dol
▁Eri
grand
astly▁
▁Pour▁
▁quote▁
▁doubts▁
izations▁
▁triumph▁
▁finishing▁
▁convenient▁
▁electricity▁
▁Grace
▁immun
amming▁
ention▁
▁cursed▁
▁creation
▁midnight▁
▁expedition▁
ram▁
▁Ped
▁Raj
▁heter
▁Above▁
▁fried▁
▁precip
▁sweep▁
▁choices
▁session
▁weekly▁
▁welcome
▁complexity▁
▁illustrated▁
BL
▁jaw
▁mul
▁Fox▁
▁Jay▁
▁perp
▁Athen
▁climb
▁bored▁
atically
▁mortal▁
▁sticks▁
▁handled▁
▁lasting▁
▁symbols▁
▁tragedy▁
▁crouched▁
OK
Str
▁Eur
fect▁
▁Goth
▁defl
▁glow
▁female
▁income
▁taxes▁
▁brutal▁
▁canvas▁
▁inherit
▁exchange
▁gardens▁
CL
alo▁
ryst
iding
▁Pat▁
▁Hong▁
▁Proph
▁wolf▁
▁supern
▁private
▁Nations▁
▁November
▁impulse▁
▁adjacent▁
▁concealed▁
ALL
supp
▁Lud
▁Play
▁vest
eland▁
isons▁
▁ammun
▁begin
▁loop▁
mented▁
▁Cross▁
▁Master
▁suits▁
▁retain▁
▁throne▁
▁recipes▁
▁theatre▁
▁principle
▁Department
▁phenomena▁
▁substitute▁
Brit
▁Tan
▁Bail
shirt▁
▁camps
▁songs
▁clouds
▁Harper▁
▁believed
▁questioning▁
▁technologies▁
TR
én
sche▁
▁finish
▁likely
▁scared
▁prayed▁
▁Bernard▁
▁teachers
▁atmosphere
▁construct▁
▁/
▁cyn
istry
▁saus
▁Adams
▁Great
▁Haven
▁Upon▁
ologies
▁Order▁
▁persuas
▁themes▁
▁supreme▁
▁institution▁
▁Hey
▁Ward
▁Arthur
▁Peace▁
▁alter▁
▁estate
iousness▁
▁transcend
▁compelled▁
▁empirical▁
▁suspended▁
evi
ota
▁Liv
▁Bour
▁Forg
▁jar▁
▁amate
▁brush
▁reapp
▁diary▁
olutions
▁battles▁
▁pursued▁
▁compound▁
▁exclusively▁
▁communication
.;▁
US▁
oesn
▁lapt
amble▁
onged▁
▁Sarah
ucting▁
▁abroad
▁breathe
▁Internet
▁settling▁
▁adventure▁
▁representatives▁
▁BL
eyed
etta▁
▁Horn
bound▁
▁naked
headed▁
▁enhance▁
▁announced
▁feedback▁
▁Eventually▁
▁afterwards▁
SE
▁oz
▁ye
▁Hab
iper▁
nine▁
▁Thor
▁backp
▁Edward
▁harmon
▁incent
▁edition
▁sinking▁
▁Alexander
▁defining▁
▁organize▁
▁ridiculous▁
▁Ent
aging
immer▁
stick▁
▁Grant
▁those
umental▁
▁Consequ
▁Hebrew▁
▁remark▁
▁tugged▁
▁Reading▁
▁declared
▁stranger
▁basement▁
▁matching▁
▁snatched▁
▁extending▁
books
ields
▁Sure
▁Toky
▁anth
▁shy▁
▁heavi
▁constitu
▁vanilla▁
▁preceding▁
ris
cipl
fact
life
rane
▁Abd
▁Pos
▁arc
thal▁
▁hips
early▁
pling▁
▁brass▁
▁pretty
▁crowds▁
▁employ▁
▁potato▁
▁backward
▁restricted▁
▁interpreted▁
asper
▁brow
▁arose▁
---|---▁
▁traces▁
ulations▁
▁executed▁
▁restaurants▁
then
plus▁
uring
▁Fall
▁Rabb
▁trap
▁alike
▁Karen▁
▁Morgan
▁cargo▁
▁fatal▁
▁junior▁
▁looking
▁setting
▁UN▁
ollen▁
▁repro
ellers▁
▁reign▁
▁grated▁
▁gravity▁
▁merchant▁
▁accessible▁
ouc
▁IM
ocal
▁ador
▁fanc
lined▁
▁charm▁
▁devil▁
▁illumin
▁wicked▁
▁guidance▁
_?▁
ff▁
ift
emen
▁Rail
▁adul
itory▁
▁pose▁
▁witch
▁Greece
▁Space▁
▁castle
▁meets▁
▁shout▁
▁refuge▁
▁definite▁
▁displays▁
▁ambitious▁
▁Especially▁
▁consistently▁
rup▁
anced
▁devi
▁subl
ouble▁
▁Late▁
▁foolish
▁applies▁
▁exercises▁
▁indigenous▁
▁interviewed▁
dig
ati▁
ika▁
sex▁
▁Boh
▁Ril
▁ard
inburg
▁Start▁
▁angel▁
▁twist▁
▁grasped▁
▁afterwards
▁spectacular▁
ths
anna
rian
▁Fox
▁Stri
▁Top▁
▁Wool
mates▁
▁clay▁
▁recur
ateral▁
ictions
▁Engine
▁humor▁
▁pollut
▁millenn
▁poison▁
▁rooted▁
▁Scotland
▁scanned▁
▁Caroline▁
▁discovered
▁destroying▁
▁occupation▁
Mon
▁Rap
▁Pick
advant
▁Ross▁
▁cemet
▁juris
▁reads▁
▁ruins▁
▁cluster▁
▁lawyers▁
▁machines
▁Politics▁
▁deserved▁
▁vel
iary▁
▁garn
First▁
▁union
▁Heaven
▁skirt▁
▁hauled▁
▁suicide
▁weighed▁
▁exclusive▁
real▁
▁ming
▁puff
▁Word▁
▁guidel
▁Tenness
▁funding▁
▁kissing▁
▁diseases▁
▁stability▁
▁procedures▁
dam
iac
▁T▁
onds▁
▁Often▁
▁beliefs
▁flowed▁
▁guitar▁
▁coastal▁
▁cigarette
▁Princeton▁
lu
vo
pdf
▁NS
ohyd
▁Emb
▁upl
eries
▁Clay
▁Rick▁
▁Molly▁
▁drain▁
▁spray▁
▁humble▁
▁patrol▁
BC
▁Bomb
▁ench
oping▁
▁coron
▁crumb
▁loan▁
▁units
▁arrow▁
▁Romans▁
▁factors
▁smoked▁
▁opposite
▁quantum▁
▁contempor
▁treasure▁
▁satisfaction
ands
▁Sky
▁None
▁fog▁
▁guide
market▁
▁guilty
▁rigid▁
▁leaving
▁writers
▁contempt
▁languages
▁murmured▁
▁reasonably▁
rock
rug▁
sely
mile▁
iscons
▁bizar
▁boil▁
▁porch
▁recre
▁Beach▁
▁barbar
▁liver▁
▁traged
▁Senator▁
▁concert▁
▁hopeless
▁tearing▁
▁confident
▁depended▁
▁exhausted
▁gentleman
▁reminder▁
▁disturbed▁
▁advantages▁
OB
cf
conn
▁nit
▁reli
ollar▁
▁beds▁
▁Soviet
▁firms▁
▁shower
actions▁
amiliar▁
▁sphere▁
▁Eventually
▁Vik
oting▁
▁Joshu
▁fears
▁obliv
▁elbow▁
▁ladies
▁handker
▁insist▁
▁Cultural▁
▁churches▁
.[
ply
▁ID
omer
Nothing
▁quest▁
▁Stalin▁
▁posted▁
cription▁
▁surgery▁
▁courtyard▁
▁ownership▁
▁respectively
';▁
aches
ledge
▁Bloom
▁Pope▁
▁Barry▁
▁fetch▁
▁collar▁
▁gesture
▁urgent▁
▁stunned▁
▁yesterday▁
▁constitute▁
▁destruction
▁iv
ami▁
▁bik
▁refr
ective
▁Real▁
▁WITH▁
▁upset
▁shakes▁
▁Herbert▁
▁bombing▁
▁vanished
▁clutched▁
▁secretly▁
INE▁
▁Ide
▁shov
▁Death
▁Pruss
▁multi
▁Baltim
▁kings▁
▁regime
▁exotic▁
▁vehicle
▁accounts
▁retained▁
▁addressing▁
▁philosopher▁
▁Intelligence▁
town
gers▁
ming▁
▁bunk
▁panc
▁Detro
▁allow
filled▁
▁Jenny▁
▁filed▁
▁genes▁
▁input▁
▁stores
▁Saturday
▁Committee
▁railroad▁
▁wax
▁heels
▁agents
▁rolls▁
▁shelf▁
▁molecul
▁Division
▁Stanley▁
▁renewed▁
▁visitor▁
▁worrying▁
▁Christianity
QU
ée
All
fect
ico▁
resc
▁Lik
▁vag
▁male
cience
▁Case▁
▁proxim
appropri
▁Sister▁
▁reports
Hi
mm▁
▁cyl
▁dun
▁Mend
▁remn
▁crash
▁grown
arding▁
▁clients
▁meetings
▁courtesy▁
▁deciding▁
▁excessive▁
▁Ign
▁Yeah
▁carc
▁sip▁
after▁
▁wipe▁
▁chairs
▁making
▁earnest
▁implied▁
▁sailing▁
▁seventeen▁
▁commission▁
')▁
▁Ban
▁Pay
▁Suz
ctic▁
▁Cant
▁Pent
▁Line▁
▁error
▁files
▁stamp
ortion▁
▁Claren
▁mentioned
olved
udge▁
▁pean
ilege▁
▁sport
▁types
assing▁
▁Nathan
▁whatso
▁assess▁
▁copper▁
▁resort▁
▁Zealand▁
▁citizen▁
▁courses▁
▁Building▁
▁diagnosis▁
▁principles
▁journalist▁
▁Sug
ummer▁
▁Call▁
▁judge
▁strip
▁Terry▁
ological
▁Square▁
▁strips▁
▁engines▁
▁floated▁
▁smashed▁
▁explicit▁
▁perceive▁
▁fragments▁
▁designated▁
eding
quet▁
▁Harb
▁wave
▁aloud
▁dilem
▁Person
▁models
▁straw▁
▁targets▁
▁torture▁
▁furniture
▁magnetic▁
▁overwhelmed▁
Cal
fin
▁e▁
ends
eng▁
▁Fra
quest
▁parl
▁lungs▁
▁survey
▁talent
▁garage▁
▁wasted▁
▁university
▁connecting▁
mil
essa▁
etts▁
▁Lizz
▁dies
ength▁
▁genius
▁massac
▁Author▁
▁lacking▁
▁masters▁
▁appreciation▁
uan
▁sab
rett▁
▁Enter
▁disab
▁hook▁
▁tons▁
▁trap▁
▁curse▁
western▁
▁arrival
▁secular▁
▁spilled▁
▁confront▁
▁inability▁
▁measuring▁
▁uncertainty▁
▁willingness▁
oly
arts
zant
▁bisc
▁icy▁
▁nour
▁ruth
▁clue▁
▁fence
▁swim▁
▁wagon▁
▁Morris▁
▁Pierre▁
▁Georgia▁
▁developments▁
cal
oa▁
ilib
emper
▁Roth
▁Scar
▁mock
▁monop
▁Jesse▁
▁poetic▁
▁nursing▁
▁thorough
▁register▁
▁exploring▁
▁importance
▁observing▁
▁supporters▁
THE▁
ynth
▁Alt
▁pod
▁tract
▁Abraham▁
▁notable▁
▁engaging▁
▁descriptions▁
▁Aw
acher
okes▁
▁portr
ancial▁
▁Bishop▁
▁Holmes▁
▁amazed▁
▁release
▁watched
▁flicked▁
▁engineer▁
▁facilities▁
▁EM
▁Sud
▁raz
▁irreg
▁tune▁
▁adults
▁cleans
▁defici
▁micros
▁weary▁
▁paradox
▁victims
▁barrier▁
▁gaining▁
▁frustration▁
▁garr
▁orph
actic▁
▁Dead▁
▁knuck
utenant
▁Comput
▁gotta▁
▁risen▁
▁convey▁
▁judged▁
▁noting▁
▁invested▁
▁Philadelphia
EL▁
cha
sky
▁Alli
alysis
▁weird
▁Notes▁
▁deals▁
▁deeply
▁Common▁
▁Walker▁
▁therapy
▁addresses▁
▁broadcast▁
▁dimension▁
▁experiencing▁
aust▁
▁Duch
▁Pros
amous▁
▁Phil▁
▁Year▁
▁ingen
▁lungs
▁tense▁
▁caring▁
imensional▁
▁Publishing▁
agm
ili▁
onia
▁.'▁
▁Hein
▁erup
▁syll
borne▁
▁navy▁
▁easier
▁glimps
▁spread
▁dignity▁
▁imaginary▁
▁terrorist▁
sex
ouch▁
▁Ali▁
▁Ask▁
▁Math
▁rack
▁crop▁
▁impat
▁demon▁
▁inject
▁congrat
▁pencil▁
▁adapted▁
▁forbidden▁
▁gratitude▁
▁independence
ID▁
ago
Keep▁
uced▁
▁angu
▁dazz
ancell
▁Beth▁
▁Half▁
▁serve
▁become
▁dispar
▁react▁
▁toilet▁
▁cavalry▁
▁meantime
▁techniques
ti
▁yaw
▁lege
▁pest
black▁
▁sites
▁venge
▁autobi
▁couple
▁endors
▁leapt▁
▁wheat▁
▁loudly▁
▁designs▁
something▁
▁embedded▁
▁correspondence▁
▁''
▁cm
rete
▁McCl
▁bark
▁brow▁
▁morph
▁vigor
▁Ellen▁
▁baked▁
▁mercy▁
▁monkey
▁trend▁
▁legacy▁
▁opening
▁Eleanor▁
▁seventh▁
▁Institute
▁remembers▁
▁travelled▁
ali▁
ihil
ilar
▁Mans
▁barn
▁kick
▁escal
▁luxur
icious▁
▁Swiss▁
▁seeks▁
▁soaked▁
▁boundary▁
▁formerly▁
▁predecess
▁competing▁
▁motivated▁
▁attributes▁
▁disturbing▁
▁accommodate▁
ao▁
Fine
▁Age
iser▁
▁pure
▁gene▁
▁subsc
giving▁
▁Freud▁
▁injust
▁males▁
covered▁
▁relied▁
▁afterward
▁agencies▁
▁conclusion
▁generations
▁influences▁
fish
vern▁
▁plas
▁serm
order▁
▁Number▁
▁attempt
▁horizon▁
▁implies▁
▁ringing▁
▁supplies
▁expressing▁
▁retirement▁
.-
▁Hyd
Stop▁
▁pie▁
▁chill
▁Macmill
▁slavery
▁tipped▁
▁decisive▁
▁modified▁
▁tightened▁
▁mainstream▁
▁manufacturing▁
ael
chron
▁Mist
anese▁
endix▁
▁ISBN▁
▁deer▁
▁cathed
▁chains▁
▁infant▁
▁mature▁
▁timing▁
▁slender▁
▁Churchill
▁emergence▁
▁frustrated▁
?—
Le▁
▁Ko
gles
▁Pav
power
▁Mac▁
▁smir
cting▁
▁Neil▁
▁fits▁
▁total
▁unacc
▁clerk▁
▁darling
▁legend▁
▁poverty
▁vinegar▁
▁Certainly▁
▁associate▁
▁instruction▁
ér
they
▁Gav
▁Mey
▁Nag
▁Tab
▁cabb
▁mate
▁nuts
▁beard
olester
▁Change▁
▁narrowed▁
▁conflicts▁
▁possibility
CC
▁Hob
▁glac
break▁
worth▁
▁jail▁
▁fever▁
▁attacks
▁leather
▁visible
▁Madison▁
▁finance▁
▁plunged▁
▁depicted▁
▁stations▁
▁residence▁
▁membership▁
▁CR
Wait
anne
▁Dest
▁Shir
▁verd
▁Genev
▁excav
▁numer
▁Spring
▁Julian▁
▁Nelson▁
▁bronze▁
▁grounds
▁favored▁
▁highway▁
▁equality▁
▁youngest▁
▁hi
▁McL
▁Diet
▁angr
▁rare
osity▁
▁whisp
▁corpse▁
▁nowhere
▁alleged▁
▁solitary▁
▁locations▁
Bet
Sec
Sir
ehr
emor
▁Burn
▁trump
▁Altern
▁Keith▁
▁defense
▁detect▁
▁render▁
▁profits▁
▁varying▁
▁certainty▁
▁survivors▁
his
▁Him▁
▁Need
▁Salv
alted▁
▁Main▁
▁invest▁
▁readers
▁Imagine▁
▁couples▁
▁whisper▁
▁attachment▁
▁construction
▁entrepreneur
ima
osa
Any▁
▁Blood
▁appli
▁echo▁
▁rival
estyle▁
▁beard▁
▁rises▁
▁Letter▁
▁heroic▁
▁chasing▁
▁cottage▁
▁directly
▁outdoor▁
▁tomatoes▁
Go
uber
▁vols
▁Appro
▁zero▁
▁Islam▁
▁harder
▁behave▁
▁pleased
▁physics▁
▁unaware▁
▁neighbour
▁prompted▁
▁colleagues
▁imagining▁
▁entertainment▁
IA▁
egu
asty
size▁
▁Cann
▁Look
▁bid▁
▁Bell▁
thodox▁
▁Friday
▁device
▁disbel
▁grade▁
▁snake▁
▁Anyone▁
▁Hamilton▁
▁discrimin
▁exploded▁
▁functions
▁Protestant▁
▁commanding▁
▁Renaissance▁
ato
ega
wal
mail
▁Moo
▁True▁
▁flies▁
▁stays▁
unching▁
▁Carolina
▁creatures
▁expensive
▁ancestors▁
▁girlfriend
asn
vag
boat▁
think
▁Has▁
▁triv
▁asking
▁benefits
▁drinking
▁lighter▁
▁tourist▁
▁chocolate
▁publisher
▁authorities
▁distracted▁
▁interactions▁
has▁
▁Kor
▁rank
establ
essions
▁Count▁
▁admire▁
▁darker▁
▁shells▁
▁Testament▁
▁administrat
acon
eaf▁
▁elder▁
▁greet▁
▁notions▁
▁reminisc
▁watching
▁conclude▁
▁fantastic▁
▁reinforced▁
Ag
▁eh
_?"▁
ymph
IGHT▁
rolog
▁Anne
▁Prom
▁ease
▁Sara▁
▁badly
▁clubs▁
▁gasped
▁Random▁
▁ladder▁
▁cameras▁
▁tomatoes
▁daughters
▁oh
Cour
▁Vas
elli▁
▁Luck
▁nurt
▁Hope▁
▁holid
▁parch
▁Diana▁
▁centre
▁apparat
▁tribes▁
▁Further▁
▁divorce▁
▁notably▁
▁pregnant
▁extraordin
epar
onna
▁San
▁bob
apeut
reced
▁Mum▁
▁pet▁
▁tear
▁heal▁
▁Julie▁
▁Linda▁
▁Please
▁battles
▁treaty▁
▁reporters▁
▁Vietnamese▁
eel
▁aug
▁Alph
▁miner
▁spine
▁carpet
▁protoc
▁kindly▁
▁civilization
▁integration▁
Cor
da▁
inqu
▁Dyn
▁Anna
overs▁
▁Near▁
▁angle
isation
▁Darwin
▁Resour
▁insuff
▁segreg
▁Castle▁
▁Nathan▁
▁Return▁
▁critic▁
▁discont
▁masses▁
▁pilots▁
▁attitude
▁outline▁
▁vaguely▁
▁investigate▁
flu
▁luc
dered
ouses
▁noon
▁coin▁
▁throne
version▁
▁earthqu
▁aircraft
▁champion
▁consolid
▁Governor▁
▁everybody
▁relating▁
▁parliament
▁respective▁
aver
bow▁
requ
▁Esc
eline
▁mour
▁crown
▁refus
▁Across▁
▁Stevens
▁bodily▁
▁speaker▁
▁sustain▁
▁insights▁
▁Palestinian▁
▁appreciated▁
IA
tz
ELL
Rec
urn
oft▁
▁Mul
good▁
▁wart
▁toes▁
▁anatom
▁freed▁
▁vocabul
▁yanked▁
▁founder▁
▁withdrew▁
▁ridiculous
▁evaluation▁
Aye
ea▁
▁Pu
wick
arms▁
▁Cris
▁Poll
▁bagg
▁gear
▁vacc
▁Natal
▁angel
▁cope▁
▁sheph
▁spin▁
▁formid
▁parano
▁ruler▁
▁continue
▁longing▁
▁subordin
▁curiosity
▁dreadful▁
▁authentic▁
▁newspapers
▁strangely▁
▁counterpart
▁assumptions▁
onz
ym▁
▁FR
▁fi
▁jeans
ensions
fulness
▁accordance▁
▁Constitution▁
Ber
lier▁
▁dorm
▁Owen▁
▁roads
▁strol
▁Isaac▁
▁betray
▁swore▁
▁Palace▁
▁boards▁
▁smells▁
▁centers▁
▁deserted▁
Af
Uh
rit▁
▁Son▁
▁drift▁
▁handing▁
▁effective
▁fraction▁
▁propaganda▁
emit
free
▁NAS
▁al▁
held▁
▁squat
▁relax▁
▁Parker▁
▁healthy
▁heartbe
▁servant
▁Gregory▁
▁currency▁
▁neighbors
▁stealing▁
fif
▁Kel
▁zomb
▁Left▁
▁Plan▁
▁fold▁
▁melod
▁debate
▁suprem
ailable▁
▁Wiscons
▁Culture▁
▁affects▁
▁compete▁
▁deepest▁
▁flashing▁
▁Confederate▁
▁si
▁ecl
▁rud
▁Bren
▁Ferr
▁Gran
▁untr
▁looked
▁created
▁privacy▁
▁employees
▁secretary
▁tracking▁
▁computers▁
▁permission
▁remarkably▁
▁Pennsylvania▁
▁dramatically▁
isph
▁Exam
▁gown
▁knock
▁pyram
▁argued
▁symmet
▁mystery
▁socially▁
▁physician▁
▁variations▁
▁Kur
ENTS▁
care▁
perhaps▁
▁Project
▁deputy▁
▁backing▁
▁chuckled
▁Ministry▁
▁smallest▁
▁varieties▁
▁immigration▁
▁organizational▁
ho
▁Ot
ERS▁
ench
etts
poin
▁bin
▁WAS▁
▁lap▁
▁Arts▁
▁studio
▁Living▁
▁errors▁
▁website
▁psychic▁
▁texture▁
▁Napoleon▁
▁coverage▁
▁disadvant
▁formally▁
▁downstairs
arb
osc
plic
▁Nut
▁ost
▁Iren
▁sofa
stage▁
▁Head▁
▁Stock
▁Wild▁
▁coord
▁Fifth▁
▁stabil
▁mining▁
▁miracle▁
▁elevated▁
▁gentlemen
▁approached
▁restaurants
▁traditionally▁
▁Ni
▁hos
▁idi
More▁
eight
eland
▁Bent
▁Young
▁renew
▁Germans
▁Louise▁
▁breasts
▁lifetime
▁gleaming▁
▁responded
▁defending▁
Ann
END
MS▁
ez▁
pa▁
top
▁narc
▁prud
▁lawn▁
▁mist▁
▁eighty
▁devices
▁Anderson
▁Brother▁
▁fortunate▁
▁functioning▁
esa▁
igs▁
▁Vit
iddle
olis▁
wick▁
▁Anti
▁Sold
▁Fire▁
▁abdom
▁couns
▁Wright
▁dishes
▁worlds
▁surgery
▁declare▁
▁harmony▁
▁removal▁
▁resumed▁
▁facility▁
yes
alth▁
ummy▁
▁Fern
▁Meth
▁items
▁roots
▁towns
change▁
izable▁
▁Sulliv
▁chase▁
▁swift▁
▁facial▁
▁funeral
▁dangers▁
▁perched▁
▁District▁
▁mentally▁
▁overhead▁
riv
acle
spir
▁jol
ench▁
human▁
▁eyed▁
▁gloss
erting▁
▁squad▁
▁Service
▁endure▁
▁expose▁
▁sailors▁
▁battered▁
▁intermedi
▁resembled▁
▁systematic▁
▁emotionally▁
▁Jar
▁Ferg
▁feroc
▁outrage
▁advertis
▁publish▁
▁narrative
▁legendary▁
▁strangers▁
▁strongest▁
rev
roy
?"_▁
ATE▁
ieur▁
usts▁
▁lamb
▁Chamb
▁Hotel
▁nuts▁
▁texts
▁volat
▁Upper▁
▁crush▁
▁draped▁
▁seeming▁
▁dimensions▁
▁monitoring▁
▁anticipated▁
▁differently▁
▁understands▁
oto
▁Lef
▁pac
▁niec
▁rub▁
▁prey▁
▁shoot
▁snap▁
▁Colin▁
▁bills▁
▁injury
▁tradem
▁closely
▁Private▁
▁certific
▁forests▁
▁grocery▁
▁anonymous▁
▁admiration▁
▁HE
udge
▁rip
asses
▁Saud
▁wolf
▁zero
▁diary
▁waste
▁Commer
▁prince
▁strike
▁Switzer
▁anybody
▁offered
▁shimmer
▁Outside▁
▁annivers
▁sunlight
▁visitors
▁justified▁
▁popularity▁
▁Yog
▁Harm
▁Key▁
▁dwell
keeper▁
▁intest
▁stern▁
▁Greeks▁
▁Malcolm▁
▁nodding▁
▁Fortunately
▁architectural▁
bol
doc
net
yard
itis▁
▁Mong
▁vote
▁Geoff
▁insec
▁veloc
▁wool▁
▁Thanks
▁indisp
▁titles▁
▁destined▁
▁signature▁
▁Mam
ieve▁
▁Buch
▁Zion
▁gaug
▁les▁
▁Bolsh
▁bloom
▁halt▁
▁shred
▁Lloyd▁
▁prize▁
▁superf
writing▁
▁boiled▁
▁pockets
▁prophec
▁patterns
▁drifting▁
▁province▁
▁instances▁
▁predicted▁
▁privilege▁
▁immigrants▁
▁linguistic▁
▁legislation▁
▁specialized▁
iod
ibly
ieth
play
▁ink
▁Beij
▁spy▁
▁Salt▁
▁Assemb
▁cloak▁
▁crisp▁
▁Policy▁
▁folder▁
▁taller▁
▁peering▁
▁grandparen
▁infection▁
▁qualified▁
▁candidates▁
él
Rob
exp
stan
urd▁
▁Bang
▁Reyn
athing▁
▁memoir
standing
▁Bridge▁
▁exasper
▁obscure▁
▁mistakes▁
▁pursuing▁
▁reasoning▁
▁struggles▁
aze
▁abb
▁gur
▁shy
iang▁
ishop
▁thus
▁Alice
▁blade
▁pseud
▁Fourth▁
▁candle▁
▁farmer▁
▁enables▁
▁Connectic
▁splendid▁
▁staggered▁
▁transmitted▁
atri
uan▁
▁WOR
being
▁aunt
▁Greg▁
▁Phoen
▁Indian
▁Somewh
▁flames
▁poorly▁
▁rented▁
▁entirely
▁revenue▁
▁officials
▁sessions▁
▁subjective▁
▁overlooking▁
lar
prom
▁enz
Inter
airy▁
▁boot
▁cab▁
▁dent
illet▁
ogged▁
▁Monday
▁Square
▁manifest▁
▁capitalism▁
▁cooperation▁
nes▁
prot
▁Real
Could▁
▁galax
People▁
▁agency
ensible▁
▁intrins
▁pinned▁
▁whilst▁
▁Hamilton
▁fighter▁
▁governor
▁reserved
▁elections▁
▁conceptual▁
gom
▁Ruth
ancer▁
ference
▁Nether
▁unsett
▁consent▁
▁needing▁
▁concluded
▁unfamiliar▁
▁Mars
▁cycl
▁YOUR▁
▁fists▁
▁string
▁January
▁Nothing
▁license▁
Hel
ahl
▁Ish
▁da▁
ancip
▁tant
otion▁
▁Pearl▁
▁absent▁
▁Anderson▁
▁achievement▁
EE
IV▁
now
good
iney
▁Mike
▁Gray▁
▁plaus
imeter▁
▁tunnel
▁article
▁shifts▁
▁bacteria▁
▁behaviour
▁dripping▁
▁ideology▁
▁priority▁
▁Everybody▁
▁interpret▁
▁socialist▁
▁determining▁
Aug
▁Dod
▁Eag
▁Kap
▁Brah
▁Fund
▁Kiss
▁Madd
▁Verm
▁Well▁
▁cart▁
▁glare▁
▁hearts
▁offspr
▁assimil
▁circled▁
▁teenage▁
▁likewise▁
▁twisting▁
▁particles▁
▁sentences▁
▁Massachusetts▁
erp
amed
iva▁
▁Abr
▁Nad
ammy▁
▁Bapt
▁huge
iller▁
▁logic
▁Dylan▁
▁abnorm
▁camps▁
▁novels
▁uncomm
▁degrees
▁server▁
▁Defense▁
▁extravag
▁fitting▁
▁gallery▁
▁catastroph
▁realistic▁
▁unconscious
bie▁
▁Abs
▁Wol
▁Few▁
▁Marl
▁disd
elong▁
▁lying
▁pilot
▁sofa▁
▁somed
▁Heart▁
▁valid▁
▁neutral
▁reject▁
▁trials▁
▁schedule
▁scholar▁
▁blocking▁
▁promptly▁
▁Parliament▁
▁companions▁
!)▁
anas
unted
▁Andr
osure▁
▁Korea
▁lobby
▁nurse
▁Lower▁
▁encomp
▁quiver
▁rivers▁
▁fragile▁
▁metaphor▁
▁witnesses▁
▁Conference▁
awa
rum
anes▁
▁Hans▁
▁templ
▁discre
aughter▁
▁Hunter▁
▁Knowing▁
▁prisoner
▁Reverend▁
▁chairman▁
▁fighters▁
▁punishment
▁structures
▁intentions▁
onds
▁Alab
▁Lady
▁tale
Listen
▁arter
master▁
▁Tower▁
▁impass
▁differ▁
▁psychoan
▁stained▁
▁declined▁
▁laboratory▁
iop
purp
count
▁Miam
▁Iron▁
▁fertil
▁immers
▁Summer▁
▁Winter▁
▁theater
▁policies
▁boyfriend
▁curtains▁
▁colleague▁
▁instructions
▁resemblance▁
ige
▁tie
edia▁
water
▁Eric
▁Grad
▁Hunt
owers▁
▁Ever▁
▁LORD▁
▁lonel
▁bullet
▁wages▁
knowledg
▁Officer▁
▁marching▁
▁incapable▁
▁interested
▁reputation
▁lieutenant▁
Arth
▁lev
▁Shaw
▁Week
aining
idding
▁Find▁
▁Michel
▁Micros
▁solemn
▁surge▁
inations
▁Market▁
▁enlight
▁database▁
▁behaviors▁
▁merchants▁
▁Foundation▁
▁destination
▁temporarily▁
?)▁
sty
▁"[
ESS▁
bar▁
pret
icals
olar▁
oding▁
▁boot▁
▁lime▁
▁squir
▁Apple▁
▁acres▁
▁online
▁punched▁
▁succession▁
▁Guy▁
▁epist
▁Compan
▁Cooper▁
▁Culture
▁judges▁
▁umbrell
▁wildly▁
▁awarded▁
▁rejection▁
▁Rab
▁Evel
▁Hund
▁hipp
▁stif
story▁
▁killer
▁signal
▁bundle▁
▁ragged▁
▁concerns
▁customs▁
▁deterior
▁reported
▁attraction▁
cro
▁bold
▁grip
▁sibl
Black▁
Chicag
▁adren
▁molec
▁wage▁
▁Hindu▁
▁Naval▁
▁Oscar▁
▁lobby▁
▁ridge▁
▁Leonard▁
▁Anything▁
▁efficiency▁
▁practicing▁
Ste
aped
quer
▁FRO
roid▁
▁Ariz
range▁
▁Chand
▁Nicol
▁Battal
▁Missou
athered▁
▁Greece▁
▁Stuart▁
▁bucket▁
▁harvest
▁controll
▁despair▁
▁volumes▁
▁criteria▁
▁political
▁producer▁
▁nonetheless▁
itis
mouth
▁Parm
▁Poet
▁held
▁hook
▁keys
▁mob▁
unken▁
▁Liver
▁Labor▁
▁Leave▁
▁likeli
▁poets▁
▁telegr
▁hearing
▁helmet▁
▁Jacques▁
▁Writing▁
SH
SE▁
osed
both▁
▁Dian
▁ferv
ilibri
▁Gold▁
▁shift
▁crude▁
▁flown▁
Something▁
▁occasions
▁assistance
▁compelling▁
▁Mississippi▁
thal
have▁
imper
▁cass
▁warr
▁catch
▁entry
▁flame
▁Chinese
▁dipped▁
▁tennis▁
▁darkened▁
▁defended▁
▁refugees▁
▁sideways▁
▁commanders▁
▁outstanding▁
##▁
Rel
fty▁
▁Cyr
geant
▁cant
▁gut▁
▁tape
▁fury▁
respect
▁modes▁
▁specim
▁Edinburg
▁binding▁
▁strained▁
▁temporal▁
▁invariably▁
▁constituted▁
▁SI
▁Godd
▁rope
gence▁
orters
▁Amend
▁bombs▁
▁extent
lessness
▁circles
▁parted▁
▁tastes▁
▁trains▁
▁electron
▁labeled▁
▁survived
▁remainder▁
▁presenting▁
Oct
ogs
imon
▁gym
▁Jan▁
▁Oreg
▁Poss
▁recl
▁upon
▁Stein
▁fork▁
▁tourn
▁Nation
▁insign
ighting▁
▁accent▁
▁persons
▁temper▁
▁circuit▁
▁symptoms
▁withdraw▁
▁consumers▁
▁requiring▁
▁behavioral▁
.*▁
▁Kil
▁Ten
▁dod
▁SERV
▁sturd
▁eleven
▁phrase
▁escort▁
▁Magazine
▁annoyed▁
▁stronger
▁Transfer▁
▁documents
▁opposing▁
▁deliberate▁
▁professional
omy
oof
ups
▁NA
lock
ogue
▁Bah
▁Pel
▁bos
▁Ken▁
▁Merr
▁hate
▁phil
▁Beach
▁chees
▁Forest▁
▁borrow▁
▁jungle▁
▁nerves▁
▁Suddenly
▁flooded▁
▁travelling▁
ua▁
otic
▁Lex
azed▁
▁Next
▁bore
▁fairy▁
▁organ▁
▁secrets
▁sketch▁
▁December
▁default▁
▁samples▁
▁sleeping
▁stroked▁
▁winding▁
▁Enlighten
▁Standing▁
▁promoting▁
▁enthusiastic▁
Z▁
uy
▁GP
▁n▁
▁Rob▁
ishing
▁Negro
▁banks
▁burned
▁seize▁
▁carpet▁
▁occurred
▁touches▁
▁cheerful▁
▁execution
▁feminist▁
▁ambassador▁
▁ingredients
▁celebration▁
▁apr
▁piv
inda▁
ships
▁Iron
▁bags
▁ego▁
▁boxes
▁eloqu
▁lands
▁crops▁
▁prices
▁promin
▁Command
▁blinked
▁dressed
▁monster
▁styles▁
▁household
▁tropical▁
▁improving▁
▁radiation▁
▁importantly
▁refrigerator▁
elli
▁vib
iano▁
iller
▁Kend
▁arts
▁Allen
▁mate▁
▁rates
▁sore▁
▁Byzant
▁irrelev
▁rumors▁
▁promised
▁tactics▁
▁unpreced
▁Jefferson
▁Represent
▁kindness▁
▁targeted▁
▁SM
isa▁
rier
▁McCar
▁looks
▁minor
istent▁
▁pedest
▁voted▁
▁atomic▁
▁outward▁
▁tapping▁
▁severely▁
▁steering▁
▁emphasized▁
▁suggestions▁
Too▁
ergy
oons
iting
▁prow
▁topp
uding▁
▁Juan▁
▁Paren
enders▁
▁Cuban▁
▁Jordan
▁exists
▁roared▁
▁routine
▁Preheat▁
▁repeating▁
▁conversion▁
▁obligation▁
ref
upt
ARY▁
▁USA
▁sque
▁Shang
▁apost
▁seats
▁contex
▁jurisd
▁pillow
▁closet▁
▁stacked▁
▁survival
▁whatever
▁singular▁
▁beneficial▁
igs
▁EV
lit▁
what
▁Dub
kind▁
▁Dead
▁Patt
Three▁
ialism
ostic▁
▁bolt▁
▁foul▁
▁hears▁
▁emperor
▁extinct
▁founding▁
▁technique
▁satellite▁
▁variables▁
▁complicated
Dav
▁CB
IVE▁
disc
▁twist
▁Clevel
▁nails▁
▁roast▁
▁stake▁
quality▁
▁hooked▁
▁unbelie
▁worship
▁conceal▁
▁drivers▁
▁philosophers▁
tic▁
estim
▁Ron▁
▁crop
▁Town▁
▁alert
▁crypt
▁nest▁
ousing▁
▁affili
▁gender
▁uncont
▁battery▁
▁propriet
▁vicious▁
▁wonders▁
▁horizontal▁
▁architecture
▁transmission▁
aka
▁M▁
▁Cob
▁Gun
▁scur
▁Brend
▁Hegel
▁abuse
▁thee▁
▁ninety
▁reconn
ription▁
▁billion
▁bittern
▁display
▁bending▁
▁Standard▁
▁enhanced▁
▁grabbing▁
▁unwilling▁
sa▁
bach
bear
egan▁
osyst
▁Cort
▁Kate
▁Less
▁demon
▁dread▁
▁toxic▁
▁Steven▁
▁floors▁
▁tribal▁
▁harvest▁
▁haunted▁
▁refusal▁
▁Facebook▁
▁exhibition▁
▁constitution▁
▁Ja
sky▁
▁Cha
▁Lil
▁Wis
▁gluc
▁Moore
▁photo
▁Nature
▁volcan
▁Indones
▁Kingdom
▁Spring▁
▁daring▁
▁enters▁
▁borders▁
▁ranging▁
▁tourists▁
▁capitalism
▁positively▁
▁uncomfortable
sche
▁Cole▁
▁emiss
▁homem
▁obey▁
▁pamph
itches▁
▁Minnes
▁albeit▁
▁colony▁
▁postwar▁
▁veteran▁
▁equation▁
▁freezing▁
▁helpless▁
▁overnight
▁Apparently▁
▁limitations▁
Bri
eem▁
odes
▁defer
▁Method
▁honour
▁tranqu
▁dialect
▁valued▁
▁doubled▁
▁monthly▁
▁conference
▁discipline
▁corruption▁
▁provincial▁
edu
▁If
▁very
▁Trust▁
▁tribe▁
ascular▁
igation▁
▁sharply
▁romance▁
▁terrible
▁lifestyle▁
▁overnight▁
▁fascinated▁
TA
ga
cap
▁MP
aste
itan
kers
▁Dew
▁Mut
▁Old
acity▁
▁bake▁
▁edges
▁Poland
▁sworn▁
▁oneself▁
▁predict▁
▁viewing▁
▁inferior▁
▁compassion▁
GE▁
pit
▁Dak
▁Sax
▁Dise
▁Foot
▁Schw
▁sale
▁Luther▁
▁amused▁
▁gardens
▁gravel▁
▁lively▁
▁misery▁
formation
▁Rebecca▁
rimination▁
▁achieving▁
▁instrument
rin
▁ov
Most▁
▁Crus
▁Mari
▁Meas
▁bapt
▁mode
▁cripp
▁shoe▁
▁Author
▁expend
▁firmly
▁pasta▁
▁stocks▁
▁topics▁
▁clicked▁
▁summary▁
▁blessing▁
▁colorful▁
▁deployed▁
▁stressed▁
▁persistent▁
▁responding▁
Her
ji▁
ixed▁
▁USA▁
▁alter
▁fame▁
▁glory
except▁
▁Betty▁
▁ritual
▁spine▁
▁absorb▁
▁learned
▁clarity▁
▁spatial▁
▁consisting▁
▁convincing▁
asy
high
▁Lan
▁Mak
thed▁
▁Camb
▁Sett
▁turt
▁cycle
▁spit▁
▁detach
▁gains▁
▁antagon
▁impose▁
▁Children
▁interven
▁peasant▁
▁watches▁
▁explored▁
▁printing▁
▁illustrate▁
▁Philadelphia▁
Ac
▁GR
▁PC
▁pee
onia▁
▁Girl
▁beck
▁dashed▁
▁dumped▁
▁topped▁
▁Raymond▁
▁candles▁
▁mistakes
▁decrease▁
▁magazines▁
▁organizing▁
▁positioned▁
▁beautifully▁
cat
▁Step▁
▁elbow
▁equal
▁ambigu
▁decept
▁drinks
▁photos
▁occupy▁
▁abilities▁
▁editorial▁
▁preventing▁
iw
▁CC
▁AT▁
▁Cot
▁mak
Europ
there
▁Lamb
▁Path
▁lesb
▁lies
import
▁Spanish
▁contest
▁swallow▁
▁tobacco▁
▁motioned▁
▁ordering▁
▁application
ACK
III
ib▁
eart
omed
▁mast
ishly▁
▁Josh▁
▁bull▁
▁cult▁
spoken▁
▁Media▁
▁armor▁
▁beginn
▁Jeremy▁
▁bastard
▁ducked▁
▁Actually
▁opposition
▁enterprise▁
aya
▁eb
isha▁
izer▁
▁Denn
▁cany
▁gren
▁grey
▁stam
▁lend▁
▁Carter
▁Harris
▁ample▁
CHAPTER▁
▁between
▁wander▁
▁Dorothy▁
▁pleasant
▁tangled▁
▁Operation▁
dimensional▁
▁Eisenhower▁
▁operational▁
▁disappointment▁
▁Ont
▁Lucy
▁Carol▁
▁caught
▁reflex
General▁
▁muscles
▁titled▁
ublished▁
▁tribute▁
▁ignorant▁
▁projected▁
▁Republicans▁
▁incorporated▁
dy
had
ko▁
aven
forg
▁Frit
▁avoid
▁butt▁
▁knot▁
dollar▁
▁Morris
▁prone▁
▁filter▁
▁descent▁
▁focuses▁
▁unpredict
▁correctly▁
▁convention▁
▁expectation▁
▁professionals▁
▁R▁
Conn
▁web
▁Craw
▁Lake
▁Tour
▁beef
▁slog
ebody▁
▁coward
▁obsess
▁intoler
▁velvet▁
▁branches
▁outlined▁
▁resident▁
▁exclaimed▁
▁scratched▁
▁motivation▁
cond
▁Brew
▁muff
▁redd
▁Makes▁
▁picks▁
▁raised
▁Majesty
▁Silver▁
▁bullets▁
▁matches▁
▁supplement
▁compromise▁
▁destination▁
▁possibilities
▁Hus
▁hed
▁huh
▁agon
▁pair
uster▁
▁phase
▁tasks
▁vain▁
rupted▁
▁Report
▁mount▁
▁stems▁
▁shaken▁
▁passive▁
▁scenario▁
▁regulations▁
TH▁
etty
▁Aqu
ilant
▁nail▁
▁ethics▁
▁relaxed
▁bastard▁
▁original
▁trailed▁
▁mistaken▁
▁morality▁
▁classified▁
▁S▁
Comp
Her▁
fly▁
post
▁Bak
▁Ori
▁los
blue▁
ogene
▁glor
▁toy▁
▁lump▁
▁shuff
▁defeat
▁disast
▁opera▁
▁Harris▁
▁static▁
▁sticky▁
▁summit▁
▁faculty▁
▁minimal▁
▁inserted▁
▁threaten▁
▁scientist▁
▁statistics▁
▁responsibilities▁
cho
▁SS
▁Pad
asis▁
itage
▁boul
▁dock
▁envis
▁maid▁
▁Singap
▁arrive
▁museum
▁posts▁
▁stated
▁entered
▁trauma▁
▁approval
▁convert▁
▁drowned▁
▁partners
▁sensory▁
▁signing▁
▁reminding▁
▁subjected▁
▁differences
,—
new
ror
▁dy
gard
▁ego
umble
▁ages
▁ensu
▁nipp
apolis
apping
▁Holoc
▁cage▁
▁yoga▁
▁multip
▁Besides▁
▁biograph
▁dispute▁
▁hastily▁
▁imagined
▁detected▁
▁injuries▁
▁Therefore▁
▁hesitated▁
three
▁pige
▁thie
erved▁
▁blows▁
▁Dennis▁
▁succumb
▁guarded▁
▁Routledge
▁satisfact
▁eventually
Rev
▁Sut
▁Soci
▁Human
▁throb
estone▁
▁across
▁pinch▁
▁robber
▁supply
▁Montgom
▁gloves▁
▁Remember
▁inquiry▁
▁relieve▁
▁communal▁
▁shipping▁
▁hypothesis▁
ITI
▁Asp
▁Isn
▁Pas
▁Sig
arks▁
▁Lion
▁awes
▁glam
▁omin
Every▁
▁drain
▁mayor▁
▁Angela▁
▁Energy▁
▁Wright▁
▁comedy▁
▁density▁
▁eighteen
▁propped▁
▁reciproc
▁slumped▁
ropolitan▁
▁feminine▁
▁settings▁
▁processed▁
▁regulation▁
▁enforcement▁
▁journalists▁
▁Has
▁Sul
Trans
ccent
efully
▁gown▁
▁raid▁
▁ripe▁
▁limits
▁Quoted▁
▁Toronto
▁traits▁
▁bounced▁
▁remained
▁Manhattan▁
▁Nonetheless
▁constitutes▁
At
Jan
▁aqu
actly
▁core
▁unin
master
▁shops
eafter▁
▁Histor
▁crawl▁
▁physic
▁Design▁
▁microph
▁ordered
accessed▁
▁ceremony
▁supervis
▁clinging▁
▁situated▁
rov
idal▁
onny▁
stream
▁Rouss
▁chaos
▁dive▁
▁glist
outing▁
▁member
▁transf
▁rhetoric▁
▁commented▁
ég
aga▁
ros▁
▁Kaz
▁assh
enance
▁Child▁
▁Daddy▁
▁Logan▁
▁presid
▁Caesar▁
▁Franklin
▁extends▁
▁Jennifer▁
▁Sometimes
▁considered
▁nightmare▁
▁accounting▁
som
▁BR
▁Alg
▁BY▁
▁Sha
Time▁
omen▁
ools▁
rell▁
▁deaf
third▁
▁Deep▁
▁bride
▁chat▁
▁tops▁
▁Miles▁
▁closet
▁sorrow
▁buttons▁
▁thorough▁
▁properties
▁retreated▁
▁innovation▁
▁permanently▁
ARD
Nov
angs▁
▁Chem
▁lett
▁Test▁
▁album
▁duck▁
▁idiot
▁index
▁pays▁
▁Check▁
atherine
▁drawer▁
▁fearful▁
▁flushed▁
▁criticism
▁helicopter▁
tre
▁PA
eel▁
ube▁
▁Dere
▁Room▁
▁fired
▁soap▁
▁tests
▁Mason▁
▁garage
▁assault
▁commands▁
▁contacts▁
▁momentum▁
▁preparations▁
j▁
affe
unts▁
▁Band
▁grap
Oxford
iggled▁
▁intake▁
▁organs▁
▁clasped▁
▁realise▁
▁courtyard
▁enthusiasm
pa
ahn
prov
▁Iss
Willi
hold▁
isan▁
▁bite
▁dull
▁wholes
▁anchor▁
▁falling
▁ginger▁
▁overly▁
▁contest▁
▁advances▁
▁resigned▁
▁Community▁
▁destructive▁
▁unnecessary▁
di
hur
imag
▁Diam
▁brac
▁sell
▁yes▁
▁score
▁bacon▁
▁coins▁
▁launch
▁races▁
▁burial▁
▁choked▁
▁cosmic▁
▁Vincent▁
▁colonies▁
▁sexually▁
▁contracts▁
Com
aza
▁PH
▁Pin
eddy▁
▁bark▁
▁begun
▁clums
▁epic▁
▁Armstr
▁Basic▁
▁decomp
▁manage
umented▁
▁Buddha▁
▁checks▁
▁wiping▁
▁Wallace▁
▁confess▁
▁messages
▁travels▁
▁Language▁
▁complain▁
▁negotiate▁
▁introducing▁
▁seventeenth▁
lie
oral
ques
▁Dix
ason▁
ista▁
opard
▁Flet
rench▁
▁Babyl
▁dose▁
▁aging▁
apeutic▁
▁Station
▁playing
▁retreat
▁trucks▁
▁However▁
▁Medicine
▁reception
▁emphasize▁
▁IP
wall
▁FOR
Life▁
▁Coff
▁bin▁
▁quad
incts▁
▁dumb▁
▁grain
▁prick
bridge▁
▁preval
▁simply
▁Duncan▁
▁Sydney▁
▁precaut
▁delayed▁
▁exhibit▁
▁jealous▁
▁prayers▁
▁revenge▁
▁outcomes▁
▁sacrifice
▁considers▁
▁satisfying▁
▁respectable▁
▁accompanying▁
FOR
OOK
ST▁
nel
una
▁Ye
▁Cer
owth▁
▁Ice▁
▁ting
esses▁
▁Henri
▁calci
▁sunny▁
▁vocal▁
▁boring▁
▁fathers▁
▁inviting▁
▁misfortun
anes
▁Gur
▁Hir
▁mes
▁Coun
▁Jon▁
▁cups
▁Ohio▁
▁Read▁
▁demol
▁hatch
▁meals
urable▁
▁Front▁
▁monstr
▁Stephen
▁scandal
▁females▁
▁swollen▁
▁engineers▁
▁manuscript
▁programme▁
▁quantities▁
Apr
SS▁
▁Say
hard▁
▁Vick
glass▁
proof▁
those▁
▁Venet
▁comes
father▁
▁festiv
▁guitar
▁lesson
▁orange
▁pizza▁
▁silhou
▁virus▁
▁curious
▁awaiting▁
▁contempt▁
ulc
▁FL
▁Caf
▁Tai
ipper▁
▁Patri
▁jazz▁
▁spher
▁duties
▁halluc
▁linen▁
▁syrup▁
▁conduct
▁louder▁
▁metabol
▁planned
▁Sitting▁
▁Thompson
▁dictator
▁designer▁
▁neighbor▁
▁advancing▁
▁conscience▁
▁delivering▁
aria▁
▁Stef
▁ink▁
▁root
▁todd
rieve▁
▁desol
angled▁
▁asset▁
▁purse▁
▁treach
urities▁
▁Century
▁huddled▁
▁crashing▁
▁departed▁
▁implement▁
▁replacing▁
EY▁
▁Kay
▁fox
depend
▁hath▁
▁splin
▁sunk▁
attered
ionary▁
▁Edgar▁
▁altar▁
▁dancing
▁eighty▁
▁included
▁innocent
▁enclosed▁
▁replacement▁
▁requirement▁
▁MD
Mich
agne
class
iter▁
▁Hoff
onial▁
▁canop
▁sack▁
▁tens▁
▁simmer
▁skelet
▁smiles
▁Carlos▁
▁elbows▁
▁nearer▁
▁voyage▁
▁begging▁
▁goddess▁
▁seventy▁
▁warfare▁
astically▁
▁channels▁
▁frightened
▁volunteers▁
▁expectations
eys
yss
!"_▁
agen
aton
▁oct
iors▁
oise▁
press
▁Gret
▁copy
▁lose
▁Nixon
▁Plato
▁Wolf▁
▁trunk
▁petty▁
▁wears▁
inkling▁
▁bubble▁
▁heroes▁
▁locals▁
▁shelter
▁transpl
▁useless
▁cultures
▁farming▁
▁mistress
▁cholester
▁societies
▁Parliament
▁consensus▁
!—
▁Cany
allic▁
keeper
sworth
▁Bened
▁lamb▁
▁rape▁
▁signs
▁Iraqi▁
▁aggreg
▁Ronald▁
▁drawing
▁salmon▁
▁theatre
▁listened
▁sadness▁
▁terrain▁
▁devotion▁
▁ignorance▁
asi
Char
Engl
ubs▁
▁Bud
▁Sah
▁Yan
▁Bear
▁Glen
▁fond
▁broth
▁chrom
▁cord▁
▁lumin
▁outst
▁wartime▁
▁sentiment
▁chemicals▁
▁discovering▁
PR
ji
ni
▁Um
,"_▁
ader▁
irds▁
▁amph
▁ribs
▁stall
without▁
▁######▁
▁chased▁
▁longed▁
▁Psychiat
▁positive
▁receives▁
▁cultivated▁
▁recognizing▁
▁statistical▁
"?▁
▁Mis
uese▁
chair▁
▁Incre
▁burnt▁
▁Brother
▁benefit
▁blanket
▁lining▁
▁mouths▁
ensively▁
ishments▁
▁determin
▁glances▁
▁planning
▁tickets▁
▁tumbled▁
▁payments▁
▁Democrats▁
▁acknowledg
▁forgetting▁
▁terrifying▁
▁foundations▁
Ev
ERE▁
▁Kol
cloth
▁Broo
idity▁
▁Irish
▁crisp
▁drama
aughter
▁Patric
▁recipe
▁audiences▁
▁Philosophy▁
▁established
Op
Med▁
Phil
burn
▁Liz
▁Derr
▁beds
▁wool
▁Staff
▁heel▁
lement▁
▁Eight▁
▁Immedi
▁loudly
▁theirs
▁witch▁
▁wounds
▁absence
▁metres▁
▁cookies▁
▁distress
▁sergeant▁
▁pregnancy▁
▁frustration
rh
▁PE
▁NOT
▁Boy▁
ettes▁
▁Harri
▁Occas
▁aims▁
atible▁
▁babies
▁lately
▁supper
▁tension
▁yoursel
▁Perspect
▁Shortly▁
▁gentlemen▁
▁sparkling▁
▁volunteer▁
▁distinctly▁
▁recognised▁
del
ova
thin
▁Pam
achel
omes▁
step▁
▁Juda
▁fled
▁jet▁
cular▁
▁lied▁
inally▁
▁Newton
▁eccent
▁spark▁
▁Justin▁
▁abroad▁
▁licked▁
▁stares▁
▁accepted
▁drawings▁
▁flexible▁
▁stereotyp
▁Psychology
IB
orc
▁Sty
Princ
▁cow▁
▁menu
▁FROM▁
▁Force
▁lest▁
▁agenda▁
▁embroid
▁helpful
▁savage▁
original▁
▁capacity
▁uttered▁
▁Hospital▁
▁honestly▁
▁sandwich▁
▁Interview▁
▁communist▁
▁inappropri
▁theological▁
▁fug
▁misc
▁nood
▁barn▁
▁bury▁
▁seems
▁whip▁
asters▁
▁Index▁
▁Truth▁
▁Works▁
▁muddy▁
▁minced▁
▁packet▁
▁unusually▁
Doc
ITY▁
neum
sea▁
▁Pun
▁Less▁
▁Loren
▁Squad
ulsion▁
▁Based▁
▁Common
▁chips▁
▁disreg
▁paste▁
▁poked▁
▁landing
▁league▁
▁dynamics▁
▁equilibri
▁informal▁
▁resemble▁
▁sometime▁
▁initiated▁
▁traditions
▁conclusions▁
Ibid
die▁
▁Laz
also▁
fast▁
▁capit
▁pound
▁reper
▁spat▁
▁Moore▁
▁afterm
▁flower
▁intact
▁scare▁
iousness
▁Georgia
▁arrows▁
▁cocked▁
▁hammer▁
▁municip
▁Japanese
▁bizarre▁
▁folding▁
▁somebody
▁ambition▁
▁daylight▁
▁festival▁
▁talented▁
▁isolation▁
▁psychology
UT▁
▁OR
han▁
▁TIM
uffs▁
▁Ninet
▁dilig
▁lemon
▁robe▁
▁stove
▁absent
▁bases▁
▁onions
▁rebel▁
▁siege▁
▁circuit
▁pillow▁
▁revenge
▁singing
▁submit▁
▁Station▁
▁editors▁
▁Mitchell▁
▁Detective▁
▁inevitable
▁conspiracy▁
▁formidable▁
▁infrastructure▁
mir
zo▁
run▁
▁Bog
▁Raw
▁omn
alia▁
▁Cord
▁Kelly
▁Lost▁
▁rifle
▁Clara▁
▁saddle
▁sheets
▁lovers▁
▁simmer▁
▁Turning▁
▁depressed▁
▁exceptional▁
▁surveillance▁
Mus
term
your
▁chef
father
▁hood▁
▁lens▁
▁Custom
▁Sandy▁
▁Trail▁
▁allerg
▁upward
▁lifesty
▁solved▁
▁Agricult
▁savings▁
▁Learning▁
▁deserves▁
▁opponent▁
▁comparing▁
▁estimates▁
▁declaration▁
▁significance
Mad
▁EP
▁MAK
▁bio
ashed
▁Cred
▁seaf
▁Wood▁
▁Design
▁Myster
▁evapor
▁fails▁
▁entity▁
▁uneasy▁
▁grinning▁
▁scanning▁
▁notorious▁
▁phenomenon
▁provision▁
▁transportation▁
oria
▁Dim
▁Eve
▁ori
acker
▁Rams
▁Sens
▁Trev
intend
▁café▁
▁Amster
▁Doctor
▁Short▁
▁magist
▁Olivia▁
▁Russell
▁smaller
▁sorrow▁
▁supper▁
▁upside▁
▁Swedish▁
▁trousers▁
▁conscience
▁definition
▁incidents▁
▁likelihood▁
▁thoughtful▁
CA
eez
oeb
ran▁
▁inp
▁Jama
▁cuis
▁fung
▁unle
amine▁
▁Beaut
▁Monro
▁brist
▁panel
▁Archit
▁Philip
▁plates
▁Italian
▁Jackie▁
▁farmers
▁sipped▁
▁warmed▁
▁friendly
▁praying▁
▁propose▁
▁shelves▁
▁vehicles
▁breeding▁
▁exception
▁frontier▁
▁difficulty
▁invention▁
▁guaranteed▁
▁interrupted
▁strengthen▁
▁demonstration▁
die
onc
▁Sed
lets▁
stant
▁Narr
▁Twel
▁bump
▁fuss
▁herm
▁Quick
▁funds
▁teams
cience▁
▁cliff▁
▁phosph
▁upright
emporary▁
▁Orleans▁
▁abundant▁
▁classroom
▁expertise▁
▁Portuguese▁
▁implementation▁
ko
Mrs
OS▁
iol
pol
▁Run
▁pla
▁Got▁
▁crus
▁fraud
▁melt▁
▁Crown▁
▁Korea▁
▁irony▁
▁Chamber
▁Series▁
▁essays▁
▁solemn▁
▁Melbourn
▁carbohyd
▁diamond▁
▁remarked
▁adventure
▁brightly▁
▁portions▁
▁screaming
▁Christians
▁authorized▁
▁photographs
ecd
▁ty
▁wre
▁Sadd
▁burd
▁saut
iments
▁Hence
▁Mater
▁Otto▁
alists▁
▁Howard
▁adapt▁
▁sudden
▁Lawrence
▁requests▁
▁investment
▁mile
tions▁
▁Schol
▁deriv
▁candy▁
▁ability
▁reviews▁
▁Director▁
▁desirable▁
▁integrity▁
Isn
nik
aser
izes
upon▁
▁Mull
▁Pomp
▁paid
▁wax▁
▁Exerc
▁boats
▁tomb▁
▁Joshua▁
▁central
▁concert
▁evenly▁
▁makeup▁
▁Politics
▁roasted▁
▁distress▁
▁infected▁
▁admission▁
▁historically▁
OH
ader
erm▁
▁Kon
▁Gust
▁Han▁
▁soy▁
▁ribs▁
▁taxes
▁Quinn▁
▁Thirty
▁flush▁
itating▁
▁housed▁
▁insight
▁urging▁
▁voters▁
▁recalls▁
▁asserted▁
▁crawling▁
▁enduring▁
▁resisted▁
▁appealing▁
▁musicians▁
▁Afghanistan
Se
ito
uly
OUT▁
ipped
▁hug▁
▁link
▁stap
▁pole▁
▁scar▁
▁habits
▁insult
▁prelim
▁shaft▁
▁doctors
▁evangel
▁scored▁
struction
▁charity▁
▁defines▁
▁fourteen
▁longest▁
▁patience
▁visions▁
▁Illinois▁
▁hardware▁
▁activists▁
▁sovereign▁
▁interpretation
Cr
CH▁
Res
Sept
eta▁
▁Arc
▁Eph
Paris
your▁
▁Las▁
▁Winn
▁hind
▁wars
aline▁
▁Type▁
▁peer▁
▁scan▁
arians▁
▁bodygu
▁votes▁
▁arched▁
▁strings▁
wan▁
word
▁Cic
▁pad
aming
elled
ubby▁
▁Chlo
▁Pyth
▁argu
▁Bear▁
▁guerr
▁hoped
▁satur
▁worsh
aneous▁
ialism▁
worthy▁
▁feast▁
▁receip
▁wines▁
▁FIGURE▁
▁Berkeley
▁troubles
▁brushing▁
▁HarperColl
▁profoundly▁
▁disappointed
weg
iden
▁Yah
▁eld
front
sburg
shirt
▁Sier
▁Chief
▁Ethan▁
▁Jersey
▁crimes
▁muscle
berries▁
▁Individ
▁manual▁
▁stance▁
▁suscept
▁traject
▁eyebrows
▁stubborn
▁Monsieur▁
▁stunning▁
▁complaints▁
▁exploration▁
▁occasionally
▁orientation▁
km▁
▁Tu
enne
▁Mead
▁mask
▁rush
▁thee
mouth▁
rance▁
▁guest
▁Caesar
▁Holmes
▁Luther
▁Sweet▁
▁telesc
▁widow▁
▁Heaven▁
▁marine▁
▁trails▁
▁protagon
▁imposing▁
▁operator▁
▁astonished▁
▁profession▁
▁preliminary▁
ja
▁sul
▁Les▁
▁caps
▁pity
awing▁
▁dishon
▁citizen
▁disconn
▁filthy▁
▁offices
▁consume▁
▁streams▁
▁planting▁
▁hierarchy▁
▁controversial▁
hem
▁Hod
rock▁
▁Song
▁bind
▁cats
▁lugg
itudes
▁Labor
▁align
▁Struct
▁allies
▁barbec
▁virtue
ulations
▁curricul
▁teaching
▁disorders
▁commentary▁
▁measurement▁
away
▁AS▁
▁Hot▁
▁Witt
▁prey
▁unint
enting▁
▁interm
icating▁
▁advise▁
▁adventur
▁handsome
▁pounded▁
▁accuracy▁
▁protested
▁speeches▁
▁triggered▁
▁liberation▁
▁provisions▁
▁unprecedented▁
var
aim▁
eled
▁AID
▁McD
osaur
illes▁
otype▁
▁Noah▁
▁coven
▁drown
usting▁
▁larger
▁loans▁
▁piles▁
▁stark▁
▁diction
▁mixture
▁plague▁
▁unsure▁
▁February
▁Jessica▁
▁received
▁gigantic▁
▁personally
yps
▁Pi
andy
che▁
oric
ules
TING▁
rist▁
▁Say▁
▁eman
▁balls
▁wives
second▁
▁Walker
▁alumin
▁breeze
▁exile▁
▁Harvey▁
▁debris▁
▁lightly
▁overhear
▁praised▁
▁refined▁
▁expenses▁
▁saucepan▁
▁tactical▁
▁Aristotle▁
▁prolonged▁
▁comparable▁
CE
era
▁Cly
▁Dog
▁McN
▁Home
▁Lou▁
▁Virt
▁pall
inned▁
▁waver
▁Health
▁monks▁
▁Truman▁
▁angels▁
▁linear▁
▁onions▁
▁remains
▁Kenneth▁
▁charging▁
▁cocktail▁
▁goodness▁
▁implicit▁
▁imported▁
▁mistress▁
▁Foundation
▁highlight▁
▁ministers▁
▁threshold▁
▁commissioned▁
uph
omy▁
▁Lor
▁tac
istak
zzle▁
▁den▁
▁lack
▁stem
▁wake
enberg
icide▁
▁Billy
▁brack
▁livel
▁Archae
▁Plato▁
▁lovely
▁overfl
▁overse
▁absurd▁
▁nostalg
▁tolerate▁
▁neglected▁
▁description
▁accumulated▁
▁countryside▁
▁fundamentally▁
alty
▁fog
olith
▁icon
▁plag
▁overd
▁rings
▁disint
▁incarn
▁oddly▁
▁conspic
▁colonel▁
▁debates▁
▁judging▁
▁networks
▁embodied▁
▁perfection
▁casualties▁
▁proclaimed▁
Fl
aa
dre
type▁
▁Deut
▁embl
▁tire
heimer
▁nause
▁salad
PubMed▁
ifting▁
▁Wayne▁
▁gossip
▁stray▁
▁Quarter
▁desires
▁excited
▁freeze▁
▁routes▁
▁inspire▁
▁stations
▁essential
▁published
▁classroom▁
▁sentiment▁
▁countryside
▁preference▁
▁privileged▁
▁Massachusetts
Acc
chy▁
▁Fat
▁Oil▁
works▁
▁Marri
▁Baker▁
▁bless▁
▁imply▁
▁locked
▁trash▁
▁Ernest▁
▁parade▁
▁phrases▁
▁regards▁
▁yelling▁
▁integral▁
▁intercour
▁surgical▁
▁Katherine▁
▁attribute▁
▁intentions
▁encounters▁
▁associations▁
ua
pe▁
Bost
oslav
▁Fion
▁Rein
▁Suff
▁frig
ppers▁
▁Citiz
▁flip▁
▁groom
length▁
▁Class▁
▁loses▁
▁pains▁
▁stove▁
▁tenth▁
▁Perform
▁coarse▁
▁shaking
▁Country▁
▁guiding▁
▁pitched▁
▁teaches▁
▁escorted▁
▁notebook▁
▁affecting▁
▁exquisite▁
▁submitted▁
▁worldwide▁
▁Ez
etti
uper
..._▁
edes▁
▁Nash
▁cage
▁unav
▁whom
▁Chall
▁Obama
▁Trump
▁fleet
▁lone▁
▁soda▁
▁Chocol
▁Staff▁
▁claims
▁Amanda▁
▁Arnold▁
▁liquor▁
▁motive▁
▁snorted
▁banking▁
▁endured▁
▁garbage▁
▁stabbed▁
▁downward▁
▁impression
▁parameters▁
▁reproduced▁
xx
org▁
▁Ble
▁Fasc
▁Fouc
▁Tuck
books▁
modern
▁Story
▁crust
▁gates
school▁
▁Guard▁
▁Model▁
▁factory
▁spared▁
▁puzzled▁
▁cautious▁
▁continues
▁peasants▁
▁strangers
▁Acknowledg
▁rebellion▁
▁scholarly▁
▁Understanding▁
klah
pit▁
▁Oak
▁atroc
▁lazy▁
▁Edmund▁
▁Gerald▁
▁pastry▁
icularly▁
▁Freedom▁
▁Theatre▁
▁customer
▁marking▁
▁peripher
▁duration▁
▁bourgeois▁
▁disorders▁
▁graduated▁
▁interfere▁
▁staircase▁
▁glittering▁
▁withdrawal▁
ube
▁Og
suff
▁Riv
▁cuc
▁ont
illo▁
▁Gaul
▁Kell
▁Pont
▁Vlad
Intern
▁Ivan▁
▁alloc
▁wreck
▁Felix▁
▁Nazis▁
▁Prince
▁crews▁
▁gross▁
▁safer▁
▁tattoo
▁Future▁
▁extingu
▁hotels▁
▁Already▁
▁Letters▁
▁decides▁
▁examples
▁lengthy▁
▁utility▁
▁virtues▁
▁adoption▁
▁announce▁
▁crumpled▁
▁migration▁
▁opponents▁
▁corporations▁
▁temperatures▁
Fre
non
nut
▁cf
▁Pir
amps▁
▁Ryan
▁baff
▁Corps
▁Film▁
▁Daisy▁
▁Local▁
▁Saudi▁
▁active
▁bullsh
▁Apollo▁
▁divorce
▁fading▁
▁gasped▁
▁highway
▁echoing▁
▁muffled▁
▁Florence▁
▁casually▁
▁moisture▁
Washington▁
▁campaigns▁
▁categories
▁streaming▁
Lea
bow
ecl
anth
▁Rus
▁led
burn▁
eals▁
pool▁
▁Latin
▁boom▁
▁video
legged▁
▁crafts
▁genre▁
▁insurg
umbered▁
▁briefly
▁indefin
CrossRef▁
▁developed
▁unsuccess
▁meditation
uw
hyd
emon
▁Vic
▁Pain
▁halt
▁gifts
▁stunn
▁wants
itarian
▁Advent
▁borne▁
▁darted▁
▁younger
▁balcony▁
▁irresist
▁Muhammad▁
▁hovering▁
▁satisfied
▁Py
fed▁
▁Gam
▁Tun
▁Vel
▁pec
andel
anges
▁lawn
▁yach
▁Bever
▁Nina▁
▁Nine▁
▁awful
▁oath▁
▁uniqu
▁Joyce▁
▁hedge▁
▁stroke
▁Centre▁
▁Knowled
▁echoes▁
▁nurses▁
▁outcome
▁throws▁
▁nonsense
▁rituals▁
▁advocate▁
▁feathers▁
▁qualities
▁complement
▁specified▁
▁startling▁
▁frightening▁
LD▁
gra
ador
aria
▁Aur
▁Li▁
olph▁
▁piano
▁slim▁
▁ward▁
intage▁
▁Proper
▁bells▁
▁gravel
▁respir
▁scenes
▁waiter▁
▁Chicken▁
▁Interest
▁illusion
▁maneuver
▁shouting
▁assignment▁
▁elementary▁
▁announcement▁
ATH
▁MR
aign
▁SS▁
▁grade
▁inaug
▁vivid
aulted▁
elcome▁
▁Angel▁
▁Apart▁
▁Katie▁
▁rivers
▁Hudson▁
▁arises▁
▁Antonio▁
▁Marshall
▁negative
▁screams▁
▁Aristotle
▁dreaming▁
▁trailing▁
▁stretches▁
▁scholarship▁
▁straightforward▁
Ob
IP▁
▁"—
▁EC
▁GD
AND▁
oni▁
▁Job
▁Ma▁
▁Mum
▁Must
▁lion
▁Kirk▁
▁yards
▁fiery▁
▁burning
▁gossip▁
▁overthr
▁towers▁
▁Frances▁
▁vampire▁
▁completed
▁dangling▁
▁homemade▁
De
ebo
rys
▁Dy
▁ED
▁MC
lers
▁Top
▁Flem
▁pub▁
▁twil
▁Marie
▁craft
▁nerves
▁thighs
written▁
▁foster▁
▁shades▁
▁proving▁
▁Thompson▁
▁lowering▁
▁Organization▁
).
LY▁
▁Rat
elect
ysts▁
▁Bad▁
▁Crim
▁Cuba
▁fuel
cyclop
estic▁
▁Scand
▁major
▁leans▁
▁newcom
▁spaces
whether▁
▁eighth▁
▁protein
▁saddle▁
▁singer▁
▁reduces▁
▁register
▁temples▁
▁evaluate▁
▁miniature▁
▁conducting▁
▁restrictions▁
han
auer
osa▁
ining
izoph
▁Bott
▁mug▁
iques▁
lement
▁Fall▁
▁Humph
▁System
▁float▁
ertainly
▁African
▁scenari
▁vinegar
▁traders▁
▁princess▁
▁surrender
▁Technology▁
▁devastating▁
Be
▁NJ
▁SW
olo▁
compl
iate▁
▁Dill
▁Gert
▁admit
▁creep
▁mercy
▁unequ
anthrop
▁scrap▁
▁wardro
▁apples▁
▁privacy
urrection▁
▁confessed▁
▁policeman▁
Mc
bi
too
▁DR
▁DV
▁F▁
▁jar
inet▁
▁Chen
▁Kong
▁sock
▁Clay▁
▁bracel
▁jokes▁
▁suppli
▁thinks
▁Arabic▁
▁authors
▁neural▁
▁Olympic▁
▁chewing▁
▁hurting▁
▁Austrian▁
▁Hollywood
▁gestures▁
▁mystical▁
▁noticing▁
▁directors▁
▁promotion▁
▁accurately▁
▁astonishing▁
▁mathematics▁
▁demonstrates▁
wan
▁CT
olly
▁Lay
▁Moz
▁aid
polit
▁McDon
▁Music
▁Three
▁Woman
▁engra
▁pump▁
▁swam▁
▁vener
ennial▁
handed▁
▁Hence▁
▁collar
▁robot▁
▁amazing
▁ghosts▁
▁liberty
▁sleeve▁
▁National
▁consult▁
▁martial▁
▁pierced▁
▁Financial▁
▁occurring▁
▁reflection
▁translate▁
▁performances▁
Dam
▁Lé
alia
▁peb
break
▁muzz
▁warn
ische▁
▁Cliff
▁theme
▁Blake▁
▁aloud▁
▁pistol
▁blonde▁
▁essence
▁peoples
▁Campbell
▁Whereas▁
▁cooling▁
▁division
▁inconven
▁tossing▁
▁Theodore▁
▁correctly
▁governed▁
▁wrapping▁
▁attractive
▁N▁
▁es
▁byp
liver
▁Luke
▁Navy
▁casc
anner▁
▁Body▁
▁Bridge
▁Parker
▁fills▁
▁torped
Whatever▁
▁disagree
▁rocking▁
▁boyfriend▁
Forg
get▁
icol
▁Ful
Make▁
bone▁
orge▁
storm
▁flin
leton▁
▁Born▁
▁antid
▁wagon
▁Craig▁
▁almond
▁contam
▁yeast▁
entials▁
▁ecosyst
▁traded▁
▁rescued▁
▁Otherwise
▁Personal▁
▁Services▁
▁Thursday▁
▁infection
▁relatives
aki
alo
▁cum
agen▁
▁Term
▁pad▁
atural
eafter
▁Ruby▁
▁mock▁
▁underp
▁campus▁
▁chorus▁
▁desired
economic▁
▁antique▁
▁crosses▁
▁melting▁
▁assistant
▁LA
imp▁
will
▁Jo▁
▁Kra
▁Nar
▁ush
Psych
ealog
might
onal▁
▁Pegg
▁Tony
▁rat▁
govern
▁Greek
▁Wales
▁wary▁
▁Janet▁
▁Modern
▁charges
▁feature
▁incompl
▁shouts▁
▁Marines▁
▁unmistak
▁Macmillan
▁appetite▁
▁described
▁instincts▁
▁radically▁
▁Constitution
▁controversy▁
Nob
▁Eb
▁raw
▁rug
▁feud
Daily▁
▁Bridg
▁steal
uously▁
interest
▁calmly▁
▁guides▁
▁mankind
▁carrier▁
▁Thinking▁
▁mounting▁
▁Philosophy
▁pleasures▁
▁justification▁
▁Ree
":**▁
Maybe
door▁
weet▁
▁Garr
▁Ohio
▁Likew
▁noon▁
▁skip▁
▁Urban▁
▁mouse▁
▁purpos
izophren
▁Illustr
▁fingern
▁rapidly
▁tricks▁
National▁
▁Usually▁
▁carriage
▁fulfill▁
▁graphic▁
▁awakened▁
▁Europeans▁
▁economics▁
▁lingering▁
▁machinery▁
▁whispering▁
▁consciously▁
▁headquarters
▁residential▁
'.
Er
hy
▁Sent
▁hoar
ooping▁
▁Gordon
▁Reserv
▁breed▁
▁cares▁
▁paradig
▁voting▁
alization
itionally
▁expendit
▁indirect
▁induced▁
▁Critical▁
▁appealed▁
▁nightmare
▁obsessed▁
▁pregnancy
▁substance
▁transported▁
▁supernatural▁
▁disappointment
Jew
dro
hab
ipe
lyss
▁irr
▁yol
oded▁
▁Show
▁proc
etting
▁Stop▁
▁horn▁
▁syrup
▁Ocean▁
▁Price▁
▁greenh
▁precar
▁ropes▁
▁vessel
History▁
itioned▁
▁Zealand
▁blades▁
▁regions
ceedings▁
▁blazing▁
▁Together▁
▁champion▁
▁interact▁
▁mattered▁
▁illuminated▁
▁surroundings
▁explanations▁
ser
▁IT
▁bou
▁net
blood
▁Soul
▁True
▁snap
▁Point
▁footpr
▁rising
▁Somehow▁
▁drunken▁
ifications
▁reviewed▁
▁translation
wide
▁CEO▁
▁Mix▁
Since▁
ettle▁
▁Capit
▁Papa▁
▁bass▁
▁solic
▁souls
▁cease▁
▁farms▁
▁mercen
▁sector
vention▁
▁frames▁
▁limited
▁settled
▁denying▁
▁packing▁
▁wasting▁
▁Manhattan
▁featuring▁
▁violently▁
▁cigarettes▁
▁initiative▁
▁neighboring▁
Ser
wat
▁Fac
▁NAT
coat▁
▁Bast
▁Scre
lings▁
▁Mars▁
▁Thous
▁rays▁
▁shrew
▁norms▁
▁sports
▁toast▁
▁Anthrop
▁Capital
▁demons▁
▁harbor▁
▁tragedy
▁Maurice▁
▁Spencer▁
▁Tuesday▁
▁resident
▁screwed▁
▁Collection
▁Government
▁innovative▁
REE▁
ais▁
issa
▁Ald
▁Du▁
▁Trip
▁mund
▁Iran▁
▁Templ
▁rats▁
▁troop
respons
▁Athens
▁Quite▁
▁owners
▁besides
▁bishop▁
▁dropped
▁growled
▁flights▁
▁hunched▁
▁laundry▁
▁revised▁
▁skillet▁
▁awareness
▁patriarch
▁protests▁
▁spectrum▁
▁stubborn▁
▁painfully▁
squ
amy▁
face
▁Ferd
▁Ned▁
acies▁
itous▁
▁Niger
▁bills
▁brisk
▁stare
▁widow
▁Employ
▁Shangh
▁Russian
▁rebels▁
▁happier▁
▁proximity▁
▁revelation▁
bo▁
hot
who
asha
etch
oys▁
ucky
▁Tat
▁Theo▁
▁dirty
▁ranch
▁remot
▁Athens▁
▁betray▁
▁bushes▁
▁islands
▁Command▁
▁Robinson
▁settlers▁
▁Published▁
▁sexuality▁
▁Industrial▁
▁Ny
hund
ova▁
this
▁thy
orie▁
▁Snow
▁dip▁
▁hust
▁que▁
osher▁
▁Field
▁Heart
▁fluct
▁phant
▁toast
icular▁
▁choose
▁steady
▁weigh▁
▁Clinton
▁Murray▁
▁heating▁
▁loading▁
▁scratch▁
antically▁
▁cinnamon▁
▁creeping▁
▁restless▁
▁theatrical▁
▁collections▁
▁transparent▁
av▁
uke▁
▁Tah
▁Wyn
▁Emma
▁Food
▁Gide
▁Lane
▁exit
▁fee▁
▁foli
▁toes
▁Side▁
▁misle
▁bride▁
▁gentle
▁storyt
casting▁
▁covered
▁prints▁
ribution▁
▁arrested
▁motives▁
▁painter▁
▁warming▁
▁recruited▁
▁girlfriend▁
▁Dw
▁IL
rics
▁Ran
▁hym
▁BBC▁
▁PART▁
▁Show▁
▁marks
▁spear
▁Money▁
▁intrud
▁provoc
▁secrec
▁Leslie▁
▁Western
▁proves▁
▁rabbit▁
▁rocked▁
▁rocket▁
▁thesis▁
▁animated▁
▁detached▁
▁meanings▁
▁swallowed
▁producers▁
▁releasing▁
▁stationed▁
Ass
Hon
"**▁
▁Lod
▁Yug
acles
anged
chair
ehold
orry▁
rogen
▁ONE▁
▁porn
▁Alger
▁Coast
▁Doug▁
▁Stay▁
▁shots
igible▁
▁tones▁
▁unbear
▁Jersey▁
▁virgin▁
▁patches▁
▁exposing▁
▁necessity
▁paintings
▁wrinkled▁
▁masculine▁
▁obstacles▁
▁portrayed▁
▁considerations▁
deg
ging
itty
rus▁
icted
inus▁
▁Sex▁
▁Kings
▁slept
▁Going▁
▁repair
working▁
▁trends▁
▁Harriet▁
▁accurate
▁basement
▁rightly▁
▁Campbell▁
▁mentions▁
▁wretched▁
▁customary▁
▁illustrates▁
▁nationalist▁
ém
Hen
pan
zz▁
▁Sto
half▁
▁Rang
▁ugly
ellect
floor▁
▁Hold▁
▁actor
▁appra
▁armor
▁postp
▁rooft
▁Tyler▁
▁resear
▁sandy▁
ologists
▁average
▁cinema▁
▁potent▁
▁frantic▁
▁resource
▁autonomy▁
▁gorgeous▁
▁preceded▁
▁softened▁
▁Inspector▁
▁explosive▁
▁recognition
▁accidentally▁
gem
▁AU
▁Lill
egraph
inous▁
▁Armen
▁carav
ouched▁
▁Hunter
▁Reagan
▁flock▁
▁gloves
▁sizes▁
▁tribes
▁intense
▁salary▁
▁Harrison▁
▁bouncing▁
▁bursting▁
▁pictured▁
▁shocking▁
▁amusement▁
▁descendants▁
▁independently▁
EST
mag
,'"▁
mach
rick
▁Eld
▁Foc
▁Corr
▁beet
▁recy
▁stad
grown▁
achers▁
turned▁
▁Woman▁
▁lamps▁
▁Agency▁
▁demands
▁gifted▁
▁perplex
▁punish▁
abilities
▁diseases
▁loosely▁
▁assisted▁
▁paragraph▁
▁publicity▁
▁circulation▁
▁MI
Once▁
▁weep
▁Marc▁
▁Todd▁
▁ornam
ealing▁
▁Close▁
▁spear▁
▁usage▁
▁drying▁
▁namely▁
▁thinly▁
▁dislike▁
▁madness▁
▁boarding▁
▁calories▁
▁thrilled▁
▁bothering▁
▁comparison
▁investigating▁
east
Dear▁
▁Jew▁
▁tsp▁
round▁
▁Bake▁
▁Post▁
▁abduc
▁Tears▁
▁stable
▁serial▁
▁prepared
▁crushing▁
▁discovery
▁attendant▁
▁creativity▁
▁observation
VI
Not
ga▁
osen
▁doi
Miss▁
rice▁
vous▁
▁bart
image▁
▁rude▁
▁civic▁
▁codes▁
▁thread
▁woven▁
▁granted
▁import▁
▁knight▁
▁sucking▁
▁Education
▁continent
▁representations▁
▁oh▁
agers
▁Zen▁
▁verb
▁depth
▁gaps▁
▁silly
▁sins▁
loaded▁
▁alley▁
▁queer▁
British▁
▁Darwin▁
▁measures
▁rewards▁
▁paragraph
▁selection
Everything▁
▁consulted▁
▁villagers▁
▁consequence
▁Consequently
mus
bing
sen▁
Hold▁
Times
▁Muss
▁Fish▁
▁Game▁
▁Maced
▁Oklah
▁adher
▁cloak
▁heap▁
▁intox
develop
▁Holly▁
▁Murray
▁Turkey
▁claws▁
▁corpse
▁Sylvia▁
▁regain▁
▁Margaret
▁erupted▁
▁missile▁
▁thunder▁
▁warrant▁
▁distract▁
▁impressed
▁increased
▁overseas▁
▁hostility▁
▁infinitely▁
▁incorporate▁
▁intervention
iki
ecca
▁lion▁
mother▁
▁Large▁
▁cavern
▁Yellow▁
▁hissed▁
▁serving
▁Mitchell
▁goddamn▁
▁interior
▁Nietzsche
▁magazines
▁privately▁
▁facilitate▁
▁kilometers▁
▁prescribed▁
▁resentment▁
▁Afghanistan▁
▁configuration▁
vell
▁hus
hole▁
▁Jake
olute▁
▁Dream
▁mosqu
▁reign
ivable▁
▁Graham
▁Watch▁
▁cheer▁
▁Pacific
▁Turner▁
▁gospel▁
▁madness
▁Minister
▁grandchild
▁anniversary▁
▁partnership▁
▁programming▁
▁superiority▁
dest
wind
▁gly
▁Ster
▁trot
Great▁
▁herd▁
▁local
▁remor
Before▁
control▁
▁destiny
▁format▁
▁profile
▁pushes▁
▁skinny▁
▁earning▁
▁tortured▁
▁Nietzsche▁
▁teachings▁
▁exaggerated▁
▁illustration▁
Mal
▁MS
odor
▁ID▁
▁gast
▁rall
▁seiz
ourse▁
▁Barth
▁bald▁
modern▁
▁namely
▁twins▁
▁aiming▁
▁refused
speaking▁
▁honored▁
▁legally▁
▁strands▁
▁Robinson▁
▁conquest▁
▁muscular▁
▁swirling▁
▁terminal▁
▁convicted▁
▁impatient▁
▁parchment▁
▁therapist▁
▁consumption
▁ecological▁
▁legislative▁
iro▁
▁Aub
▁INT
▁Myr
▁pie
again
cross
▁Answ
▁Chev
▁Glad
▁Hild
▁Czech
▁peril
▁quart
▁solo▁
▁sped▁
▁factor
▁recall
▁Action▁
▁Coming▁
▁Orleans
quarters▁
▁romantic
▁Broadway▁
▁Brooklyn▁
▁committee
▁heavenly▁
▁Constantin
▁architect▁
▁conquered▁
▁contacted▁
▁intricate▁
▁comparative▁
▁documentary▁
GB
ika
aza▁
▁CAR
wall▁
▁Crom
▁Farr
▁Kirk
Think▁
▁brick
▁disob
▁overh
▁orbit▁
▁regist
▁Austria
▁Julius▁
▁Violet▁
▁assert▁
▁destiny▁
▁easiest▁
▁software
▁arguments
▁barriers▁
▁heritage▁
▁disciples▁
▁flickered▁
▁structured▁
say
▁_▁
aghd
▁Doy
▁Net
leen▁
omas▁
utter
▁Beng
▁fury
▁wise
mother
▁Mind▁
▁Peace
▁broke
▁worker
Actually
▁Judith▁
▁council
▁scales▁
▁commemor
▁threads▁
▁Stanford▁
▁intention
▁telephone
▁mushrooms▁
▁completing▁
▁suppressed▁
▁temptation▁
▁disappearing▁
ju
co▁
hon
▁Din
▁Ved
▁gay
▁vod
tage▁
inking
itime▁
▁Maria
▁Talk▁
▁carry
▁deput
▁holes
▁idle▁
ologic▁
▁Wales▁
▁boost▁
▁causes
▁owing▁
▁toilet
▁verge▁
▁degener
▁wolves▁
▁counsel▁
▁driveway
▁sympathy
▁Analysis▁
▁Memorial▁
▁gripping▁
▁sidewalk▁
▁suppress▁
▁coalition▁
▁insignific
▁perception
▁perpetual▁
▁retrospect
▁guidelines▁
▁agriculture▁
June▁
▁argue
▁Garden
▁grams▁
▁inches
▁interl
▁sorcer
........
▁Search▁
▁football
▁plainly▁
▁conveyed▁
▁enlighten
▁ensuring▁
▁lingered▁
▁wireless▁
▁prospects▁
▁complaining▁
▁fashionable▁
▁Cf
bott
igo▁
▁AD▁
▁Bee
▁Sart
▁flaw
▁rim▁
▁upro
▁span▁
▁dissip
▁Emperor
▁carpent
▁eldest▁
▁motorcy
▁retail▁
▁trigger
▁Iranian▁
▁erected▁
▁Literary▁
▁disbelief
▁vacation▁
▁electoral▁
iv▁
▁ub
▁Osw
▁Por
▁Rum
▁au▁
▁Refl
▁dupl
▁pig▁
though
▁Blanc
berries
ogenic▁
people▁
▁Faith▁
▁flying
▁hidden
▁whisk▁
▁insult▁
▁clapped▁
▁optimal▁
▁synchron
▁Michelle▁
▁earnings▁
▁energies▁
▁episodes▁
▁civilians▁
▁intrinsic▁
▁connections
▁OP
▁SN
▁ri
.")▁
iki▁
rand
syst
▁Fen
THER▁
ipper
▁Ages
▁Soon
▁Sue▁
sters▁
▁Lane▁
▁bliss
▁faded
▁goat▁
▁utter
oining▁
▁League
▁farmer
▁rests▁
▁whites
▁width▁
eastern▁
▁Treaty▁
▁discret
▁emancip
▁learnt▁
▁robust▁
national▁
▁Toronto▁
▁involunt
▁mustard▁
▁plucked▁
▁reforms▁
▁ignorance
▁rewarded▁
▁sporting▁
▁Somewhere▁
▁expedition
▁fictional▁
▁multitude▁
▁wilderness▁
sa
ui
▁DO
ayer
cer▁
hill▁
illes
▁Dion
▁fans
change
their▁
▁Baker
▁Hank▁
▁Pleas
▁enlar
▁towel
▁begins
▁cotton
▁inward
hearted▁
▁Notice▁
▁Twenty▁
▁puzzle▁
▁released
▁shaping▁
▁blankets▁
▁shuffled▁
▁theology▁
▁discarded▁
MS
De▁
len
agog
bsp▁
inav
agged
ample
▁musk
arked▁
▁Fear▁
▁plays
boards▁
urally▁
▁Baron▁
▁ashes▁
▁calmly
▁edged▁
▁stool▁
▁Nations
▁cottage
▁amateur▁
▁emptied▁
▁unified▁
▁villages
▁widened▁
▁competent▁
▁portfolio▁
▁delightful▁
▁---|---|---▁
▁encouragement▁
▁CN
▁Ve
ILL▁
Old▁
▁Tul
arity
drop▁
ommun
▁Garc
▁Low▁
▁soap
could▁
▁Build
▁Emily
▁essay
▁viney
verted▁
▁Senate
▁corps▁
▁formul
▁microw
alistic▁
▁Milton▁
▁cabinet
▁fulfill
▁glowed▁
▁oppose▁
▁physics
▁emerges▁
▁fitness▁
▁fleeing▁
▁fragment
▁imagery▁
▁worries▁
▁proceeds▁
▁corrected▁
▁pressures▁
▁separating▁
TY
WH
▁Ok
osh▁
▁Tak
etto▁
obic▁
▁Most
elfth▁
▁Prest
ialist▁
▁Magic▁
▁Turner
▁beams▁
▁enslav
▁lovers
▁Disney▁
▁Repeat▁
▁category
▁eagerly▁
▁intended
▁trousers
▁deprived▁
▁Publishing
▁requirements
▁productivity▁
▁RO
▁Luk
rick▁
▁Bar▁
▁Momm
▁coin
▁rans
ecked▁
▁View▁
▁Butter
▁hunger
▁peaks▁
▁Justice
▁categor
▁painful
▁riders▁
▁warfare
▁Hospital
▁Victoria
▁impress▁
▁intimacy▁
▁probable▁
▁procedure
▁alternate▁
▁hesitation
▁realities▁
▁opportunities
AM▁
mor
fat▁
utes
▁tag▁
▁Break
▁Daddy
▁Grey▁
▁anecd
▁risks
▁subur
▁Castle
▁hatch▁
▁rotten▁
▁goodness
▁insects▁
▁kindness
▁departure
▁judicial▁
▁sprinkle▁
▁governing▁
▁sixteenth▁
▁imprisoned▁
▁publication
▁Pennsylvania
mal
▁QU
Cons
iko▁
oult
stat
▁Bot
found
leton
ofar▁
▁Mao▁
▁Baby▁
▁amend
▁dash▁
▁veil▁
arming▁
ibbean▁
▁Little
▁Silver
▁apples
▁forens
▁grill▁
▁grotes
▁paraly
▁radar▁
▁shine▁
▁Corinth
▁Poland▁
▁swords▁
otherapy▁
▁Reserve▁
▁consist▁
▁daylight
▁prevailing▁
▁acquisition▁
▁investments▁
▁collaboration▁
Bre
beh
oh▁
▁DI
etta
star
folk▁
▁Bird
▁Full
▁Pand
▁Pars
▁pipe
▁Evans
▁drawn
▁limbs
▁tanks
Thanks▁
edding▁
▁lighth
▁biting▁
▁Jeffrey▁
▁retrieve▁
▁battalion▁
▁messenger▁
▁salvation▁
▁psychiatric▁
▁anticipation▁
▁Administration▁
uma▁
▁Dou
▁Kos
▁Nam
uity▁
▁Vari
▁asyl
▁lust
annon▁
author
▁Kitch
▁Moses
▁arrow
▁cows▁
▁decid
▁poems
escent▁
▁Diego▁
▁Radio▁
▁Title▁
▁agony▁
▁hangs▁
▁fantasy
▁lessons
▁smoking
▁invaded▁
▁posture▁
▁Treasury▁
▁generals▁
▁simplest▁
▁Palestine▁
▁abundance▁
▁histories▁
▁intensely▁
▁consideration
▁photographer▁
oked
shot
tery
▁Won
▁cov
backs▁
▁math▁
▁audio▁
▁courts
▁dwell▁
▁misery
▁fixing▁
▁jammed▁
▁pissed▁
▁rulers▁
▁sturdy▁
▁earthly▁
▁heavier▁
▁physical
▁roaring▁
▁Clinical▁
▁excluded▁
▁lifelong▁
▁remnants▁
▁snapping▁
▁factories▁
▁acquaintance▁
▁assassination▁
▁effectiveness▁
▁GO
▁G▁
oved
▁gat
rane▁
▁Birm
▁Mama
angle▁
ockey▁
▁Veget
▁cock▁
▁marry
▁Friend
▁ankle▁
▁pools▁
▁sleeve
▁cracks▁
▁heavily
▁Timothy▁
▁bankrupt
▁exploit▁
▁install▁
▁murdered
▁rattled▁
▁exterior▁
▁meanwhile
▁professor
▁diagnosed▁
▁accordingly
▁momentarily▁
▁improvements▁
iju
Die▁
bers
oton
▁lac
ashes
opes▁
▁caul
▁sull
iscal▁
▁arous
▁fires
▁pots▁
Excuse▁
▁fatty▁
▁martyr
▁ounce▁
▁denial▁
▁matrix▁
itioning▁
▁catches▁
▁fingerpr
▁selfish▁
▁shipped▁
▁Movement▁
▁surfaces▁
▁towering▁
▁youthful▁
▁algorithm▁
▁cardboard▁
▁frequently
nd
ANG
iox
▁iP
EST▁
▁Byr
▁Ded
Shut▁
ediat
open▁
▁Bran
▁Catal
▁mill▁
▁sadly
▁topic
▁users
iguous▁
makers▁
rapped▁
▁charco
▁ladder
▁Collins▁
▁Village▁
▁corrupt▁
▁stating▁
▁industries▁
▁insistence▁
▁embarrassment▁
Pa
zed
Capt
iltr
irl▁
stri
▁CIA
▁Hat
▁Iow
▁Rac
anni▁
aths▁
bler▁
▁Bibli
▁Kent▁
▁antis
▁remed
▁semin
▁slope
Little▁
screen▁
▁drill▁
▁moist▁
▁prose▁
▁secure
▁sweeth
▁mothers
▁abruptly
▁execute▁
▁prolifer
▁gambling▁
▁sensitivity▁
▁classification▁
yme
▁EL
▁SL
appy▁
helm▁
▁Jung
▁turb
Right▁
▁Marqu
▁Trail
▁caram
▁protr
▁renov
person▁
▁behalf
▁booksh
▁mines▁
▁batter▁
▁dignity
▁emerged
▁hiring▁
▁hunted▁
▁quotes▁
▁Liberal▁
▁syndrome
▁wheeled▁
▁whiskey▁
▁entities▁
▁escaping▁
▁righteous
▁monstrous▁
▁executives▁
▁flickering▁
Gen
▁Blu
▁Hub
Jesus
seven
▁Bord
▁Giov
commun
▁Activ
▁Song▁
▁crest
▁realm
▁skirt
▁turmo
iation▁
▁branch
▁hosts▁
▁oxygen
▁walked
lighted▁
▁Papers▁
▁chunks▁
▁healing
▁ironic▁
▁sheriff
▁verses▁
oriented▁
▁colours▁
▁dissatisf
▁Wednesday▁
▁combining▁
▁proposition▁
▁spontaneous▁
▁discrimination▁
DE
UP
aga
▁s▁
gart
oun▁
uits
▁Hog
band▁
icing
owing
▁tiny
inges▁
▁Alec▁
▁Rice▁
▁chef▁
▁coerc
▁tense
through
▁convey
▁sneak▁
▁beasts▁
▁conform
▁vacuum▁
▁Ambassad
▁boarded▁
▁produced
▁recovery
▁thirteen
▁Assembly▁
▁abilities
▁centered▁
▁determines▁
▁technically▁
Sw
ng
NA▁
▁IB
ieu▁
peri
▁Fem
▁Lak
clesi
▁Pack
▁Kant▁
▁Place
▁Ward▁
▁admon
▁https
▁ours▁
▁purse
ignant▁
▁Chase▁
▁Forest
▁extern
▁noisy▁
▁submer
▁Moving▁
▁Select▁
▁summon▁
▁tightly
▁Tibetan▁
▁analyze▁
▁lengths▁
▁princess
▁shooting
▁sniffed▁
▁marrying▁
▁minimize▁
▁vigorous▁
▁melancholy▁
▁procession▁
▁compensation▁
▁instinctively▁
oni
umn
Got▁
IES▁
ints
▁Nig
andy▁
▁Hast
▁Lore
▁parc
▁surp
▁Mered
▁Seth▁
▁Syria
▁_____
▁fees▁
▁Palace
▁actors
▁cattle
▁hunter
▁suite▁
▁trying
▁Divine▁
▁Vienna▁
▁against
▁sitting
▁Channel▁
▁Stewart▁
▁assumes▁
▁democrat
▁literal▁
▁refuses▁
▁observer▁
▁steaming▁
▁complaint▁
▁routinely▁
▁successive▁
▁restoration▁
▁therapeutic▁
New
bod
▁pa
elia
lich
▁Mob
▁unsc
letic▁
▁Cryst
▁Years
▁scall
▁unmar
▁Ethiop
▁Observ
▁Univer
▁froze▁
▁missed
purpose▁
▁Volume▁
▁Willie▁
▁Atlantic
▁ancestors
▁graceful▁
▁troubles▁
▁champagne▁
▁retrieved▁
▁ammunition▁
▁comfortably▁
▁difficulties
enger
iber▁
rect▁
▁Hait
▁anom
▁bat▁
▁ribb
▁user
▁vain
ention
▁drum▁
▁fixed
▁grid▁
acting▁
▁Mechan
▁Rachel
▁lonely
▁panels▁
▁utmost▁
▁Finding▁
▁attorney
▁bewilder
▁proudly▁
▁circling▁
▁develops▁
▁naturally
▁Sebastian▁
▁objectives▁
DS
Wow
dez
fam
ardo
▁OR▁
▁fel
▁Abu▁
▁Cat▁
▁Emil
▁NOT▁
▁Queb
▁gym▁
▁scoo
aders▁
woman▁
▁Brist
▁Helen
▁liked
▁monk▁
▁roles
▁alike▁
▁louder
▁warmth
▁Season▁
▁caution
▁doomed▁
▁treats▁
▁Benjamin
▁Feeling▁
▁Winston▁
▁displeas
▁pronounc
▁tracked▁
▁grounded▁
▁lectures▁
▁Executive▁
▁interface▁
▁basketball▁
▁criticized▁
▁narratives▁
▁contributing▁
Luc
ami
aro
icc
▁P▁
▁Aid
▁Rut
▁Tyr
abel▁
ocent
oles▁
▁Celt
▁Once
▁Prem
▁grew
▁silk
cause▁
▁Adorn
▁Susan
▁heir▁
▁stake
iality▁
ifully▁
▁Vienna
▁ferry▁
powered▁
▁appears
▁erotic▁
▁lantern
▁segment▁
▁formation
▁generally
▁memorial▁
▁overview▁
▁favorable▁
▁memorable▁
▁descending▁
▁flexibility▁
Art
▁py
erd▁
need
▁Gol
imal▁
▁Hors
▁Mail
▁frog
▁germ
▁swim
▁Civil
▁Cynth
▁Steve
▁altar
▁benev
▁effic
▁pneum
▁tribe
▁Sydney
▁broth▁
▁fiber▁
▁needle
▁Descart
▁Process
▁cherry▁
▁curves▁
▁eyebrow
▁frying▁
▁hunting
▁ideals▁
▁superb▁
▁termed▁
▁Highway▁
▁concepts
▁crystall
▁sheriff▁
▁evenings▁
▁surveyed▁
▁mortality▁
▁Mississippi
▁documented▁
▁instruments
▁indifferent▁
Am▁
VE▁
etz
Put▁
oeuv
Octob
auer▁
ilyn▁
thorn
▁Simm
▁Care▁
▁embry
▁indec
▁insan
▁sungl
▁alchem
▁penins
▁strain
▁driving
▁sights▁
▁thighs▁
▁truths▁
▁embassy▁
▁leaping▁
▁whereby▁
▁Michigan▁
▁dominate▁
▁isolation
▁organisms▁
▁:
ui▁
▁AG
ARD▁
rose
▁Slo
▁Huss
ubbed▁
▁Leon▁
▁Walt▁
▁dock▁
▁emigr
▁lever
▁limp▁
estial▁
ometer▁
▁livest
▁microb
▁turbul
▁braced▁
▁remedy▁
▁screech
itations▁
▁approve▁
▁awaited▁
▁caution▁
▁coupled▁
▁dietary▁
▁groaned▁
▁reconstr
▁settings
▁yielded▁
▁Archives▁
▁coherent▁
▁strolled▁
▁insisting▁
▁regretted▁
▁selecting▁
▁comforting▁
ema
OOD▁
gone▁
heim▁
icon▁
rise▁
▁Bess
▁Tall
▁herb
▁rod▁
▁Baghd
▁Creek
▁Jimmy
▁Know▁
▁cane▁
sworth▁
▁Applic
istence▁
▁dessert
▁poised▁
iversity▁
▁Suppose▁
▁reacted▁
▁solving▁
▁biography▁
▁energetic▁
▁alternative
▁constraints▁
Ma
Que
▁FE
ema▁
▁bip
cent▁
icus▁
▁tram
▁Spani
▁akin▁
▁chlor
▁click
▁delay
▁envy▁
▁Nelson
▁canal▁
▁lifts▁
▁Newton▁
▁slopes▁
▁concrete
▁devised▁
▁relates▁
▁weeping▁
▁enabling▁
▁grinding▁
▁doubtless▁
▁applications
MA
sle
▁NC
AGE▁
ava▁
▁Ard
▁MOR
eling
lines
thern
▁Eva▁
▁Glas
▁fork
▁Help▁
▁final
▁lent▁
▁Diane▁
▁Eliot▁
▁Henri▁
▁Object
ilation▁
▁attach▁
▁dotted▁
▁hurled▁
▁speaker
▁collapse
▁greeting▁
▁arbitrary▁
▁sentenced▁
▁Convention▁
▁politicians
DR
Pol
ubs
▁CS
John
Publ
_.,▁
car▁
draw
amper
brid▁
piece
▁Bark
▁Forb
▁dysf
▁sund
stead▁
▁Cuba▁
▁Rise▁
▁troph
▁ultim
taking▁
thirds▁
▁anonym
▁prolet
▁margin▁
▁silently
▁unbeliev
▁Geoffrey▁
▁rendering▁
▁coincidence
▁geographical▁
▁reproductive▁
▁_—
OOK▁
too▁
▁Inv
ikes▁
▁Agre
▁Astr
▁hunt
▁Fair▁
▁chast
▁clan▁
▁espec
▁Wells▁
▁enrich
▁excurs
▁illust
▁torch▁
▁warned
▁wires▁
▁Catalog
▁claimed
▁slower▁
▁vacation
▁Colorado▁
▁calculate▁
▁enterprise
▁regulatory▁
▁relentless▁
▁specialist▁
▁treatments▁
▁embarrassing▁
▁universities▁
Bro
ICK
awn
joy
mit
Didn
▁Fay
▁Maz
▁pel
▁vap
emary▁
esian▁
▁bias▁
▁dump▁
▁trim▁
▁ubiqu
atical▁
iarity▁
▁Winter
▁bowls▁
▁folds▁
▁roses▁
▁attain▁
▁ignored
▁manners
specific▁
▁dressing
▁Socrates▁
▁tensions▁
▁civilized▁
▁inadequate▁
cht
Russ
dale
olve
▁Rah
elsh▁
first
onne▁
vert▁
▁Abig
▁Yank
▁reco
▁sult
until▁
alytic▁
etical▁
▁Chuck▁
▁deplet
▁Douglas
▁Dublin▁
▁Easter▁
▁Fitzger
▁grains▁
▁Solomon▁
▁Walking▁
▁calendar▁
▁disposed▁
▁hardened▁
▁nineteen▁
▁Literature
▁aftermath▁
▁spectacle▁
▁capabilities▁
ICE▁
poss
wich▁
▁Fant
▁frat
▁utop
▁Apple
▁Days▁
▁Evan▁
▁Said▁
▁Sincl
▁Vatic
▁bush▁
▁lace▁
▁snake
▁Travel
▁diced▁
▁predic
▁purple
▁Enterpr
▁Matthew
▁banned▁
▁phones▁
▁unusual
▁warrior
▁Hopkins▁
▁Likewise
▁analogy▁
▁crooked▁
▁manners▁
▁murders▁
▁theories
▁instantly
▁disastrous▁
▁dispatched▁
▁sovereignty▁
▁transaction▁
Bel
hum
pool
▁Big
cott▁
riad▁
▁Dog▁
▁Soft
▁Bond▁
▁Maya▁
▁globe
▁Colomb
▁Confuc
▁Perry▁
▁smuggl
▁squirm
▁greens▁
▁Century▁
▁flashes▁
▁official
▁opinions
▁coloured▁
▁scraping▁
▁speakers▁
▁irritated▁
▁processor▁
▁adaptation▁
▁announcing▁
▁composition
▁flashlight▁
Us
Tom
him
Rich
rons
▁twe
nuts▁
▁Adri
▁Decl
▁lean
▁stip
▁Used▁
▁drumm
▁saved
▁unfin
▁verse
▁Fergus
▁Hughes▁
▁climate
▁selfish
▁unions▁
clamation▁
▁spilling▁
▁squinted▁
▁afterward▁
▁apologize▁
▁fingertips▁
▁reluctantly▁
▁metaphysical▁
▁confrontation▁
IE▁
ambo
odyn
▁bun
star▁
▁Memb
▁jam▁
▁rip▁
▁Made▁
▁disli
▁notor
▁upper
profit▁
▁Cathed
▁Edith▁
▁Kings▁
▁ports▁
▁Adrian▁
▁cupped▁
▁current
▁noises▁
▁Napoleon
▁hovered▁
▁talents▁
▁Medicine▁
▁comrades▁
▁reserves▁
▁companions
▁directing▁
▁presently▁
▁contingent▁
▁highlights▁
DA
EG
Sal
aman
coat
▁nan
lain▁
▁Gren
▁Sans
▁heir
▁shed
▁toe▁
▁Leban
▁bind▁
▁empow
▁scraw
driven▁
iology▁
▁Heming
▁dairy▁
▁deeper
▁franch
▁indisc
▁chewed▁
▁distant
▁heaved▁
▁Yugoslav
▁bleeding
▁prophet▁
▁Appendix▁
▁Friedrich▁
▁repetition▁
▁undertaken▁
▁measurements▁
Mod
Os▁
Arch
conc
irk▁
▁bud
▁cm▁
▁wed
▁Draw
▁Plus
▁Poin
▁Prop
▁give
▁Jill▁
▁chip▁
▁slap▁
▁vitam
▁Brain▁
▁Theory
▁archet
▁thirst
▁veins▁
▁Virgin▁
▁meticul
▁Grandma▁
▁fatigue▁
▁stamped▁
▁maternal▁
▁monetary▁
▁Meanwhile▁
▁furnished▁
▁magnitude▁
▁undermine▁
▁violation▁
▁medication▁
gy▁
crit
eber
rate
▁Chi
▁rod
cover▁
pound▁
▁Kyle▁
▁Surpr
▁Team▁
▁logs▁
▁suck▁
▁void▁
▁Mayor▁
▁Norton
▁locks▁
▁wicked
Another▁
▁Turkey▁
▁channel
▁fridge▁
▁hurried
▁ninety▁
▁Gilbert▁
▁Records▁
▁changing
▁chapters
▁protocol▁
▁precision▁
▁vulnerable
▁appropriate
▁consulting▁
▁characteristics
éd
aca
▁K▁
Conf
iam▁
▁adh
berry
suit▁
▁Liz▁
▁deer
Table▁
▁Memph
▁bount
▁cans▁
▁kings
▁Walter
▁poster
▁scheme
▁seduct
▁talked
▁laptop▁
▁Progress
▁gradual▁
▁fountain▁
▁hesitate▁
▁weighing▁
▁inventory▁
▁protested▁
▁reinforce▁
▁sustainable▁
Um
▁**(
▁Cut
▁Seg
▁Cogn
▁indo
▁tray
copic▁
▁Chair
▁Nate▁
▁flee▁
istant▁
itness▁
▁Temple
▁agenda
▁Arctic▁
▁Claude▁
▁padded▁
▁picnic▁
▁rental▁
▁Commonwe
▁sidewalk
▁Architect
▁Charlotte
▁provoked▁
▁commodity▁
▁contradict
▁specially▁
▁continuity▁
▁thoughtfully
▁aristocratic▁
▁recommendations▁
DS▁
DUC
zek
Mart
erew
iya▁
▁Qur
▁mah
ando▁
▁apt▁
▁pend
gress▁
maybe▁
▁Snow▁
▁Norweg
▁coats▁
▁deaths
▁MacArth
▁abandon
▁dagger▁
▁diving▁
▁ferment
▁targets
▁costume▁
▁components
▁intervals▁
▁scientists
▁inspiration
▁significant
▁concentration
▁archaeological▁
Po
gy
▁Kin
▁PRE
▁Hipp
▁gain
▁hith
▁Siber
▁blame
▁lane▁
rative▁
▁Accord
▁Agent▁
▁blocks
▁peers▁
▁Collins
▁counts▁
▁killing
▁Archives
▁Brigade▁
▁Florence
▁dismiss▁
▁linking▁
▁surgeon▁
▁weakened▁
▁Caribbean▁
▁dissolved▁
▁fascination▁
▁refrigerator
For
▁L▁
amas
▁Box
▁Jup
▁un▁
atha▁
oming
order
▁Half
▁Kind
▁Vent
▁cops
▁hut▁
▁slim
▁sulf
oline▁
▁ankle
▁deton
▁scent
▁writh
▁Really
▁Watson
▁Whiteh
▁screw▁
▁ticket
optional
▁cookie▁
▁nicely▁
ilateral▁
▁chilled▁
▁envelope
▁sincere▁
▁squares▁
▁elections
▁kneeling▁
▁mutually▁
▁offended▁
▁Socialist▁
▁challenges
▁entertain▁
▁preserving▁
▁obligations▁
▁perceptions▁
▁reminiscent▁
▁Conservative▁
nia
▁Zo
bler
▁Ali
▁Mig
ancer
human
itus▁
▁Cup▁
▁Third
▁encry
▁offsh
▁strat
▁Ferdin
▁cakes▁
▁Gothic▁
▁Kansas▁
▁Knight▁
▁Lizzie▁
▁Twelve▁
▁thrill▁
▁wrists▁
▁arrives▁
▁disturb▁
▁harmful▁
▁mattered
▁penalty▁
▁sections
▁severed▁
▁Complete▁
▁desperate
▁dividing▁
▁Christine▁
▁investing▁
▁Environmental▁
▁Cu
▁Ri
Shit
zing
▁avi
▁neo
▁spy
▁Off▁
▁Pink
▁Plut
▁nond
umbers
▁Chris
▁Kong▁
▁handc
▁hike▁
vation▁
▁Arabs▁
▁Venice
▁disemb
▁paced▁
ifiable▁
selling▁
▁decline
▁reckon▁
▁arising▁
▁churches
▁invasion
▁husbands▁
▁metallic▁
▁reconcili
▁trembling
▁twentieth
▁Southeast▁
▁compliment
▁territorial▁
AF
eni
list
rans
Call▁
▁Hass
▁limp
month▁
uggle▁
▁Truth
▁clamb
▁herbs
utable▁
▁Kitty▁
▁Territ
▁bitch▁
▁clues▁
▁forged▁
▁holiday
▁plastic
▁cheaper▁
▁dresses▁
▁opponent
▁interval▁
▁engagement
▁immigrant▁
▁traumatic▁
▁voluntary▁
▁Contemporary▁
▁intellectuals▁
Ang
dor
iti
pot
▁ba
▁Lily
▁Nell
▁bike
▁nods
▁winn
contin
olden▁
▁Hugo▁
▁Joel▁
▁Mason
▁bees▁
▁shade
▁toys▁
aments▁
▁Buddha
▁Penny▁
▁crest▁
▁insane
▁kills▁
▁Madison
▁Murphy▁
▁export▁
▁groaned
▁Popular▁
▁Whoever▁
▁blasted▁
▁compact▁
Sometimes▁
▁Obviously
▁indispens
▁outbreak▁
▁regiment▁
▁Microsoft▁
▁businesses
▁cigarettes
▁facilities
▁statements
▁embarrassed
▁surprisingly
'?"▁
oufl
uez▁
viol
▁Dob
▁Opt
▁blo
▁rog
force
▁Icel
▁Line
▁Main
▁clubs
▁layer
▁split
▁Joint▁
▁Sound▁
▁outbur
▁spoken
▁tours▁
olutely▁
▁calling
▁copied▁
▁inexplic
▁metaphor
▁Infantry▁
▁Patricia▁
▁ministry▁
▁presumed▁
▁soothing▁
▁boundaries
▁problematic▁
▁dé
▁Rin
Book▁
ishes
▁vind
March▁
itches
making
▁Judy▁
▁sciss
▁wrink
▁Total▁
▁crust▁
▁Orange▁
▁quarrel
▁shocked
▁spiral▁
▁combined
▁sequence
▁cracking▁
▁physician
▁suspicion
▁procedures
▁identifies▁
▁overlooked▁
▁schizophren
▁accumulation▁
▁achievements▁
▁confirmation▁
▁entertainment
oi▁
Les▁
edia
quet
unny
▁Bou
▁upr
empt▁
ener▁
oured
smith
▁ISBN
▁Impl
▁depl
▁inch
▁swiv
▁bored
▁icon▁
▁march
▁plea▁
▁swing
▁Agency
▁Frankf
▁chains
▁dement
▁flank▁
▁hates▁
▁laser▁
▁sober▁
▁Follow▁
▁hemisph
▁pickup▁
▁vessels
▁Indiana▁
▁faintly▁
▁hunters▁
▁scraped▁
▁compounds▁
▁conjunction▁
▁reproduction▁
cut
sic
stad
▁McM
▁Rot
▁fos
Semit
onaut
▁pier
arrow▁
▁Joyce
▁Roger
▁backs
▁jars▁
▁Evans▁
▁Welsh▁
▁Austin▁
▁bolted▁
▁cement▁
▁charism
▁cloves▁
▁electro
▁hopped▁
▁lawyers
▁Program▁
▁insists▁
▁Creating▁
▁Chocolate▁
▁molecules▁
Aut
ania
▁Sik
▁Nord
▁Ring
▁Debor
▁apple
▁deaf▁
▁mint▁
▁nerve
▁shelf
▁unlim
▁using
▁Edwin▁
▁tissue
▁Brussel
▁Stewart
▁breach▁
▁articles
▁Brothers▁
▁insurance
▁missions▁
▁prevents▁
▁sensation
▁sickness▁
▁tumbling▁
▁ambulance▁
▁eighteenth
▁extracted▁
▁committing▁
▁Revolutionary▁
PAR
fly
▁Sey
Wait▁
erty▁
liter
mate▁
▁Flyn
▁athe
▁kit▁
▁synt
▁trif
▁Krish
▁Nancy
▁Lydia▁
▁Shall▁
▁sphere
aissance
▁Clearly
▁bumped▁
▁induce▁
▁liable▁
▁Combine▁
▁Francesc
▁expenses
▁notebook
▁sleeves▁
▁receiver▁
▁solutions
▁suburban▁
▁veterans▁
▁determined
▁expresses▁
▁speculation▁
oa
ieu
sol
aphr
why▁
▁Dul
▁gull
advert
esame▁
▁Liam▁
▁Seren
▁Wang▁
▁disk▁
▁shrug
▁socio
▁stomp
▁vigil
ictive▁
▁myths▁
Someone▁
▁infiltr
▁nephew▁
▁resume▁
▁soccer▁
ancement▁
▁Cameron▁
▁springs▁
▁Princeton
▁cemetery▁
▁chatting▁
▁damaging▁
▁gratitude
▁murderer▁
▁ventured▁
▁hospitals▁
▁inflation▁
▁suggestion
▁institution
▁consistency▁
▁interpretations▁
avor
omo▁
usch
▁Dum
▁Nur
idst▁
▁CONT
▁Darc
▁Note
▁Sabb
▁palp
▁Mass▁
▁Phoeb
▁arsen
▁enter
▁exile
▁feder
▁swimm
▁unity
Exactly
▁Franz▁
▁hiding
▁Sierra▁
▁ambival
▁dismant
▁fights▁
▁halted▁
▁jagged▁
▁aroused▁
▁bicycle▁
▁blurred▁
▁bridges▁
▁explosion
▁synthetic▁
▁tolerance▁
Bar
▁Ord
Frank
itchc
▁app▁
andra▁
▁sexy▁
uating▁
▁chunk▁
▁domain
▁formed
▁troop▁
▁Sharon▁
▁anyway▁
▁peanut▁
▁mineral▁
▁famously▁
▁comprised▁
▁settlement
▁acquainted▁
▁adventures▁
▁appointment
▁inspection▁
ANT
Sur
▁Sz
cliff
ounce
▁Hal▁
▁Serb
▁feas
▁pond
▁wret
Commun
rians▁
roads▁
uation
▁Hard▁
▁Order
▁dies▁
▁duke▁
▁foam▁
▁slack
▁Riley▁
▁cannot
▁demean
▁grandd
▁merit▁
▁Choose▁
▁Patrick
▁Watson▁
▁kisses▁
▁miracle
▁periods
▁radical
▁skirts▁
▁editing▁
▁diameter▁
▁discourse
▁failures▁
▁fastened▁
▁fiercely▁
▁fortress▁
▁intensity
▁patiently▁
▁stumbling▁
▁inequality▁
▁prosperity▁
▁vocabulary▁
▁distribution
▁territories▁
'—
Time
feed
▁SEC
▁Ted
ancou
tesy▁
▁clam
▁goat
Anyway
▁froze
▁Family
▁handy▁
▁Nearly▁
▁angles▁
▁costly▁
▁gravity
▁joints▁
▁injuries
▁currents▁
▁mortgage▁
▁apparatus▁
▁continent▁
ICH
Lou
OUG
pop
▁LC
Has▁
met▁
oux▁
▁___
▁lid
eses▁
mates
stop▁
▁Cock
▁cros
▁epit
ellar▁
former
lights
▁Occup
▁Small
▁seas▁
▁Allan▁
▁Excell
▁Fresh▁
▁Import
▁Regard
▁floors
▁margin
▁sunset
▁tooth▁
ishable▁
▁Islands
▁aching▁
▁allowed
▁bottles
▁closes▁
▁equity▁
▁heavens
▁Friends▁
▁bathing▁
▁Pittsburg
▁Practice▁
▁amusement
▁computers
▁piercing▁
▁respects▁
▁strategies
▁undertake▁
▁appearances▁
▁nutritional▁
▁exploitation▁
Stud
stud
▁MIN
anner
icia▁
super
▁Sach
▁glut
ridge▁
▁Kurt▁
▁owns▁
▁wheat
▁Nobel▁
▁tackle▁
▁jewelry▁
▁moreover
▁terrace▁
▁strapped▁
▁diminished▁
▁entertaining▁
▁participated▁
▁developmental▁
ACH
Des
Fin
▁SO
care
ummy
▁gel
aceut
langu
▁Cros
▁Emot
▁Map▁
▁dens
▁surm
enders
▁Heath
▁Talib
▁dates
▁marin
▁shack
Should▁
▁Rockef
▁bigger
▁rider▁
▁spill▁
▁twitch
▁protect
▁Chancell
▁earnest▁
▁explains
▁shuttle▁
▁surplus▁
Washington
▁foremost▁
▁practical
▁swelling▁
▁syndrome▁
▁accounted▁
▁penetrate▁
▁acknowledging▁
IZ
oi
log
▁Oz
acco
arn▁
▁bug
▁lil
enson
vent▁
▁Tren
▁cran
▁gobl
World▁
erton▁
▁Gwen▁
▁comed
▁figur
▁saint
▁scept
▁Assess
▁Attorn
▁autumn
▁batch▁
▁robes▁
▁dialog▁
▁mistaken
▁warriors
▁Heidegger
▁Palestine
▁glimpsed▁
▁punished▁
▁reference
▁celebrity▁
▁creativity
▁molecular▁
▁perspectives▁
gun
▁PO
▁ml
amps
emy▁
dale▁
eryl▁
eters
fold▁
▁damn
itness
▁Live▁
▁Rich▁
▁Veron
▁junk▁
▁Johann
▁budget
▁canvas
▁prover
▁devote▁
▁growing
▁injured
▁poking▁
▁update▁
▁Heather▁
▁Soviets▁
▁analyses▁
▁employer▁
▁assertion▁
▁retrieval▁
▁originated▁
▁prospective▁
▁intersection▁
▁transformation
iva
▁ja
asts
coun
▁imb
Stay▁
arrow
▁Cosm
▁Free
ulated
▁joint
▁toll▁
ensing▁
▁windsh
astical▁
▁Stella▁
▁assembl
▁connect
▁loomed▁
▁myriad▁
▁unseen▁
▁elevator
▁planets▁
▁proposal
▁Baltimore
▁Einstein▁
▁apparently
▁conviction
▁perimeter▁
▁suspicious
▁rhetorical▁
▁continuously▁
Cle
jo▁
▁BM
afe▁
yer▁
▁Gem
thrit
▁ally▁
▁arch▁
▁chips
▁Derek▁
▁Warren
▁fruits
▁swords
▁tents▁
▁Holland
▁exposed
▁gallery
▁Leaving▁
▁Marshal▁
▁shadowy▁
▁Continue▁
▁collapsed
▁incompreh
▁pathetic▁
▁northwest▁
▁squeezing▁
▁uncovered▁
▁articulate▁
▁electricity
Ha
PA
Reg
Jack
othy
▁Fis
▁Lux
▁abd
▁gap
alist
▁Gest
▁Kier
▁bung
▁tart
▁foil▁
▁refin
▁makesh
▁consent
▁cruise▁
▁derive▁
▁devoid▁
▁fossil▁
▁narciss
▁theoret
▁actress▁
▁knights▁
▁natives▁
▁scandal▁
▁scenario
▁toasted▁
▁worldly▁
▁Scandinav
▁elephant▁
▁particle▁
▁politely▁
▁uncommon▁
▁Tennessee▁
▁efficiency
▁launching▁
▁nutrients▁
▁warehouse▁
▁Aboriginal▁
▁bitterness▁
▁implemented▁
▁inheritance▁
▁substantially▁
Mil
rix
Read
ften
hot▁
store
udes▁
ulous
▁Cair
▁Chal
▁Daph
▁Room
▁ban▁
▁mum▁
▁vast
▁Girl▁
▁Honor
▁Laura
▁hydro
▁peel▁
▁Therap
▁amount
▁paces▁
▁Create▁
▁fatigue
▁kidding
▁Sciences
▁whistle▁
▁Students▁
▁seasonal▁
▁Correspond
▁employment
▁nervously▁
▁recognizes▁
▁corresponds▁
▁transforming▁
rin▁
ICAL▁
ailed
▁Leop
▁awe▁
▁diox
child▁
▁Brian
▁Cohen
▁bean▁
▁folks
▁patch
▁postc
▁swear
orship▁
▁assets
▁barric
▁laughs
▁Mickey▁
▁allied▁
▁outfit▁
▁permiss
▁Investig
▁Marxist▁
▁console▁
▁velocity▁
▁backwards▁
▁submarine▁
▁governments
▁perfection▁
▁conflicting▁
''▁
Mem
▁v▁
ACK▁
rush
▁Egg
▁Kid
Lord▁
atal▁
iron▁
owski
▁Brid
▁chir
idian▁
think▁
▁Hills
▁Shaw▁
ulates▁
▁Bruno▁
▁Percy▁
▁Slowly
▁loads▁
▁socks▁
alizing▁
▁Michel▁
▁priests
▁fertile▁
▁grateful
▁hardest▁
▁mansion▁
▁trimmed▁
▁urgency▁
▁Alliance▁
▁credited▁
▁delicious
▁unwanted▁
▁occupation
▁containers▁
▁highlighted▁
▁unemployment▁
▁parliamentary▁
▁reconstruction▁
NA
▁NF
ebra
iano
orrh
▁NY▁
Love▁
▁Burr
▁brib
▁fuzz
▁grac
▁par▁
▁shaw
fried▁
▁Major
▁Sure▁
▁THAT▁
▁ache▁
▁clich
▁foref
▁nowad
▁perme
▁Dante▁
▁Ellis▁
▁hissed
▁tubes▁
▁Control
▁Dallas▁
▁Gospel▁
▁charts▁
▁forests
▁gloomy▁
▁insane▁
▁testing
▁timber▁
▁Columbia
▁Palestin
▁clearing
▁grilled▁
▁eventual▁
▁signaled▁
▁sanctuary▁
▁welcoming▁
▁Federation▁
▁definitive▁
▁displaying▁
▁physiological▁
vy
ifl
uer
▁Nep
▁apt
itely
▁Borg
▁Doub
▁ash▁
▁tube
▁Khan▁
▁hull▁
▁posts
▁shake
▁telep
iating▁
▁Horse▁
▁drawer
▁invalu
▁pills▁
▁ranch▁
▁swell▁
▁unfair
▁Evelyn▁
▁Restaur
▁chapel▁
▁sewing▁
▁variety
▁Frankie▁
▁generic▁
▁sciences
▁disguise▁
▁fireplace
▁objective
▁sciences▁
▁witnesses
▁assurance▁
▁judgments▁
▁profitable▁
▁substances▁
▁unexpectedly▁
▁congressional▁
TM
icial
osity
▁Annie
▁Gene▁
▁Rosa▁
▁THIS▁
▁Tower
▁curl▁
▁Allow▁
▁awoke▁
▁deeds▁
ishments
▁Bernard
▁Slowly▁
▁Tuesday
▁cookies
▁goddess
▁presupp
▁spends▁
▁spices▁
▁yields▁
▁behaved▁
▁Testament
▁container
▁missiles▁
▁impending▁
▁embarrassment
▁instrumental▁
▁q
Dem
sth
War▁
emia
weet
▁Kan
imir▁
▁Bonn
▁Hern
▁Sult
▁load
▁mete
▁phon
April▁
claim▁
▁List▁
▁bibli
▁coup▁
▁jungle
▁lacks▁
▁plaint
atorial▁
▁Convers
▁Essays▁
▁annihil
▁stench▁
▁blessing
▁morally▁
▁discussed
▁grasping▁
▁invisible
▁employers▁
▁enjoyment▁
▁completion▁
▁dependence▁
▁International
OLL
ck▁
dal
did▁
eded
gers
stro
▁FBI
esse▁
olves
▁Aren
▁Psal
▁acts
▁arc▁
party▁
stood▁
▁dome▁
▁loaf▁
▁unatt
▁Store▁
▁frown▁
etically
▁Allies▁
▁Danish▁
▁Puerto▁
Everyone▁
▁Holding▁
▁fellows▁
▁updated▁
▁blinking▁
▁squadron▁
▁thankful▁
▁trembled▁
▁commitment
▁obsession▁
▁Scientific▁
▁sensations▁
Id
▁EU▁
▁liz
ABLE▁
▁clay
these▁
▁Dutch
▁Trots
▁fists
▁haul▁
▁sabot
Social▁
▁Morocc
▁Paper▁
▁Penins
▁Stock▁
▁expand
▁fourth
▁paved▁
▁pipes▁
▁stamp▁
▁Beside▁
▁Warner▁
▁causal▁
▁knives▁
▁weaker▁
▁Digital▁
▁Keeping▁
▁Wilhelm▁
▁chiefly▁
▁teasing▁
▁garrison▁
▁lightning
▁regained▁
▁unsalted▁
▁displaced▁
▁horrified▁
▁makeshift▁
▁reprinted▁
▁sandwiches▁
▁administered▁
Sil
lys
▁Wi
OUR▁
▁GRE
ioxid
orns▁
urry▁
▁Requ
illas▁
rating
▁Delhi
▁Donov
▁draft
▁pond▁
▁acids▁
▁fallen
▁golden
▁losses
▁sticks
▁unique
▁discern
▁layout▁
▁reorgan
▁spells▁
▁vacant▁
building▁
▁barrels▁
▁glaring▁
▁ideology
▁hitherto▁
▁Hungarian▁
▁oblivious▁
▁encourages▁
▁possessions▁
GR
Kn
zi
Me▁
▁GL
erty
ulu▁
▁Jak
▁vet
essim
▁Grey
▁Mamm
▁folk
annah▁
▁Farm▁
▁Retur
▁Rule▁
▁Tree▁
▁races
▁hatred
▁hurric
▁parks▁
▁Affairs
▁banged▁
▁nudged▁
▁raging▁
▁Belgian▁
▁Network▁
▁adverse▁
▁plaster▁
▁hydrogen▁
▁shivered▁
▁uniforms▁
▁Scripture▁
▁allegedly▁
▁detection▁
▁mechanics▁
▁agriculture
▁confession▁
▁constitution
▁availability▁
Hmm
ells
feld
izer
plan
than
▁pom
arcer
▁Balk
▁Kit▁
▁Midd
▁drum
▁ski▁
brown▁
etown▁
ulent▁
▁Full▁
▁José▁
▁suits
▁tire▁
ogging▁
osition
▁Benny▁
▁Inside
▁Rodrig
▁Words▁
▁dramat
▁Carpent
▁Tribune
▁lately▁
▁varies▁
▁Capital▁
▁constell
▁cricket▁
▁growled▁
▁parsley▁
▁chickens▁
▁clusters▁
▁limiting▁
▁shredded▁
▁unlocked▁
▁confusing▁
▁Psychology▁
▁kilometres▁
▁responsible
▁supportive▁
▁conservation▁
▁environments▁
▁extraordinarily▁
uen
chur
eapp
▁Amy
Five▁
psych
▁Font
amorph
enson▁
▁Devil
▁Faith
▁TWENT
▁Thai▁
▁chart
▁impet
▁indeb
▁shown
▁veins
▁wept▁
▁Hannah
▁Mussol
▁aboard
▁brows▁
▁decent
▁slick▁
minster▁
▁convoy▁
▁ribbon▁
▁scrape▁
▁slides▁
▁granite▁
▁relying▁
▁schemes▁
▁figuring▁
▁mushrooms
▁narrator▁
▁securing▁
▁digestive▁
▁flattened▁
▁interviews
▁provinces▁
▁battlefield
▁implication▁
▁prestigious▁
Pap
fre
tel
▁Map
▁Spl
week▁
▁Ivan
adian▁
resses
udged▁
▁franc
▁ABOUT▁
▁Hebrew
▁nobody
▁retali
▁scener
▁stands
▁harness
▁Sherman▁
▁calcium▁
▁cousins▁
▁dialogue
▁hideous▁
▁incompet
▁specify▁
▁treasure
▁brilliant
▁conceive▁
▁enlisted▁
▁locations
▁reassure▁
▁imitation▁
▁resembles▁
▁nationalism▁
▁communicated▁
iov
kov
▁Meh
▁Khan
▁RAF▁
▁maps
▁Ocean
▁Ultim
▁dolph
▁lust▁
▁mines
▁prair
▁ranks
▁Fleet▁
▁colony
▁diagon
▁slung▁
▁spice▁
▁wishes
▁Access▁
▁clinic▁
▁corners
▁stammer
breaking▁
▁rotting▁
▁sessions
▁hopeless▁
▁slippery▁
▁chemistry▁
▁declaring▁
▁willingly▁
▁experiments
▁scratching▁
▁accommodation▁
PS
bas
▁oo
inas
▁Dow
ousy▁
uffy▁
▁Raph
▁plur
▁Austin
▁format
▁maple▁
▁shield
▁waterc
▁Eugene▁
▁Sidney▁
▁Venice▁
▁innate▁
▁labels▁
▁patent▁
▁achieved
▁hopeful▁
▁hormone▁
▁locally▁
▁orderly▁
▁Medieval▁
▁lifestyle
▁obviously
▁seventeen
▁exercised▁
▁moonlight▁
▁discomfort▁
▁exceedingly▁
▁combinations▁
▁AW
▁kh
▁Tas
emia▁
▁Bass
▁Cool
▁Fat▁
▁Vand
▁furr
▁giant
▁herb▁
▁outsk
▁Marco▁
▁Oliver
▁award▁
▁buses▁
▁hairs▁
▁horns▁
▁shapes
▁steer▁
ainable▁
emption▁
▁Dragon▁
▁naming▁
▁sadness
▁alarmed▁
▁neglect▁
▁aluminum▁
▁clicking▁
▁encounter
▁pleading▁
▁ruthless▁
▁proposals▁
▁wilderness
▁celebrating▁
▁preoccupied▁
Ir
Feb
UE▁
oux
Come
omot
them
▁Aer
▁DIS
▁Nak
▁Saw
aning
aring
▁Hous
▁[...
▁hull
actly▁
maker▁
▁Beeth
▁Jason
▁Rosal
▁brave
▁moust
▁nomin
▁whirl
bishop▁
▁Burke▁
▁Galile
▁Sauce▁
▁Teddy▁
▁idiot▁
▁risky▁
▁cooler▁
▁insert▁
▁engineer
▁whirled▁
▁Somebody▁
▁abandoned
▁despised▁
▁proteins▁
▁reckoned▁
▁Available▁
▁crumbling▁
▁disguised▁
▁maintains▁
▁Manchester▁
▁consequently▁
▁interference▁
▁manufactured▁
Out
Sax
mid
girl
obe▁
▁Kaf
▁iPh
▁laz
▁Chan
▁Piet
▁Prec
▁loop
▁sard
▁serp
ranean
sided▁
▁Nikol
▁burgl
▁fancy
ysical▁
▁Living
▁Wagner
▁hints▁
▁super▁
▁embrace
▁expense
▁insects
▁lethal▁
▁staged▁
▁choking▁
▁listing▁
▁morality
▁divorced▁
▁incoming▁
▁pleasing▁
▁smoothly▁
▁discharge▁
▁inherently▁
fo
zi▁
iors
yan▁
▁Kas
▁MY▁
▁USS
▁meg
▁Mang
▁Pasc
▁chak
▁dash
▁rupt
▁unsh
▁Storm
▁arena▁
▁burns▁
▁mound▁
iciency▁
nothing▁
▁cliffs▁
▁furious
▁trench▁
▁eternity
▁majority
▁motions▁
▁simpler▁
▁Athenian▁
▁Evidence▁
▁depressed
▁guardian▁
▁renowned▁
▁salvation
▁distorted▁
▁irregular▁
▁offspring▁
▁sacrificed▁
▁participating▁
OM▁
ork
▁FA
▁LL
ido▁
say▁
▁wil
adic▁
chen▁
▁hay▁
▁torn
▁fianc
▁irrig
▁liver
▁yell▁
▁globe▁
▁indist
▁pagan▁
▁shirts
▁shove▁
▁poster▁
▁racism▁
▁Detroit▁
▁Marilyn▁
▁appeals▁
▁exciting
▁favorite
▁horrible
▁relieved
▁Pakistan▁
▁discount▁
▁infamous▁
▁innocence
▁internet▁
▁monsters▁
▁nonsense▁
▁outright▁
▁stability
▁adjusting▁
▁obtaining▁
▁surprising
▁mentioning▁
▁negotiating▁
GM
sn
cit
neg
▁JF
circ
pass
eavy▁
urer▁
▁Grac
▁Repr
flies▁
outed▁
urred▁
▁Board
▁Maure
▁label
▁mustn
▁socks
▁stops
▁Final▁
▁Irene▁
▁blues▁
▁gauge▁
entially
holders▁
▁bathed▁
▁hybrid▁
▁kidney▁
▁temples
▁whimper
▁Roberts▁
▁heights▁
▁seasons▁
▁statues▁
▁unreason
▁visibly▁
▁connects▁
▁perfectly
▁realizes▁
▁decreased▁
▁inclusion▁
▁objection▁
▁autonomous▁
▁generating▁
▁governance▁
▁uncertainty
▁Corporation▁
▁battlefield▁
▁contradiction▁
Ro
Mac
ben
ulg
▁um
chen
ocop
Last▁
ospel
▁Hamb
▁Kais
▁inn▁
asper▁
▁Eliot
▁Ella▁
▁fade▁
▁jokes
flower▁
liness▁
uclear▁
▁epidem
▁flags▁
Introduc
usually▁
▁Roberts
▁aerial▁
▁engines
▁formula
▁inland▁
▁liking▁
▁Charlest
▁Islands▁
▁Morning▁
▁Mountain
▁Thursday
▁clearer▁
▁monument▁
▁moonlight
▁sunshine▁
▁surround▁
▁trusting▁
▁breakdown▁
▁municipal▁
▁passengers
▁previously
▁mathematics
▁philosopher
▁disposition▁
Ben
sac
amar
inus
mart
▁Dro
▁Wid
rens▁
▁grop
Leave▁
▁hence
▁Sweden
▁Vancou
▁wrath▁
izations
▁canned▁
▁Director
▁facility
▁goodbye▁
▁senator▁
▁chuckled▁
▁emergency
▁exhibited▁
▁observers▁
▁quotation▁
▁shuddered▁
▁stimulate▁
▁switching▁
▁Switzerland
▁abandoning▁
▁identities▁
▁determination
CT
Mr▁
oda▁
▁Cind
▁Kill
▁Myth
▁Sons
▁peac
▁Herr▁
▁Must▁
▁Want▁
▁blog▁
▁clip▁
▁prize
Better▁
umbers▁
▁Prior▁
▁Salad▁
▁Venus▁
▁curls▁
▁seeing
ulously▁
▁unhappy
▁winner▁
▁crimson▁
▁scarlet▁
▁dominance▁
▁mechanical
▁Immediately▁
▁volunteered▁
NE
isa
sil
icus
▁Hyp
ebras
eped▁
feld▁
state
▁Doc▁
▁Mant
▁dwind
▁inval
▁Bright
▁Terror
▁famous
▁played
▁Esther▁
▁Roland▁
▁Behavior
▁Miranda▁
▁berries▁
▁ensured▁
▁flicker▁
▁bitterly▁
▁diabetes▁
▁fabulous▁
▁indirect▁
▁addiction▁
▁religions▁
▁straining▁
▁presentation
▁publications▁
▁practitioners▁
▁representation
'?▁
EP▁
auk
mas
wn▁
airo
long
▁Wiz
insky
▁Ivy▁
▁item
▁nobl
▁rapt
▁Finn▁
▁aura▁
▁bonds
▁encir
▁hats▁
▁lure▁
hundred
▁ninth▁
▁Abraham
▁Toward▁
▁camoufl
▁fisherm
▁turkey▁
▁Problem▁
▁Schuster
▁descend▁
▁sensing▁
▁Exchange▁
▁Training▁
▁culinary▁
▁intermitt
▁modeling▁
▁navigate▁
olutionary▁
▁immensely▁
▁motionless▁
▁politician▁
▁sacrifices▁
▁entertained▁
International▁
▁manifestation▁
Vi
Del
EAR
wid
▁ER
AST▁
Disc
With
aro▁
eus▁
sens
▁AN▁
▁Cov
▁Yam
▁awe
amer▁
eper▁
▁Garn
▁Zach
▁bugg
▁dual
forth▁
▁Caval
▁Stern
▁crops
▁cute▁
▁node▁
Sounds▁
article
otting▁
▁Award▁
▁Jewish
▁stages
▁Amelia▁
▁Francis
▁Hoover▁
▁Isabel▁
▁confisc
▁engaged
▁govern▁
▁phoned▁
▁produce
▁screens
▁texture
▁threats
▁Article▁
▁Brooklyn
▁Similar▁
▁armored▁
▁murderer
▁shotgun▁
▁Starting▁
▁dazzling▁
▁interconn
▁regularly
▁regulate▁
▁terrific▁
▁advocates▁
▁intuition▁
▁shivering▁
▁plantation▁
▁prosecution▁
▁disappearance▁
▁investigations▁
CI
SA
yl▁
▁Gn
▁H▁
AVE▁
Pres
dist
▁Tac
▁–'▁
July▁
abby▁
amble
brevi
▁***▁
heads▁
thest▁
▁Acts▁
▁Warri
▁bewil
▁scorn
▁Donna▁
▁Johnny
▁Samuel
▁afflic
▁pardon
irected▁
keeping▁
▁Seattle
▁builds▁
▁pupils▁
▁astrolog
▁comments
▁slamming▁
▁upcoming▁
▁Byzantine▁
▁libraries▁
▁saturated▁
▁purchasing▁
▁coincidence▁
▁reflections▁
▁preservation▁
▁manufacturers▁
▁vulnerability▁
Met
esy
ocl
▁Cup
▁Dat
▁xvi
None▁
Star▁
bral▁
isons
ocrit
stick
undy▁
▁Cinc
▁Meg▁
▁pony
▁seal
found▁
▁Code▁
▁Glasg
▁fort▁
▁jaws▁
▁vital
alities
ularly▁
▁Consum
▁Drake▁
▁helmet
▁modest
▁scars▁
entious▁
▁Bernie▁
▁backup▁
▁returns
▁risked▁
▁shirts▁
▁spouse▁
▁theolog
▁torture
▁Mission▁
▁fearing▁
▁connected
▁dwelling▁
▁Different▁
▁convention
▁obedience▁
▁populated▁
▁physicians▁
▁concentrating▁
PER
URE
bad
▁Gul
▁muc
dness
ewrit
woman
▁---▁
▁Hope
▁Thir
▁rapp
overed
▁Gate▁
▁limb▁
▁roomm
uggled▁
▁Tokyo▁
▁beads▁
▁harbor
question
▁Gloria▁
▁fucked▁
▁learns▁
▁shorts▁
▁Einstein
▁deposit▁
▁enforce▁
▁flavors▁
▁pinched▁
▁athletes▁
▁packages▁
▁passions▁
▁Louisiana▁
▁arranging▁
▁designing▁
▁comprehend▁
▁imaginative▁
▁photography▁
▁proceedings▁
▁alternatives▁
▁conversations
PH
li▁
vet
yer
ORY▁
▁Ary
▁Gay
Were▁
atin▁
▁Donn
marks▁
▁Brad▁
▁Vice▁
▁Wind▁
▁greed
▁tbsp▁
▁unnot
degree▁
▁Casey▁
▁thigh▁
▁Academy
▁cannon▁
▁coffin▁
▁Clearly▁
▁protocol
▁suggests
▁tracing▁
▁Colonial▁
▁Religion▁
▁expansion
▁mourning▁
▁portable▁
▁sentences
▁criminals▁
▁correlation▁
▁HarperCollins▁
chi
did
UST▁
chi▁
ught
eaux▁
enetr
white
▁Nest
▁clip
▁rais
vation
▁Hutch
▁Reed▁
▁fluid
▁footh
▁nods▁
Jewish▁
▁Maggie
▁Sugar▁
▁angels
▁ankles
▁beats▁
▁requis
▁scarf▁
▁Forces▁
▁creamy▁
▁elders▁
▁Cabinet▁
▁Certain▁
▁bombers▁
▁clamped▁
▁clarify▁
▁expanse▁
▁slowing▁
▁athletic▁
▁telegram▁
▁waitress▁
▁consuming▁
▁deposited▁
▁economies▁
▁righteous▁
▁associates▁
▁ingredient▁
Atl
Cap
Cre
cm▁
ogr
pay
tal
▁m▁
_.'▁
acts
etto
into▁
ucts▁
▁Fors
▁Robb
▁prel
▁sore
ectic▁
owski▁
▁Eden▁
▁Saul▁
▁buzz▁
▁moves
▁stuck
before▁
uration
▁Herald
▁Hughes
▁contri
▁steak▁
▁vines▁
olithic▁
respond▁
▁Barbara
▁masters
▁monitor
urrection
▁Holland▁
▁bubbles▁
▁revealed
▁trivial▁
▁anchored▁
▁scientist
▁teenager▁
▁contracted▁
▁organisation▁
BR
My
osm
▁tu
umn▁
boys▁
wind▁
▁Gonz
▁Hisp
▁Naom
▁obey
boards
▁mayor
▁undes
▁Cambod
▁Turks▁
▁reins▁
▁Conrad▁
▁defined
▁inward▁
▁plunge▁
▁revolt▁
▁spinal▁
▁torment
cultural▁
▁ambition
▁biology▁
▁camping▁
▁analyzed▁
▁paradigm▁
▁rebellion
▁decidedly▁
▁staggering▁
▁susceptible▁
IK
even
unks
▁Leo
▁vow
fuls▁
ymes▁
▁Ibn▁
▁hop▁
aults▁
words▁
▁neutr
▁stagn
▁Banks▁
▁Orient
▁Series
▁interc
▁onset▁
▁retail
ainment▁
▁Country
▁Nicole▁
▁abrupt▁
▁anxious
▁banner▁
▁phases▁
▁ranges▁
▁bacteria
▁bedside▁
▁infantry
▁locking▁
▁perfume▁
▁reporter
▁bourgeois
▁fragment▁
▁shortage▁
▁cultivate▁
▁arrangement
▁enlightened▁
▁frantically▁
▁impressions▁
Dan
Big▁
Los▁
Vict
eted
icon
rael
tle▁
wich
▁Eli▁
▁Kash
▁brav
▁jury
▁pole
▁Bird▁
▁Gross
▁Julia
▁Prett
▁Save▁
▁ridge
▁boards
▁lament
▁rally▁
▁unanim
Century▁
▁Outside
▁modify▁
▁Harrison
▁awesome▁
▁controls
▁criminal
▁freezer▁
▁glucose▁
▁sprawled▁
▁Universal▁
▁reproduce▁
▁Translated▁
▁manipulate▁
▁calculations▁
▁communicating▁
▁inappropriate▁
Abs
has
essa
haus
▁Tax
▁ker
▁pix
agus▁
asse▁
take▁
▁Cal▁
▁Core
▁blas
▁bulk
▁fidd
▁hamm
▁Eyes▁
▁hegem
▁imbal
atable▁
▁Conver
▁Photo▁
▁booth▁
▁candle
▁eerie▁
▁Thirty▁
▁pirate▁
▁strive▁
▁sunset▁
▁attacked
▁footage▁
▁parting▁
▁soaking▁
▁candidate
▁commerce▁
▁detective
▁farewell▁
▁stroking▁
▁validity▁
▁Classical▁
▁inflicted▁
▁overheard▁
▁portraits▁
▁relevance▁
▁screening▁
▁achievement
▁correspond▁
▁dedication▁
▁humiliation▁
Fri
epl
fast
gled
inge
prop
▁Kit
aton▁
igger
maker
▁Lith
▁fame
▁idol
▁kern
▁tide
▁Vaugh
▁axis▁
▁nails
▁oils▁
▁spots
▁stain
eating▁
eville▁
iberal▁
▁Schmid
▁Write▁
▁hazard
▁rides▁
▁stared
utation▁
▁fiscal▁
▁puzzled
▁scarce▁
▁warmer▁
▁Beneath▁
▁captive▁
▁crammed▁
▁dubious▁
▁lantern▁
▁manages▁
▁stalked▁
▁religious
▁acquiring▁
▁recognise▁
▁adolescent▁
Dev
IR▁
ca▁
▁Ov
enez
turn
▁Cul
▁Guy
▁ups
bird▁
▁Blue
▁Tenn
▁avoc
▁bail
▁pull
▁wist
Looks▁
ellers
ivers▁
▁Femin
▁Mick▁
▁Name▁
▁Serge
▁Stan▁
▁lung▁
▁tech▁
▁Drive▁
▁Marcus
▁Source
▁allevi
▁bachel
▁backse
▁mariju
▁cameras
▁herbal▁
▁intact▁
▁scraps▁
▁shaved▁
▁adorned▁
▁eyebrow▁
Christian▁
▁attained▁
▁dictated▁
▁literally
▁suitcase▁
▁tempting▁
▁Depending▁
▁inhabited▁
▁heightened▁
▁settlements▁
▁translations▁
▁demonstrating▁
ski
'),▁
comb
oung▁
▁barb
Indeed
recogn
▁Blake
▁Defin
▁Same▁
▁dove▁
arring▁
▁Queens
▁Diction
▁Solomon
▁regener
▁splash▁
▁winked▁
▁bargain▁
▁dreaded▁
▁entries▁
▁platoon▁
▁revival▁
▁scooped▁
▁disintegr
▁marginal▁
▁operates▁
▁splashed▁
▁Otherwise▁
▁Relations▁
▁corruption
▁fireplace▁
▁fulfilled▁
▁occupying▁
▁southeast▁
▁recovering▁
▁surrendered▁
▁Koh
▁Sho
▁bak
▁foy
ador▁
ilia▁
rait▁
▁Gott
▁lad▁
ilian▁
▁Antar
▁aware
▁exert
▁glue▁
▁inexp
▁revis
▁Boulev
▁Clare▁
▁Compar
▁fridge
▁safegu
▁Success
▁convuls
▁notwith
▁rifles▁
▁buzzing▁
▁careers▁
▁lighted▁
▁looming▁
▁sunshine
▁staircase
▁undergrad
▁workshop▁
▁designers▁
▁invitation
▁momentary▁
▁solidarity▁
▁arrangements
▁wonderfully▁
▁handkerchief▁
▁contemplating▁
ISH
Tod
Wal
▁Aj
exam
▁Lot
▁RES
▁Rig
▁Roh
core▁
journ
odus▁
▁Bond
▁Clem
▁Stad
▁Wait
▁fath
▁pro▁
▁unra
Sorry▁
iples▁
usions
▁Quent
▁canon
ernity▁
estine▁
▁Olive▁
▁typed▁
▁Patters
▁Wallace
▁romance
▁uneven▁
▁Michigan
▁eyelids▁
▁mankind▁
▁swaying▁
▁skeleton▁
▁Mountains▁
▁balancing▁
▁innocence▁
▁strengths▁
▁sweetness▁
▁experienced
▁prediction▁
▁--
BER▁
▁Dud
▁dow
pine▁
watch
▁Hiro
▁amen
▁auto
▁ding
▁outn
▁robe
▁zeal
amboo▁
orning
▁butch
▁fiber
▁trash
ermann▁
fields▁
▁Agnes▁
▁Arnold
▁Policy
▁helped
▁kidney
▁stain▁
winning▁
▁Wittgen
▁monkey▁
▁shrimp▁
Courtesy▁
▁banging▁
▁leisure▁
▁outcomes
▁pleaded▁
▁sweater▁
▁teenager
▁Physical▁
▁hormones▁
▁sweating▁
▁thinkers▁
▁delegates▁
▁nutrition▁
▁reassured▁
▁whatsoever
▁withdrawn▁
▁introduces▁
DI
fa
Dis
soc
yan
▁uh
opot
▁BCE
▁Kah
▁Leh
▁ore
neath
note▁
▁Cole
▁Hort
▁erad
▁runs
Boston
cester
▁Tokyo
▁calam
▁sorts
backed▁
▁Barcel
▁Prize▁
▁armies
▁passag
▁poles▁
▁scrub▁
▁smash▁
▁Horace▁
▁Sophia▁
▁bargain
▁coping▁
▁feathers
▁genealog
▁guidance
▁lateral▁
▁province
▁Buddhism▁
▁followers
▁sexuality
▁Religious▁
▁sheltered▁
▁accelerated▁
▁departments▁
▁Mediterranean
BER
—_▁
▁Bav
▁ya▁
Great
asing
stage
▁Pope
▁auct
▁evas
▁foul
ietal▁
store▁
▁Isaac
▁Troy▁
▁Yahwe
▁wages
▁Czech▁
▁cubes▁
▁handic
▁pessim
▁uncond
▁Annual▁
▁Connie▁
▁Lauren▁
▁Sexual▁
▁balcony
▁critics
▁hunter▁
December▁
▁Picture▁
▁cheered▁
▁contents
▁dessert▁
▁mirrors▁
▁Mountains
▁dimension
▁disliked▁
▁residence
▁tangible▁
▁unfolded▁
▁emptiness▁
▁equations▁
▁inscribed▁
▁strengthened▁
––
Tra
aux
▁GU
▁Pt
▁W▁
ONE▁
imo▁
inny
oner
▁Rey
▁Zen
Four▁
came▁
▁Diss
▁Rio▁
▁crap
▁prox
▁riot
chant▁
often▁
unning
▁Consc
▁Dawn▁
▁Husse
▁Lucas
▁Saman
▁artis
▁epith
▁juven
▁teamm
discipl
▁Editor
▁Jonah▁
▁boring
▁masses
▁bursts▁
▁extreme
▁flared▁
▁package
▁robbed▁
▁swayed▁
▁videos▁
▁boasted▁
▁compound
▁curtains
▁diabetes
▁insofar▁
▁merchant
▁weaving▁
unctional▁
▁Africans▁
▁adopting▁
▁corridors▁
[...]
