<pad>
<unk>
<D>
<0x00>
<0x01>
<0x02>
<0x03>
<0x04>
<0x05>
<0x06>
<0x07>
<0x08>
<0x09>
<0x0A>
<0x0B>
<0x0C>
<0x0D>
<0x0E>
<0x0F>
<0x10>
<0x11>
<0x12>
<0x13>
<0x14>
<0x15>
<0x16>
<0x17>
<0x18>
<0x19>
<0x1A>
<0x1B>
<0x1C>
<0x1D>
<0x1E>
<0x1F>
<0x20>
<0x21>
<0x22>
<0x23>
<0x24>
<0x25>
<0x26>
<0x27>
<0x28>
<0x29>
<0x2A>
<0x2B>
<0x2C>
<0x2D>
<0x2E>
<0x2F>
<0x30>
<0x31>
<0x32>
<0x33>
<0x34>
<0x35>
<0x36>
<0x37>
<0x38>
<0x39>
<0x3A>
<0x3B>
<0x3C>
<0x3D>
<0x3E>
<0x3F>
<0x40>
<0x41>
<0x42>
<0x43>
<0x44>
<0x45>
<0x46>
<0x47>
<0x48>
<0x49>
<0x4A>
<0x4B>
<0x4C>
<0x4D>
<0x4E>
<0x4F>
<0x50>
<0x51>
<0x52>
<0x53>
<0x54>
<0x55>
<0x56>
<0x57>
<0x58>
<0x59>
<0x5A>
<0x5B>
<0x5C>
<0x5D>
<0x5E>
<0x5F>
<0x60>
<0x61>
<0x62>
<0x63>
<0x64>
<0x65>
<0x66>
<0x67>
<0x68>
<0x69>
<0x6A>
<0x6B>
<0x6C>
<0x6D>
<0x6E>
<0x6F>
<0x70>
<0x71>
<0x72>
<0x73>
<0x74>
<0x75>
<0x76>
<0x77>
<0x78>
<0x79>
<0x7A>
<0x7B>
<0x7C>
<0x7D>
<0x7E>
<0x7F>
<0x80>
<0x81>
<0x82>
<0x83>
<0x84>
<0x85>
<0x86>
<0x87>
<0x88>
<0x89>
<0x8A>
<0x8B>
<0x8C>
<0x8D>
<0x8E>
<0x8F>
<0x90>
<0x91>
<0x92>
<0x93>
<0x94>
<0x95>
<0x96>
<0x97>
<0x98>
<0x99>
<0x9A>
<0x9B>
<0x9C>
<0x9D>
<0x9E>
<0x9F>
<0xA0>
<0xA1>
<0xA2>
<0xA3>
<0xA4>
<0xA5>
<0xA6>
<0xA7>
<0xA8>
<0xA9>
<0xAA>
<0xAB>
<0xAC>
<0xAD>
<0xAE>
<0xAF>
<0xB0>
<0xB1>
<0xB2>
<0xB3>
<0xB4>
<0xB5>
<0xB6>
<0xB7>
<0xB8>
<0xB9>
<0xBA>
<0xBB>
<0xBC>
<0xBD>
<0xBE>
<0xBF>
<0xC0>
<0xC1>
<0xC2>
<0xC3>
<0xC4>
<0xC5>
<0xC6>
<0xC7>
<0xC8>
<0xC9>
<0xCA>
<0xCB>
<0xCC>
<0xCD>
<0xCE>
<0xCF>
<0xD0>
<0xD1>
<0xD2>
<0xD3>
<0xD4>
<0xD5>
<0xD6>
<0xD7>
<0xD8>
<0xD9>
<0xDA>
<0xDB>
<0xDC>
<0xDD>
<0xDE>
<0xDF>
<0xE0>
<0xE1>
<0xE2>
<0xE3>
<0xE4>
<0xE5>
<0xE6>
<0xE7>
<0xE8>
<0xE9>
<0xEA>
<0xEB>
<0xEC>
<0xED>
<0xEE>
<0xEF>
<0xF0>
<0xF1>
<0xF2>
<0xF3>
<0xF4>
<0xF5>
<0xF6>
<0xF7>
<0xF8>
<0xF9>
<0xFA>
<0xFB>
<0xFC>
<0xFD>
<0xFE>
<0xFF>
▁t
he
▁a
in
▁the
▁s
re
▁o
▁w
er
nd
at
ed
on
▁b
ou
▁c
it
is
en
▁f
ing
▁h
▁m
or
es
▁to
an
▁of
▁p
ar
▁and
▁d
al
▁in
as
▁th
▁l
om
ic
ll
▁I
▁he
▁n
le
ion
▁e
▁g
ad
ly
▁be
ot
▁T
ut
st
ve
id
ent
ow
▁re
ac
▁"
im
et
ld
▁on
se
▁was
▁y
▁S
▁that
gh
▁A
ro
ay
▁u
▁st
▁it
ver
ur
ir
▁for
▁you
am
ith
▁wh
▁as
▁H
ri
▁we
▁with
ec
▁The
▁C
▁is
▁M
ce
▁B
▁an
ter
▁his
oo
her
ke
il
ght
▁ha
ch
ation
if
ould
▁at
▁had
▁W
ra
▁her
ill
ol
▁P
."
ge
▁not
pp
ul
ore
us
▁fr
el
em
▁_
▁con
ain
▁sh
ess
th
ers
red
ant
▁se
▁D
▁or
▁su
▁k
▁me
ist
and
▁F
▁from
▁R
▁L
ab
▁ex
ct
ome
▁she
▁ne
op
res
est
▁li
▁(
un
ate
▁r
um
▁G
qu
os
ard
▁sa
▁have
▁by
▁v
ig
▁E
ust
all
▁do
▁N
▁al
ack
▁ch
▁but
▁so
out
▁are
rou
art
▁him
▁J
▁He
ect
▁my
▁ab
▁were
▁this
ap
▁com
▁pro
ity
ive
▁int
▁de
ie
▁whe
▁all
▁they
nt
ight
od
▁out
▁le
▁wor
▁sp
▁j
▁'
▁O
▁up
ak
ast
ort
our
ook
ind
ies
one
,"
ally
ous
ide
ong
▁one
▁would
▁kn
ich
▁said
oc
ment
ood
ag
iv
▁who
ell
▁pl
▁their
ure
ost
ry
▁can
▁them
own
pt
ud
ame
ther
ine
▁man
**
▁cl
very
au
▁go
▁about
ew
ven
ace
▁It
▁been
▁Th
ear
ff
ime
▁into
ake
▁your
▁could
ice
▁no
hed
ep
▁like
ip
▁there
ked
▁In
▁what
act
▁more
hing
ond
?"
▁which
▁un
▁us
are
▁ag
▁ar
▁im
ans
▁did
end
og
▁K
ated
▁when
iz
▁en
ass
▁tr
▁,
sel
ial
▁Y
▁She
ber
pl
ions
▁ro
▁other
▁some
▁over
age
▁if
▁any
ress
per
▁pr
way
av
ence
▁back
▁time
▁dis
ound
ose
ical
able
▁off
▁qu
ary
ance
▁ac
▁tw
ink
▁bl
reat
▁will
itt
▁ad
ite
urn
ire
ick
ble
▁know
uc
▁cont
▁look
▁Ch
▁St
▁than
▁bec
ue
ove
ough
other
ile
▁fl
▁pe
ings
▁sc
ish
ia
ere
oll
ach
▁just
▁U
ved
▁too
ade
ang
..
▁then
▁has
self
▁per
fter
ord
ree
▁comp
ub
▁only
nder
ious
▁res
▁But
▁.
ult
wn
▁sm
▁ri
ater
round
▁get
▁way
▁fe
▁app
▁V
▁down
ered
ull
ory
ru
ations
▁part
int
ign
ks
▁again
▁hand
ian
mer
▁see
irst
hen
ild
▁its
fore
▁how
orm
rough
so
hat
ft
▁our
▁even
▁want
ause
▁And
ens
ople
ife
▁pre
we
ark
led
ount
oy
▁say
▁through
▁two
▁bet
▁now
▁under
les
The
old
▁am
ne
▁**
▁gr
▁day
ition
omet
▁first
▁sl
▁des
ath
ase
ors
ather
uch
ons
▁work
▁people
▁rem
▁po
▁every
▁imp
▁think
▁rec
▁after
ought
▁inc
▁long
▁year
ving
ied
▁also
vel
ward
▁br
##
ng
▁before
▁where
ily
rit
ict
▁–
iff
anc
iss
ob
ual
).
▁att
ise
ents
▁new
ning
.'
▁right
▁te
▁should
),
▁act
ty
▁need
ail
▁They
oth
vers
▁made
ave
▁We
ph
▁don
▁most
▁much
▁rel
ful
oss
▁own
▁head
xt
gg
▁As
▁This
▁ey
▁comm
▁here
ves
pped
▁somet
▁good
ont
▁rep
▁ra
▁make
▁call
ness
igh
▁em
▁turn
▁very
ib
▁ke
▁dec
▁these
ert
▁didn
man
aking
▁ind
▁because
▁thought
▁gl
hes
▁may
amp
▁still
▁You
ittle
▁cons
▁well
air
king
ting
ren
▁exp
▁ph
te
▁around
▁acc
iet
ction
▁never
▁ser
ates
▁cr
▁diff
▁life
▁ear
ss
▁car
ared
▁ob
ms
aw
ower
▁such
▁bel
▁little
▁sec
form
▁sur
▁op
cc
ady
▁co
ating
▁many
thing
▁gu
ouse
ible
▁seem
▁going
▁wom
ened
gan
▁those
▁end
tern
▁An
▁There
ject
ried
▁years
▁being
▁might
▁let
▁ass
ock
▁ent
ween
▁away
enc
▁something
▁str
ee
ange
ool
ody
olog
You
▁tra
get
▁pol
hn
▁take
up
▁pers
▁If
▁got
▁ins
▁wr
▁hel
▁war
ited
▁Un
▁feel
▁come
▁between
▁inv
gin
the
ular
▁set
▁eyes
ner
ubl
▁ev
ism
▁great
ys
▁world
▁real
▁Al
▁*
cept
▁same
▁sy
imes
ix
ier
▁came
ters
▁old
▁bu
ener
▁When
▁ref
▁found
ross
▁che
▁pres
ted
▁another
▁happ
be
pe
▁supp
▁looked
ident
ually
ative
▁min
ank
▁fam
▁Wh
▁sub
▁ret
▁men
▁disc
▁find
▁must
ps
▁while
meric
▁inst
▁mo
▁left
▁few
ling
ways
ince
▁put
ollow
ever
ork
▁Mar
▁asked
▁child
▁fin
▁tal
▁start
▁tell
als
riend
▁For
ities
az
ah
ined
▁inter
▁took
▁room
▁Fr
ific
▁cle
▁cour
iew
▁point
▁does
ret
ched
▁word
▁reg
▁face
ient
▁both
▁help
less
▁each
▁place
▁unt
land
▁went
▁sk
und
▁|
▁against
sh
▁Re
its
▁sim
ics
▁differe
▁beh
ned
▁told
▁bo
▁Americ
▁add
here
uck
▁use
pect
uring
ized
▁dist
att
elt
▁last
uth
▁Ar
ational
▁##
▁three
atch
ense
▁pass
▁Jo
▁cor
▁knew
▁far
ished
med
▁follow
▁mar
▁sw
ows
▁small
du
▁night
▁el
der
▁play
ures
ale
▁hum
▁met
▁ter
ins
▁without
▁New
...
▁That
▁conf
▁things
rib
▁ed
▁On
ten
cl
▁always
ility
▁person
▁himself
▁At
!"
▁cent
▁def
▁until
▁eff
▁friend
▁light
▁mon
ments
▁mom
ience
ution
▁His
▁home
▁trans
ple
▁book
▁fact
▁hard
ember
▁door
ric
.,
▁belie
,'
▁used
▁So
ene
▁high
▁rest
▁side
▁stud
ines
▁wal
▁poss
▁lar
▁char
▁read
ists
▁ide
▁expl
▁cre
ention
▁soc
outh
▁water
akes
▁house
inc
▁Sh
▁though
oice
▁ext
osed
ised
▁count
▁enough
orn
ably
ger
▁giv
▁try
▁mind
_.
ern
oun
row
▁spe
▁wa
▁gra
ertain
▁cap
▁saw
ike
▁exper
ton
▁keep
▁felt
▁turned
▁bre
iness
▁det
▁ele
ased
▁care
ason
▁vis
▁called
▁spec
▁thing
▁publ
▁underst
uss
▁What
ts
▁open
ash
dd
ute
▁sign
▁run
▁stand
▁gener
▁mat
▁mod
ired
ets
▁num
▁form
aps
▁dra
ram
It
▁nothing
pr
▁really
▁cur
io
▁inf
ug
▁later
▁different
most
to
▁bus
ically
ained
▁next
▁quest
▁toward
▁once
▁power
ote
▁dire
▁coll
▁dep
ars
▁incl
ged
irl
▁lead
ature
▁Com
?'
alf
any
▁ever
▁Be
▁young
▁wanted
▁show
▁kind
What
▁stre
ants
ax
br
▁How
▁sure
ately
ield
▁hands
▁wasn
ural
day
▁love
▁body
ivers
ither
▁pat
▁mean
stem
▁Mr
ury
▁art
▁Her
▁moment
oot
ize
ane
▁second
▁mother
▁better
ering
▁Le
▁wind
▁God
▁Then
cess
▁father
▁loc
ages
▁dri
▁contin
aring
▁comple
▁woman
com
▁less
ided
▁Cl
▁best
▁course
▁mor
ues
▁Is
▁sch
ully
▁black
velop
▁anything
▁import
▁since
▁ste
ices
vern
side
▁No
▁includ
▁air
▁seemed
▁return
erest
ott
ection
ung
▁My
cent
▁med
ces
▁All
▁dem
▁John
ially
▁behind
▁name
▁family
rist
▁prov
▁near
▁along
rew
▁col
▁lo
idd
▁move
▁pain
sw
▁days
ured
▁why
my
▁mem
app
ready
ck
arch
▁sound
▁adv
augh
▁partic
hip
son
▁Sp
ird
▁give
▁seen
con
oney
▁sn
▁fore
used
._
▁hist
▁large
ently
▁Se
▁dark
ames
▁almost
ying
▁To
▁pur
▁mil
▁[
▁De
▁eas
▁occ
▁system
▁across
▁past
▁es
▁sat
▁often
▁big
▁hop
ract
gether
▁together
▁already
ann
▁hour
▁resp
▁four
▁understand
aken
▁land
▁began
▁girl
▁tri
▁appro
ced
▁—
▁front
ream
hy
▁voice
▁women
▁done
▁human
▁del
▁Z
▁leg
▁York
ruct
▁half
▁polit
ital
ley
▁pri
▁wee
▁One
▁dr
ER
▁kill
▁during
▁interest
▁Ind
▁bro
▁certain
▁val
▁says
▁sil
arent
oke
▁red
▁clear
▁heart
▁tre
alth
utes
reen
▁others
ex
ians
▁heard
▁least
ides
We
▁words
orth
▁else
me
▁proble
▁hold
▁lear
by
arl
▁white
▁pos
▁opp
gy
erv
▁mus
elf
aj
▁grou
right
ery
▁bed
▁sit
▁American
▁Eng
▁Sc
▁Br
▁yet
ison
▁Q
selves
▁children
▁pull
▁couldn
ology
haps
▁plan
▁close
oon
▁gave
rol
▁direct
aced
uff
▁develop
ots
▁const
ining
▁nec
▁cond
▁case
▁list
▁answ
ives
apter
▁Bl
ains
ior
▁deep
bers
not
▁become
irc
▁whole
▁boy
ov
▁Ger
ressed
ision
▁Or
ued
▁With
iting
enty
▁looking
ected
▁build
▁Con
ached
▁produ
ats
▁school
▁After
nce
▁prot
ina
▁fun
▁important
▁bar
__
enn
▁ple
▁requ
iety
▁Not
▁sle
▁inform
▁Christ
ef
ider
aut
▁death
ral
ards
▁main
▁var
▁aff
ump
▁effect
▁rather
ories
▁doing
▁aw
mb
▁av
▁view
▁par
▁meet
▁public
▁writ
▁commun
▁prom
He
▁dro
▁full
▁begin
aces
oor
iver
▁wond
bed
▁top
aster
▁govern
▁number
No
ush
▁short
▁ground
▁sing
▁conc
▁having
▁wall
atic
iversity
▁sent
▁early
▁stra
▁times
▁quick
▁sense
▁making
▁process
ead
though
▁someone
iam
▁within
▁money
▁everything
▁ty
▁sal
▁fall
arr
raph
▁order
▁question
▁upon
arm
sy
▁class
▁pract
▁bit
eg
ony
▁Pr
▁food
ample
ler
min
▁month
▁business
▁idea
▁reason
▁Pro
ik
Th
▁soon
▁equ
▁bra
▁stay
sc
lect
que
▁state
ister
▁taken
▁given
▁law
uro
▁prof
aim
▁blood
▁Tr
ality
els
▁feet
▁May
umb
iled
ising
ape
▁line
▁Ph
▁among
iously
▁able
▁cou
eth
view
▁pop
ization
▁social
duc
▁particular
▁cut
▁free
▁became
aid
▁result
ional
ored
irt
ron
ended
▁present
▁story
▁held
▁prob
▁lot
▁self
▁dead
owed
▁known
▁started
▁trying
▁Brit
over
▁serv
▁offic
▁minutes
▁est
▁organ
▁ve
uthor
▁Ad
read
▁grow
▁chang
▁hair
▁desc
▁city
▁breat
▁circ
olution
▁Will
▁possible
▁stood
▁fire
▁bas
▁sever
▁change
ances
▁believe
aper
ww
empt
▁country
▁matter
▁miss
▁mark
lish
ening
▁inside
rought
▁prog
ement
▁cult
eng
bs
▁myself
▁table
echn
▁dou
iter
And
ech
▁bad
ression
itions
head
▁ca
of
▁morning
▁tried
▁itself
▁arm
,_
use
▁several
where
ivid
reed
pping
▁quite
iec
▁either
fully
▁gone
ears
▁fil
oint
ator
--
▁support
▁swe
▁hear
ok
ded
ones
▁squ
ude
▁hor
▁example
▁succ
▁watch
That
vent
▁Ro
▁By
▁fig
▁ill
itting
▁step
▁Some
▁herself
▁talk
▁report
conom
▁Pl
▁low
fort
tain
ogn
▁mag
▁themselves
▁leave
co
ium
ggest
acy
▁fur
▁fell
ency
▁incre
▁ap
ograph
IN
▁brought
▁charac
▁coming
▁suggest
idence
▁Now
ondon
ived
opped
pec
▁however
▁repl
overed
ole
undred
▁strong
ination
ief
▁five
▁fing
▁imag
▁prop
▁means
▁arri
na
por
▁outside
▁lay
▁true
▁won
par
▁needed
▁job
▁trad
▁sun
▁University
▁Ge
ries
une
▁success
▁War
▁hot
▁#
▁El
▁Har
▁pay
▁stop
▁nod
ases
▁sum
idge
fe
room
ply
airs
▁six
▁group
aught
▁relations
▁political
▁lost
ified
▁bring
▁ori
▁live
aving
▁German
▁getting
▁working
▁author
▁slow
ption
ster
▁ask
▁ant
ids
▁above
▁information
ata
▁probably
▁pot
▁control
▁government
itive
▁bene
▁friends
▁tou
▁complete
ration
▁entire
▁oper
▁history
▁dev
But
▁doesn
ajor
wh
aves
▁level
▁kept
▁lim
ey
oes
▁Ed
▁hundred
▁ident
▁tem
▁Car
▁eng
▁town
ches
▁mot
▁object
▁attack
aged
bert
▁post
▁stat
ring
ney
ences
oud
▁longer
▁These
ges
icult
▁alone
▁Comm
ips
▁whether
body
rench
▁surpr
▁mouth
▁arg
▁living
urch
▁remember
▁hours
▁news
ilt
▁son
▁abs
▁deal
▁Ex
ividual
▁techn
HE
▁break
let
▁floor
▁sol
▁test
urope
▁rece
icked
for
▁design
▁happened
▁experience
▁sleep
▁suff
▁late
▁fill
▁fight
ift
▁taking
▁wife
▁hur
▁cal
▁wouldn
▁problem
dden
▁brother
ables
▁pret
▁thinking
val
▁road
▁camp
',
▁creat
▁press
iddle
line
ze
▁ir
▁using
ulation
eared
▁moved
▁Per
bo
▁ten
angu
▁phys
eed
▁div
ON
▁Em
▁sex
▁Press
▁record
ili
▁speak
▁proper
▁beaut
pecially
Yes
amed
▁Wor
▁Ab
▁nat
▁econom
▁dest
▁sudden
pper
▁piec
ald
▁invol
ror
medi
ental
▁Even
▁perhaps
iding
▁Europe
ential
ging
▁difficult
anger
▁individual
▁sold
▁rese
▁cup
istic
▁adm
ledge
oose
▁fail
ological
osp
asp
▁walked
aul
▁eye
▁ord
▁Am
erm
udd
yn
▁obs
▁exist
▁ran
▁origin
▁vol
▁lab
ousand
▁common
ploy
ushed
▁sort
▁invest
▁makes
▁twenty
▁following
▁spir
▁bur
▁perf
▁subject
▁iss
like
▁enc
aughter
▁soft
ai
▁anyone
▁mess
resent
af
sych
▁field
▁crit
▁cross
▁Gr
▁sens
▁discuss
▁London
▁whose
iod
▁arms
unt
pri
▁hadn
▁forward
oci
ming
▁necess
▁parent
▁wood
▁conn
▁age
▁mill
▁position
rugg
▁wrong
▁win
rent
iol
▁infl
▁perform
isk
▁heav
▁foot
▁cold
▁simply
▁actually
het
▁feeling
▁reached
ourn
▁conv
ilar
attle
▁priv
▁bott
light
▁cannot
▁character
▁months
anced
unch
▁stri
▁Tw
uation
▁Mc
▁bri
▁Sch
▁Chapter
rap
erc
▁United
▁account
▁claim
ny
▁quickly
oul
asure
cle
▁wrote
itted
▁Dav
▁anim
aff
▁doub
▁Man
▁clos
resh
▁fut
'.
▁French
▁thousand
ev
▁accept
▁general
▁meant
▁single
eter
▁recogn
▁British
itary
▁rad
▁Pe
▁opened
▁jo
▁major
▁pulled
▁health
▁command
ma
cious
▁activ
▁wat
—"
▁###
atter
▁everyone
yond
▁Just
▁elect
▁Bar
▁Geor
fer
uly
▁shall
ocr
▁round
▁English
▁including
ES
ication
▁cook
▁followed
lled
ops
▁mur
AR
▁space
port
▁glass
▁hope
▁nature
hel
▁States
itc
▁consider
ively
▁dream
▁drink
tt
▁team
▁saying
lex
▁attention
▁stopped
ese
ishing
▁finally
▁company
▁answer
itch
▁fear
▁immedi
▁Col
▁gun
iced
▁aut
▁phot
ha
▁truth
▁seems
ingly
▁draw
▁office
▁local
▁fav
▁er
▁super
▁especially
▁exc
▁eight
▁Can
band
ibility
▁today
▁ann
ument
▁relationship
▁pict
▁week
▁area
ashing
▁treat
▁cra
▁led
EN
Oh
▁comb
atever
iling
ox
ability
▁Qu
▁non
ky
ipped
▁text
▁fa
▁appear
irty
oph
▁langu
▁fine
AN
ius
▁Af
reet
▁rev
▁Don
▁ago
▁window
▁quiet
▁paper
▁period
isc
kn
▁attempt
▁trou
ett
antly
▁special
▁exact
▁further
▁music
ission
▁secret
ume
How
OR
▁ready
▁worked
itten
▁>
lin
▁Jack
▁sometimes
▁force
aur
work
ending
▁earl
ises
▁sett
aterial
▁dog
▁Fl
▁port
▁event
artment
▁foc
▁building
▁Every
▁Do
▁future
men
▁dam
▁et
▁hon
▁continued
▁century
ken
▁breath
ule
▁King
AT
▁talking
▁sus
▁mass
.)
ham
▁comes
▁coun
uct
joy
▁fif
▁From
iers
ecause
gar
▁Ne
ivil
ray
aly
ills
▁nodded
▁percent
▁sour
▁smile
▁straight
▁whom
▁Par
▁ce
▁cost
ask
vious
▁Gu
▁passed
▁lif
▁relig
▁perfect
irm
een
▁gen
ires
iny
▁program
▁decided
▁yourself
▁THE
aching
ilos
itional
▁project
▁except
▁onto
▁America
▁beyond
uge
▁effort
rop
but
▁ener
▁disapp
▁respect
▁esc
▁detail
▁hus
▁skin
▁represent
▁hy
rying
lo
▁isn
▁mount
ously
ique
▁ways
▁visit
hers
iful
▁wide
Well
erence
▁phone
▁cover
usion
▁William
eb
isp
▁Jew
ades
▁compl
▁rele
▁personal
urs
▁expect
▁typ
ctor
▁bab
▁oil
▁neg
▁easy
▁walk
▁prep
ara
▁intell
▁product
ford
▁market
oid
▁grand
▁cell
add
▁describ
▁died
▁parents
▁jud
▁members
▁clim
▁dom
▁blue
▁Mrs
▁running
▁box
▁liter
▁material
▁Inst
▁Pol
ording
aining
ients
If
hern
▁enjoy
▁instead
▁ess
owing
▁z
rel
▁Me
▁World
▁husband
iction
▁returned
action
▁viol
uit
▁respons
▁ur
▁emot
▁natural
▁la
▁wonder
▁lives
▁However
bor
▁See
▁appl
▁likely
icy
duced
ournal
▁princ
▁ang
de
In
▁waiting
rom
go
▁Paul
ustom
gr
:**
urity
hood
▁gold
▁becom
▁pan
enth
▁spirit
▁chance
▁green
▁Dr
ays
▁accom
▁standing
▁couple
▁Cal
▁imm
hod
▁Rep
▁burn
▁similar
rand
▁mis
▁hig
zz
▁eat
▁middle
▁da
izing
isted
So
oman
▁fre
▁di
aint
▁maybe
face
▁Why
▁;
ope
▁warm
▁ship
▁bes
rest
▁shot
▁party
▁modern
▁convers
reg
▁demand
▁fresh
▁caught
▁exam
St
erson
see
▁slight
▁struct
ceed
▁influ
▁employ
▁While
▁norm
▁suddenly
▁usually
▁intern
▁path
▁surv
▁closed
▁profess
acing
▁hit
▁although
▁estab
▁knowledge
▁letter
sequ
yle
▁pack
▁psych
▁tend
▁police
▁sea
▁Sm
lling
▁threat
▁emer
imin
▁send
▁street
▁clot
▁gri
▁books
▁behav
▁ver
▁appeared
▁king
▁vers
ana
▁und
▁simple
▁pick
orry
▁env
▁study
▁unc
):
▁mid
▁smiled
▁X
▁language
▁Sec
▁action
▁crow
ript
▁game
▁shook
▁earth
▁touch
▁David
▁killed
▁Ag
▁poor
▁Russ
ortun
▁pretty
▁ones
▁earlier
▁military
yl
▁questions
unk
▁writing
▁Mor
▁heat
ify
▁works
anks
▁third
▁James
▁sitting
mon
This
kay
▁mist
▁fast
inct
▁data
▁added
aled
They
▁happy
Why
ites
off
▁chair
▁value
itor
▁spent
▁clean
▁danger
amb
ators
She
▁Lord
▁Im
str
bing
▁Afric
▁exactly
rely
dom
idered
▁energy
▁Char
▁specific
asc
ager
▁tot
▁contr
There
▁Rich
erve
▁George
Ch
▁South
▁spoke
rect
▁weeks
▁situation
▁key
▁figure
▁written
▁Cor
▁bow
▁separ
▁worth
▁nearly
Not
bit
▁Let
▁mention
▁vill
well
▁lived
▁Dec
itchen
▁vict
▁rul
____
aded
uted
▁beginning
▁cop
▁regard
▁pal
ublic
inn
▁Sam
▁avail
▁thr
▁watched
▁histor
▁ball
emy
▁role
iber
▁slowly
▁trust
owers
rif
▁reve
▁####
▁national
▁fingers
▁En
▁West
▁Hen
aven
▁Jan
iron
chie
▁bag
▁purp
▁II
▁Res
reme
fl
▁cat
ees
▁doubt
pite
▁Des
▁tele
▁moving
▁yell
gel
!'
▁wait
▁arrived
▁daughter
▁terms
▁evidence
AP
irth
▁beautiful
▁har
itude
▁signific
that
▁learn
ship
che
▁immediately
▁heavy
▁society
▁Gl
▁Je
▁concept
ruction
erved
▁occas
arily
▁mach
▁intro
▁shoulder
rec
▁needs
alt
gged
▁Your
▁fund
▁lean
▁anc
▁meeting
▁North
.**
▁method
▁nor
▁sight
▁indust
▁mult
▁god
aked
▁ign
▁Sim
estern
▁laugh
▁service
▁aud
▁emb
oura
▁Soc
▁looks
▁raised
apan
▁thick
▁fem
aries
▁hall
orrow
▁princip
▁cause
AL
▁movement
▁educ
▁associ
▁bare
▁Aug
inner
▁problems
▁cast
▁prim
▁considered
pro
▁tast
▁towards
▁safe
▁evening
▁empt
▁whatever
▁fair
inet
▁below
iment
▁streng
▁pred
▁pp
New
bl
▁Cent
▁House
▁aware
riage
inary
ensive
rupt
▁kitchen
▁court
▁capital
▁Tom
▁wild
lying
▁tight
ani
astic
▁necessary
▁determ
ival
▁learned
rug
acks
▁den
▁Part
ae
eder
ander
wise
▁completely
▁Thom
▁meaning
icated
▁arch
▁hom
▁Miss
▁practice
▁England
▁various
▁Although
Don
ael
▁oppos
▁bal
▁forg
▁takes
▁yes
how
iles
▁risk
▁impro
▁leaving
▁fat
ode
▁knows
ibly
▁experi
▁philos
▁deb
▁research
omen
oe
Wh
▁strugg
▁benef
iant
▁changed
ateg
teen
▁certainly
TER
▁comfort
rey
▁Of
▁repe
▁battle
▁Med
▁guess
▁Go
▁First
▁development
▁access
▁based
▁civil
ama
▁More
▁Japan
▁Cap
oted
▁US
▁function
▁final
▁inn
pir
aling
▁private
▁ble
▁net
▁available
▁Mary
▁log
▁film
aug
▁happen
▁extra
▁Like
▁trees
▁die
▁Once
▁chall
▁shar
zy
▁prec
▁custom
IS
oly
▁piece
My
▁Hist
▁miles
alled
▁amount
▁dress
▁realized
▁brain
▁reading
come
apers
▁store
icle
▁opportun
▁Jes
▁peace
alys
▁chest
▁neigh
▁north
▁Sy
▁gaz
▁rock
roy
▁af
eds
▁Fin
▁edge
▁hang
▁summer
▁prison
▁allowed
ashington
▁neck
▁spot
▁current
▁write
uses
▁init
mat
▁drive
ocked
▁travel
ek
isf
urg
▁lower
▁former
itation
ests
▁tro
▁Aust
ilities
ii
▁remained
▁giving
▁baby
epend
▁coff
▁Cr
▁search
▁sister
uel
▁offer
▁August
▁achie
▁wish
▁supposed
▁weight
▁army
//
▁holding
▁sky
imate
rag
▁spread
▁physical
▁filled
▁shout
▁built
▁gard
ols
▁shut
Do
▁ut
ification
ING
▁arr
eneral
▁Here
▁Pres
oved
▁community
alk
▁carried
▁protect
▁Most
▁stuff
itution
▁leaders
Is
▁replied
▁goes
▁theory
▁Mich
);
▁occur
▁lines
▁watching
▁particularly
emb
igure
▁brief
▁Ber
▁Frank
▁image
▁loved
▁create
▁soul
▁corner
▁disp
▁million
ext
ixt
▁expression
▁hell
▁novel
RE
▁popular
ground
▁kiss
▁lips
▁Co
▁plant
▁bright
ashed
▁places
▁model
OU
▁Well
ague
▁decl
▁legs
asing
▁believed
▁bi
agement
onse
▁guy
▁colle
▁thus
▁compan
▁sweet
▁color
▁direction
▁church
▁Comp
▁involved
▁Two
amer
▁tar
▁strange
▁lack
eness
ancy
▁culture
▁concl
▁Cont
ixed
▁broad
▁provide
▁compet
▁Somet
▁reach
ille
wood
▁Alex
▁capt
▁Ir
▁students
▁Maybe
▁host
▁easily
▁center
▁horse
▁favor
▁expected
▁song
just
▁girls
enced
▁offered
▁sym
more
▁Other
▁choice
▁received
uary
▁showed
▁shad
▁clearly
uk
▁smell
▁approach
▁nice
▁remind
▁Yet
▁type
iqu
▁Ste
▁Their
ils
▁beside
▁thirty
▁fle
▁complex
▁Pat
▁National
▁ep
raid
▁memory
iving
▁doc
▁huge
viously
▁south
ino
lt
://
zen
▁stories
▁fort
▁smo
▁mut
▁hung
▁stone
▁buy
▁share
IC
▁Bill
▁serious
ironment
▁distance
▁Because
iation
ounds
▁cool
▁ahead
▁pen
▁allow
▁Sw
▁trouble
iliar
▁chapter
▁picture
▁rout
▁weap
▁band
AS
rated
▁rose
▁economic
IT
▁crowd
▁river
▁Christian
ems
▁Henry
▁tree
lement
▁reflect
▁perm
▁Black
▁Robert
play
hered
arrow
ension
▁played
▁indeed
▁weak
▁events
▁sand
▁higher
▁described
▁Street
▁loss
icient
bid
▁dry
ams
▁tax
▁interview
▁stick
ength
▁tables
ales
▁Su
icate
▁steps
▁sorry
▁walls
▁created
aped
▁focus
▁Lou
ooks
▁rights
▁strength
▁Ear
▁telling
▁kids
▁stared
▁Ben
▁surface
▁Acc
▁pattern
ners
▁Coll
▁thro
▁comput
▁empty
ball
▁Mon
▁seeing
aughed
▁gent
▁ideas
▁silence
▁bird
▁covered
▁wine
▁Mac
▁mir
▁scient
▁defin
wor
▁van
▁laughed
▁therefore
▁parts
ien
▁size
▁Mart
▁base
▁opt
▁France
ipp
▁hurt
▁counter
▁decision
▁demon
antic
▁bottom
▁board
eah
oring
utions
▁thoughts
▁response
▁June
▁birth
▁official
▁brown
▁picked
▁stage
apped
▁broken
ospital
aches
oses
▁contact
▁presence
omm
alysis
▁hun
▁deg
▁Washington
▁conversation
▁dig
▁playing
▁understanding
▁cry
▁assum
eal
set
▁star
▁groups
▁feat
▁afraid
ulated
▁frequ
▁surround
key
▁published
▁pointed
olute
▁Oct
cend
▁president
uce
pril
▁bod
▁concern
year
▁hous
noon
▁original
▁cit
▁firm
▁note
mar
▁series
▁White
▁dinner
▁stepped
rog
▁cand
reek
▁imposs
▁Richard
▁faith
ading
▁App
▁forces
▁collect
▁check
▁born
▁purpose
▁CH
▁coffee
reedom
▁Pal
▁Luc
▁station
▁Peter
▁concer
▁Sept
▁changes
▁wit
▁dropped
▁Ant
▁stret
sp
atives
▁master
▁fac
▁La
arc
▁cred
▁finished
▁required
omb
▁seven
▁egg
▁directly
▁dise
▁cab
▁reality
▁subst
▁Val
▁Intern
▁scene
▁agreed
atory
ples
uments
ada
eenth
▁beneath
▁clothes
▁Ser
▁none
▁attract
ped
▁understood
▁regular
▁guard
▁pock
▁acqu
..."
▁walking
▁rub
rael
▁Thomas
apt
▁pray
▁impl
▁July
▁respond
▁leaves
ching
▁boys
pre
ications
▁married
▁quar
▁helped
ivity
▁Great
▁Int
▁General
▁powerful
oles
▁soldiers
inese
▁grab
▁catch
uke
▁Mag
ston
asons
▁cases
▁Che
▁Many
▁salt
what
▁named
▁sac
▁bell
▁thin
▁satisf
▁seat
idden
▁enemy
▁March
ris
olly
▁placed
▁pun
nces
▁older
▁exec
▁fish
▁turning
ours
▁ice
ober
▁closer
▁Charles
▁scream
duction
ights
▁slightly
etic
oyal
▁greater
▁bound
▁doctor
▁growing
▁mine
▁security
---
ession
▁Paris
▁East
▁engine
▁difference
▁wants
wards
▁jump
ography
hold
▁Our
aign
▁flat
▁paid
hib
rict
▁lie
▁amb
▁transl
▁message
rs
ED
you
▁forced
▁City
▁explained
▁Mark
▁Bro
▁Michael
▁page
▁tow
▁afternoon
vey
istance
▁liked
▁belong
▁address
ari
▁exerc
attered
▁-
ica
ago
ban
▁tall
▁Indian
ocks
rible
▁Min
▁include
olf
▁sick
▁behavior
▁grew
▁pushed
▁virt
▁descri
▁correct
ented
rie
▁rich
olic
▁fit
echan
▁April
▁conditions
▁throughout
▁training
▁temper
▁Jesus
▁remain
▁worse
▁foreign
▁train
▁conscious
▁environment
▁speed
▁apparent
▁Add
▁provided
▁source
▁managed
▁Cam
▁desire
▁mer
▁ancient
▁Chinese
tered
▁term
itz
▁sexual
ls
embered
▁familiar
▁teac
▁staff
▁kid
▁Red
▁investig
order
arian
pan
▁Ma
▁Mus
ims
▁shows
▁forms
▁bill
house
urt
▁Park
▁results
ault
osing
time
sec
uts
pic
esh
raw
▁waited
▁due
▁continue
▁narrow
▁www
▁beat
▁rain
▁island
ttp
▁liber
▁alive
▁shoot
▁noticed
isions
▁People
▁impossible
▁Te
▁wondered
▁desk
▁marriage
ads
▁spl
▁length
▁philosop
▁explain
oned
uous
▁minute
▁points
▁intellig
▁grad
▁Perhaps
pire
▁bank
▁extreme
▁Ke
cell
gu
▁avoid
▁encoura
▁Dep
▁luck
▁uns
▁contrib
▁imagine
▁issue
abor
▁Bo
▁policy
umn
minist
▁unf
▁China
▁occup
▁shown
▁tit
▁Ass
▁mov
▁names
▁according
▁establ
▁drug
▁September
▁sugar
▁doll
▁consum
▁refer
▁remembered
mber
▁destroy
▁answered
▁Mad
▁State
▁Israel
▁Jul
▁normal
aker
ourt
ste
▁excl
ushing
▁wel
▁Art
▁AN
ressive
▁harm
▁stro
▁neither
▁range
▁production
▁snow
atively
▁ability
▁Only
▁religious
▁Kn
▁states
▁Where
▁trade
▁dut
oured
▁Any
▁Ev
▁pa
cy
field
▁Act
▁Another
▁card
oons
look
rab
www
▁financ
▁target
▁shoulders
▁Church
▁farm
▁apart
▁gentle
rate
▁central
▁anx
ounced
ux
▁park
▁section
▁suit
▁save
▁glanced
▁potential
....
▁depend
oms
▁Off
▁forget
▁reb
using
▁whisp
▁Wil
anged
▁gives
▁sir
▁science
cer
▁broke
▁Sl
▁bull
oices
▁gets
▁tiny
uman
An
▁Ann
▁der
▁Phil
▁areas
▁Sir
▁shape
▁served
▁leading
▁letters
▁October
▁throat
AC
sing
▁entirely
▁ring
ipe
rid
gl
kin
▁circum
▁opin
anding
▁throw
▁carefully
acked
▁sharp
obal
▁numbers
▁condition
ION
▁influence
▁Before
▁Americans
▁season
▁animals
▁European
▁spring
▁prevent
▁teeth
lict
▁Nove
▁nation
▁price
▁hospital
▁:
raft
▁population
▁suggested
▁Rec
All
▁purs
bridge
▁pieces
▁odd
▁asking
ores
▁require
gun
▁sides
▁systems
▁independ
vert
▁weren
▁included
kes
ulf
▁developed
▁Who
▁wound
▁knowing
▁structure
berg
gest
▁enter
Let
▁cloud
▁Roman
▁surprised
▁ens
▁screen
▁History
▁nose
▁President
essed
ections
▁Since
▁San
▁forest
▁ban
board
▁serve
▁total
▁wearing
▁fully
▁garden
▁rate
lebr
▁taste
▁notice
▁haven
▁eventually
▁anyway
▁Instead
resp
▁dram
▁ult
▁Jim
vere
▁opportunity
▁fold
inger
▁village
▁finger
▁poet
ias
▁discovered
▁Tra
▁somewhere
▁print
▁boat
▁January
▁occasion
▁campaign
▁mechan
rian
▁larger
▁Sal
▁machine
▁reported
▁loud
▁particip
ait
▁cy
▁sad
▁exch
ront
▁suc
▁bodies
ios
▁chief
▁Nor
▁bath
aph
ords
▁contro
▁pressure
osition
▁tea
▁Jer
▁hero
▁lose
ulate
▁prepared
▁surprise
ashion
▁previous
▁opening
▁speech
▁freedom
LE
▁colon
inal
▁vision
▁belief
▁transform
illed
▁mad
ding
▁stock
▁resour
▁hardly
ancing
II
▁symb
iot
▁gar
▁animal
with
▁Germany
▁Cong
▁fighting
lection
▁contem
▁entered
▁willing
▁Franc
▁officer
▁rap
▁Charl
▁Oh
itute
pected
aging
▁Pet
▁becomes
▁grin
▁manner
▁prefer
▁absolute
▁worry
▁charge
▁conduct
▁spend
▁carry
▁butter
▁silent
spect
rig
▁content
asts
anch
▁forgot
▁express
▁talked
ka
▁rise
▁consequ
▁Did
▁tour
ament
outhern
▁keeping
viet
▁Rem
▁speaking
▁countries
▁version
▁gaze
▁concent
▁hat
back
▁trip
▁sounds
▁produced
▁feelings
▁Rob
aming
▁activity
ico
ilies
▁stir
▁education
uing
▁Dem
▁property
▁Mat
▁merely
▁winter
▁reasons
▁Cons
▁career
▁contract
▁effects
Sh
iance
▁positive
▁During
▁eth
ini
irgin
▁Ibid
▁Are
▁darkness
ety
▁lady
ares
▁rid
▁issues
APTER
ingu
▁Smith
▁moral
▁feed
▁pure
▁advant
▁performance
▁obl
▁Soviet
▁Law
▁celebr
▁Stud
▁usual
▁chec
▁style
▁aspect
▁labor
know
ourney
org
▁disease
▁meat
▁remains
porary
▁aside
▁site
▁crew
▁veget
▁generally
▁treatment
▁famous
vision
iable
▁tears
▁ju
See
anted
imately
Are
▁quality
▁significant
▁calm
▁gest
▁witness
▁despite
▁November
▁please
▁track
uf
rial
▁restaur
▁citiz
▁addition
▁fellow
rain
▁Mal
▁iron
enge
▁rule
▁drew
▁daily
▁dust
▁High
▁Feb
▁patient
▁newsp
▁fro
▁leaned
▁Western
ula
iverse
▁murder
▁cultural
▁Er
▁media
ibr
When
▁traditional
▁interesting
▁shared
asy
▁December
▁measure
▁repeated
▁male
rage
▁Mil
icken
▁windows
▁rob
▁ton
iring
▁troops
▁conflict
▁learning
▁workers
▁female
▁motion
▁fool
▁pleasure
▁forth
▁fifty
▁obvious
▁narr
▁whispered
▁barely
▁impact
▁bear
mas
▁failed
▁meas
eck
aret
▁Britain
iate
▁ended
▁analysis
under
▁scr
▁growth
▁Count
▁metal
useum
▁dism
▁Ell
OM
inated
elve
uries
▁yellow
cil
▁race
▁concerned
▁interested
▁Pre
▁joined
▁stom
▁computer
▁escape
▁India
▁medical
▁wis
asant
▁suppose
cher
icles
tr
▁comment
▁OF
▁bread
known
▁ourselves
▁task
▁recent
▁lit
▁Que
▁altern
▁Old
night
▁choose
▁ordered
▁display
▁species
uls
▁bowl
▁date
▁Jewish
▁leader
eless
▁Army
▁aren
inking
▁rules
▁member
▁lifted
▁details
▁pair
▁pocket
hens
pret
bled
hetic
xford
▁Ol
▁Jud
▁hotel
▁magic
ruary
▁grass
▁Figure
▁officers
ette
▁Japanese
▁diss
▁context
▁x
▁frame
▁levels
▁produce
ena
▁dear
▁select
▁IN
▁calls
▁financial
win
agn
▁review
▁okay
▁instruct
▁ru
▁Sar
▁caused
▁spr
verage
▁Trans
▁dim
▁Still
▁eating
▁established
▁lying
owned
▁camer
▁Thus
▁Times
▁circumst
▁tone
▁double
book
igned
▁becoming
▁lad
▁highly
▁Rev
ki
aved
▁wealth
▁doors
▁Ham
▁smoke
ails
▁dangerous
duce
▁inj
Where
▁revolution
▁studies
iest
▁shop
ipl
▁appears
do
Yeah
▁join
▁glad
▁Hel
ught
▁Bel
Who
▁legal
▁existence
▁west
▁radio
▁administ
▁Calif
icit
ederal
▁Sat
▁magn
▁forty
▁audience
▁basic
▁Good
▁Mont
ender
▁aband
▁truly
▁Ac
▁Del
▁tablesp
▁listen
▁ge
▁gro
▁streets
▁sell
▁successful
▁opposite
▁Jose
?_
▁roll
▁)
▁politics
unn
▁drop
▁laid
▁Step
▁stayed
ested
▁mentioned
▁club
▁agree
▁Austral
▁authority
▁ninet
▁Commun
which
EL
▁rough
▁industry
osen
▁flo
▁milk
IL
▁Reg
▁contain
nds
icro
▁notes
lease
▁Ken
pet
▁hoped
▁Though
▁silver
orts
▁heads
▁tradition
itely
ighed
▁Over
▁angry
▁increase
▁adult
May
▁Wal
▁wed
▁Earth
▁journey
orthern
ware
▁saf
▁distinct
▁Was
▁mission
lam
icago
hand
▁features
▁noted
lear
▁starting
▁wore
▁Vict
▁lights
▁determined
▁pet
▁tired
▁match
▁blind
can
ij
phas
ville
▁achieve
den
▁apprec
uded
▁struck
▁Finally
▁useful
▁Ter
▁River
▁tong
▁critic
▁Ital
▁somehow
▁fol
anda
▁block
oop
▁Both
orses
▁houses
five
▁organization
▁associated
ornia
met
▁blank
fast
▁Yes
▁sen
▁calling
ato
▁scar
▁shif
▁turns
▁ing
▁Louis
▁imper
▁actual
▁desper
icks
▁Life
Did
hem
▁Mill
▁standard
":
▁February
▁Bob
ctions
▁reduc
▁apartment
zed
▁appropri
▁mob
▁medium
▁otherwise
▁Green
▁intellect
▁hide
▁drove
Then
▁violence
▁instance
▁anger
▁families
ugg
▁shel
▁guys
▁id
▁grown
▁distrib
uzz
ulations
za
▁setting
▁Russian
▁mel
▁prior
▁_"
▁putting
▁demonstr
itect
yr
▁Lady
▁produc
mond
▁progress
▁recomm
▁CHAPTER
▁international
▁faces
▁map
▁patients
▁wet
▁Mex
▁cried
▁plans
opping
umbled
▁conce
respond
▁smooth
▁individuals
▁neighbor
▁moon
▁cas
▁Out
▁staring
▁services
▁gray
▁finding
ocol
▁status
▁Republic
▁basis
▁qual
▁Union
▁mix
ception
▁spect
ittee
▁seconds
mit
▁Greek
▁Bur
As
▁cream
roud
▁bought
tering
▁rooms
▁wra
la
▁joy
onn
▁schol
aval
▁Joe
gn
▁adop
ca
▁aim
oken
▁stup
▁actions
▁California
gypt
▁Grand
▁Brown
▁i
▁thank
▁stomach
enny
▁stress
ht
ternal
▁democr
▁historical
▁pressed
▁sounded
▁teasp
▁connection
▁tom
▁lunch
▁paint
war
▁square
▁Congress
▁photograph
▁Africa
▁African
▁companies
cing
ucking
▁integ
▁images
▁Mel
▁consist
▁hes
▁rolled
▁worried
semb
▁gas
▁anti
ipping
▁professional
wo
▁laws
▁values
IG
▁mountain
otic
ether
ym
▁knees
▁rapid
▁knife
▁fruit
▁entr
hest
▁moments
osh
vis
▁calc
orted
▁Mod
▁happens
▁Const
▁Captain
▁drawn
agon
leep
▁nerv
▁argument
rill
▁precise
▁cru
oom
▁ren
▁mort
▁Conf
▁east
▁Father
▁contrast
▁Court
▁gather
▁Bet
▁pin
▁terror
▁solid
olt
▁–,
▁storm
▁convinc
▁types
▁mental
▁dressed
▁elements
▁gently
▁smaller
▁journal
▁pil
▁Under
▁Max
elling
isters
▁thousands
▁stairs
For
vest
▁settled
▁exercise
Now
▁pale
illy
▁threw
▁unless
iated
▁Gold
▁related
anny
▁purch
▁remark
▁trail
▁mostly
izes
ita
▁Jews
US
▁Each
no
▁realize
▁/
mod
▁vast
▁ears
▁region
▁tor
imp
▁opinion
host
▁activities
▁separate
▁Hall
▁formed
abeth
▁maintain
▁Lee
▁designed
▁Eliz
▁critical
▁Its
▁busy
▁Those
▁refused
path
▁improve
▁coast
li
eled
ooper
▁promise
▁arrest
▁goal
Good
▁discussion
▁Mo
▁weather
sey
▁management
▁ships
▁religion
▁increased
ocking
▁honest
▁plants
apping
▁quietly
▁shirt
col
▁touched
orter
▁Sometimes
cript
▁alt
▁intended
iple
http
▁doct
rugged
iform
▁Egypt
▁Mer
▁Jac
stein
▁Martin
▁identity
▁efforts
▁roof
▁terrible
▁Port
▁sem
▁relax
▁Cath
▁Island
▁recently
▁tells
▁limited
▁beauty
▁copy
ervation
▁college
▁emphas
ker
▁Rel
▁sauce
▁degree
AM
alog
athered
ENT
▁bottle
▁essential
▁hyp
aniel
▁depart
▁greatest
▁twice
▁handle
▁circumstances
▁fal
▁Arch
▁advantage
▁liqu
▁easier
▁Fred
▁dial
gment
▁cig
▁flour
▁horses
▁perspect
Just
▁plate
▁bedroom
▁student
aine
▁global
▁recognized
▁circle
equ
▁suppl
kins
ET
▁nine
▁deeply
▁possibility
▁Three
▁careful
▁grabbed
▁matters
▁cro
▁flesh
▁wid
▁loose
uten
urally
▁accepted
▁chem
▁balance
inked
▁writer
▁carrying
▁react
▁crossed
▁missing
verse
fortun
▁link
usted
▁Tur
▁coat
▁taught
▁removed
she
olid
▁appearance
▁Mount
acle
▁relief
▁passage
▁headed
▁Society
▁younger
mans
▁Joseph
bon
▁hill
▁Mom
isher
▁autom
▁importance
▁possibly
▁veh
ID
▁orders
▁products
▁acknow
▁Ob
acity
▁amaz
hab
▁rail
vant
▁Francis
▁Da
▁hidden
▁Hill
▁AND
▁affect
OT
▁wear
▁upper
▁wave
▁commer
▁listening
▁ride
▁Bra
▁Dou
▁fifteen
▁Look
▁effective
▁resources
▁spiritual
▁Social
▁worst
ache
ero
▁twelve
▁fly
han
while
▁Dan
▁noise
▁latter
gen
▁Sil
▁drag
▁libr
ointed
▁falling
friend
▁Victor
▁remaining
▁McC
▁plain
▁stuck
icip
▁tur
Of
▁Tod
▁youth
ora
▁flight
▁unlike
▁Mur
▁document
ffic
▁technology
▁sword
cho
nes
▁interpret
part
ronic
▁illust
▁rising
ucked
▁shouted
▁weapons
▁tomorrow
▁Scott
▁fashion
va
▁."
▁objects
▁bridge
▁pool
▁shadow
▁evil
▁judge
Can
stairs
▁burst
▁perfectly
▁tim
▁reject
▁credit
▁explan
vention
rence
▁Jeff
▁univers
olved
▁background
▁network
azine
henomen
▁statement
istics
▁shrugged
▁Chicago
alle
▁passion
och
▁Such
▁Second
▁intelligence
▁stupid
ye
AD
▁agre
illa
▁inner
▁proceed
ulous
▁jack
▁Oxford
▁TV
▁Day
itable
▁Sen
eping
amin
▁crime
▁passing
▁gate
▁presented
amber
elled
▁buildings
▁feels
▁movie
▁heaven
▁Carl
▁Dar
alls
Ar
atin
▁fright
hol
put
OL
▁ideal
▁variety
▁teaching
ria
inter
▁responsible
▁drawing
▁apparently
▁economy
▁wooden
▁Ang
▁According
IV
ties
▁rot
isis
▁roc
▁philosophy
▁desert
▁Italian
lor
▁Fre
▁polic
▁emotional
▁experienced
▁Carol
▁habit
avy
cean
ns
▁stars
▁vac
▁Coun
▁struggle
▁wonderful
upp
▁showing
▁fallen
▁arrange
▁unable
▁driving
was
entially
▁Ty
amm
▁safety
aud
▁rum
ifying
▁humans
▁skills
▁claimed
▁establish
▁Rome
▁duty
▁till
down
thur
▁crack
▁attend
▁cities
▁handed
▁beach
▁accompl
▁paused
▁correspond
cr
▁Journal
▁discover
cont
▁Jon
▁file
▁Never
osis
"—
Your
lim
▁excell
▁pages
▁Had
cles
▁driver
▁tonight
aks
▁trave
▁plastic
▁tongue
▁fixed
▁proud
▁defe
▁dogs
nam
▁pictures
van
icted
▁papers
▁collection
▁Inter
▁challenge
▁flav
ya
▁Bell
▁construct
▁Four
▁flowers
▁Dad
▁accident
▁citizens
EC
idents
urance
▁equal
▁architect
:_
▁figures
▁uniform
itated
▁Gre
▁Sun
iques
▁compar
▁rac
▁hole
▁Sund
▁failure
▁Ver
▁pepper
On
▁dance
place
▁observed
▁begun
▁diet
▁literature
▁scen
▁obviously
Al
▁Elizabeth
▁television
overy
▁hearing
▁mood
▁flow
▁Dis
itual
▁forever
pat
▁Str
icine
▁advice
▁territ
born
▁Harry
▁signs
erves
century
▁fields
icking
udes
▁bond
lem
▁prove
▁School
▁delight
▁pra
onscious
pes
onna
---|
▁element
▁scientific
burg
▁Long
▁beer
mes
▁agg
▁favorite
now
▁sav
▁Arab
▁average
ective
▁Edward
based
izations
▁Gra
▁occurred
▁unw
▁sighed
▁consciousness
▁Budd
▁Wood
▁Nothing
▁reaction
▁gall
ulture
▁cells
▁repro
ola
ench
tained
anging
▁views
▁Christmas
▁deter
▁interests
estic
▁gathered
▁transport
▁Pri
▁exha
▁code
▁minor
▁somewhat
ishment
▁thinks
rier
ipment
▁active
phone
ixture
▁Party
▁vide
hus
▁Camp
▁negative
▁push
▁unique
ici
▁happening
▁introduced
▁Cambridge
▁Nat
force
▁fought
emon
▁thanks
▁enorm
▁Mother
ements
▁forgotten
ois
icing
erous
oir
▁cart
▁International
▁partner
▁Far
▁categ
▁cere
▁advance
▁justice
▁ol
▁teacher
▁assist
▁experiences
▁**_
▁ris
▁whis
craft
▁Ly
▁supply
▁Queen
iat
rete
▁fant
▁birds
Ex
▁myst
▁corpor
▁Department
▁hate
▁Virgin
▁toss
▁murd
yer
▁hanging
▁Book
▁promised
▁plat
▁negot
▁suspic
▁title
▁phenomen
▁strateg
▁suffering
▁Fe
▁shoes
▁golden
▁Tre
▁bul
▁sin
▁decide
urd
▁shr
▁lies
▁locked
▁Sur
▁bitter
▁Div
▁trial
▁intellectual
▁quant
earch
mark
wing
▁decades
▁restaurant
▁pill
imum
iveness
________
▁phr
▁nearby
▁succeed
emic
bles
▁myth
omy
▁Johnson
▁slipped
▁ast
▁Sand
▁dozen
▁Despite
▁release
mann
▁furn
▁column
▁proved
rous
usal
▁sought
cial
▁ded
▁trib
▁Bay
▁ought
▁adjust
ros
ivered
▁discussed
▁flying
▁recognize
▁instr
▁Bu
▁extremely
▁Span
▁comfortable
Come
▁planning
ategy
leg
bal
encies
▁Again
▁nut
ran
▁Tim
▁Serv
omin
▁false
▁commit
▁damage
▁disappeared
].
tle
▁location
▁begins
law
▁rat
▁wished
▁transfer
▁TO
▁dad
bour
▁crazy
▁Company
▁dollars
▁studied
▁Fore
▁responsibility
▁truck
To
▁Get
▁agent
▁marked
▁cars
▁receive
▁plane
oston
▁Islam
▁camera
▁guns
▁chicken
▁reports
asingly
▁Govern
▁lat
▁dyn
eling
ufact
▁gift
▁exchange
▁breakfast
▁honor
Be
▁appropriate
▁strategy
igr
▁sacrif
▁breathing
bel
▁swall
▁Princ
looking
ounce
▁Time
▁nervous
▁connected
▁smiling
▁blow
▁ST
▁rom
▁desp
▁equipment
▁Vol
illing
▁tools
▁fab
earing
▁accur
▁domin
▁Air
OS
arrass
isms
olit
▁artist
▁Gar
▁eld
▁uses
inging
▁brothers
▁cheese
▁anywhere
imal
▁Also
▁internal
▁sources
▁Big
▁constant
▁squee
▁everywhere
▁dreams
▁shit
bre
venue
father
▁characters
▁majority
▁bom
▁innoc
▁bringing
▁asks
▁describe
▁released
▁killing
▁kinds
▁plenty
▁solution
ses
▁Tor
▁embr
▁Russia
▁gotten
▁Wall
▁ends
▁tail
▁analy
▁Spanish
▁primary
cast
erences
▁electric
▁cow
zing
Americ
▁missed
▁fault
▁mirror
▁perspective
▁cups
▁reform
▁eggs
▁relationships
▁methods
▁powers
lyn
htm
ourse
▁meal
▁shock
▁mixture
▁nobody
▁Hit
▁oblig
▁burning
▁brand
▁descend
▁chosen
▁ordinary
▁anymore
▁entrance
▁sufficient
▁seek
▁teaspoon
roll
▁drinking
▁frequently
▁Canada
▁uncom
▁operation
icious
▁withd
iner
otes
inch
▁Mem
▁parties
▁provides
▁temperature
▁fasc
▁Land
▁sevent
▁sheet
▁fer
▁Jane
▁pow
▁skill
▁smart
▁dish
▁enjoyed
▁instant
▁cooking
▁Inc
▁Po
ibrary
ida
▁rein
▁rent
▁glance
standing
▁Bre
ums
vin
▁Turn
▁changing
▁IS
term
roup
▁Men
▁emotion
▁creating
▁hundreds
▁Polit
▁limit
▁formal
▁relatively
▁cash
▁sust
▁healthy
▁vent
▁Cast
▁offers
▁captain
▁treated
▁centuries
▁sleeping
▁universe
▁tub
▁Bern
point
akers
▁shift
da
orough
▁approached
umph
▁flash
▁burned
▁height
▁hoping
▁Hol
atically
peror
▁nuc
mother
▁therap
▁weapon
ieties
▁reference
▁confidence
onel
lessly
▁Ray
▁Prof
road
▁generation
▁sales
▁volume
▁protection
OW
▁Democr
▁embarrass
osc
rich
▁focused
tical
▁raise
▁Without
▁wake
▁Books
▁distur
▁mistake
ona
▁Mass
uits
▁landsc
▁director
▁Mic
▁records
▁Sus
▁games
▁indic
▁trick
▁dying
agger
▁gain
▁extent
▁Associ
ector
▁chap
▁insisted
asion
oked
umber
▁route
▁unit
▁surprising
real
utive
▁convinced
▁sou
▁Post
apes
▁Cat
▁editor
▁additional
▁rare
▁pleased
IA
utation
▁massive
▁principle
gent
▁sequ
itched
▁Italy
▁Daniel
▁capable
▁Up
opy
ogether
▁Simon
▁ghost
▁Gen
▁closely
▁listened
▁tick
▁Hu
▁elev
▁Conn
isl
▁unus
▁mountains
class
▁crimin
▁benefit
▁schools
utch
Le
▁Back
▁micro
theless
▁visible
▁Sunday
▁Through
iments
▁shell
▁lock
▁planned
▁pulling
ibilities
aire
▁crisis
▁excellent
▁manage
▁faced
▁announced
essel
▁assess
▁eager
▁sweat
▁initial
▁pound
▁surely
▁operations
▁Rose
▁scale
▁article
▁Spr
▁admit
▁drift
▁newspaper
▁immediate
▁distingu
▁increasingly
▁Publ
▁finish
▁painting
▁frag
▁admitted
ints
▁Indeed
▁planet
▁shouldn
▁entertain
▁victory
▁("
then
▁equally
▁reminded
▁batt
▁intense
▁TH
▁distant
▁warning
▁resistance
eding
▁Viet
▁stands
▁Ros
▁Squ
▁Mir
oln
ogue
▁extended
▁memories
▁practices
ulating
▁Jean
▁persu
▁bent
Okay
▁notion
▁bat
ocolate
yal
▁argued
▁declared
▁Atl
▁merc
▁permission
▁Tem
▁soldier
asted
▁Op
▁Fort
▁compared
▁wheel
▁visual
▁lip
▁swim
▁advent
ella
▁faint
▁enthus
inted
▁frust
▁assemb
▁bone
▁gods
▁situ
fare
▁requires
▁inqu
▁Hitler
▁leather
▁vul
▁earn
▁Council
▁saved
ieth
▁pink
▁soil
▁uncle
▁imagined
▁Something
icial
▁Arthur
▁shaking
agan
▁applied
▁construction
▁absolutely
▁flu
▁defend
▁helping
▁remove
▁online
hr
▁sail
▁voices
▁Sol
▁Irish
▁challeng
▁grasp
▁manif
UR
▁enormous
rick
▁Rom
▁brill
▁strike
▁cheek
▁multiple
▁steel
▁laughing
▁du
▁sees
rad
▁assumed
▁Middle
▁oven
▁secure
gency
▁san
water
inent
▁decor
▁greet
they
▁ec
Maybe
▁movements
▁differences
▁Van
▁bones
▁emotions
▁claims
▁afford
▁decisions
▁wrapped
ih
▁cous
ala
▁seriously
▁capacity
athan
▁Little
▁costs
utenant
▁demanded
▁independent
▁Haw
▁mas
▁manufact
uding
▁commercial
omed
▁Which
ga
▁revealed
▁pregn
▁confront
eks
▁Naz
Re
iana
otion
▁leadership
▁sched
elly
CH
angers
▁Revolution
usive
▁somebody
▁fix
aimed
osure
▁isol
▁attitude
works
▁relation
▁suffered
▁slave
▁explanation
▁bac
bur
▁Mike
▁murm
▁juice
▁Adam
▁Fer
▁Rog
▁por
▁Prot
▁grate
ado
▁Sarah
▁chain
stone
bar
▁Met
hell
▁attrib
▁defined
ege
oh
▁serving
▁literary
▁ske
▁stiff
▁Psych
▁giant
▁benefits
▁instinct
▁bathroom
icians
▁largely
▁depth
outs
ician
▁waste
▁Charlie
▁inev
ket
▁tent
▁traffic
▁Hor
amental
quar
▁Whe
anna
▁perce
▁northern
ican
itors
▁intention
▁joint
▁runs
▁identified
foot
▁follows
▁recon
bb
▁rational
▁destroyed
▁income
riff
mosp
▁priest
▁wire
agers
▁Center
▁Library
▁industrial
▁asleep
!_
▁Jackson
▁Love
incoln
izz
▁Pers
▁yours
▁chose
uster
▁liquid
onents
osm
four
▁grim
▁Ba
▁waves
ensity
▁Ire
▁buried
▁quarter
istry
▁perman
▁suspect
▁prem
▁remar
▁proced
umped
▁unex
▁About
▁suggests
▁communication
anta
▁evolution
▁exhib
igg
▁guide
ograp
▁Marg
▁Prince
▁border
▁Di
▁tort
▁utter
azz
orial
▁spoken
▁courage
▁possess
IR
▁core
▁southern
▁slid
▁incred
▁items
▁connect
▁creature
▁Bab
Thank
▁fate
iences
▁row
▁federal
▁subsequ
▁sixt
▁horiz
▁encoun
▁thorough
ultural
▁behavi
▁regret
▁wedding
▁expressed
▁hers
▁manager
▁grave
ta
▁Child
▁leads
▁mere
▁overw
▁resc
▁flag
▁symbol
▁factors
unction
▁chopped
▁Dor
▁alternative
pired
▁interrupt
▁players
asm
▁cancer
▁Road
▁sake
▁consult
▁practical
▁Ca
▁damn
▁Jones
▁Bas
▁Royal
▁distract
▁grace
▁patterns
▁une
▁classes
▁library
▁reduced
idel
ules
sed
▁instit
▁Ira
▁everybody
ucks
▁vessel
▁Spec
▁driven
▁recall
▁replaced
▁Norm
▁goods
▁readers
▁sympt
▁beings
uine
press
▁highest
▁writers
rees
▁Bes
▁principles
▁intent
▁deck
▁agreement
▁jobs
▁letting
▁Marc
▁chin
],
▁explos
▁tablespoons
ailed
▁acad
▁boss
Go
▁pul
▁mixed
▁rear
▁deliber
▁childhood
oves
▁Today
London
▁Boston
▁flood
▁assert
▁wondering
▁Sum
▁spin
▁Eve
inity
▁climbed
▁corn
▁causes
bec
uable
▁materials
Look
▁atmosp
▁stream
▁facts
▁dismiss
▁je
sell
▁sentence
▁funny
▁ingred
_**
▁description
agues
▁button
▁jumped
▁III
One
icity
▁ritual
hi
▁Tex
▁tender
▁surrounded
▁candid
▁cruc
▁invited
▁contemporary
arlic
▁constantly
▁bomb
▁discip
▁losing
▁combination
mm
▁avo
▁tool
gend
umin
▁emerged
▁fra
ureau
▁experiment
oral
▁minister
▁prospect
lers
▁rhy
▁royal
▁deliver
two
▁craft
▁fired
▁Wind
▁Later
▁request
▁uncertain
▁creation
irect
▁inches
▁identify
▁rice
▁incor
▁faster
▁Lincoln
▁shadows
▁accompan
aws
▁ox
▁ye
▁cock
▁Stan
▁Secret
▁convention
▁household
▁Av
▁fart
▁absor
▁owners
▁committed
▁option
▁facing
▁pounds
▁anxiety
▁Boy
oting
▁Lake
arn
▁stim
▁Wilson
▁Women
▁motiv
iah
▁echo
▁tied
▁Gal
▁reply
▁Andrew
▁recalled
▁Rand
▁rang
▁imagination
▁represented
▁lovely
▁Germans
▁Def
▁terrif
OD
▁woods
▁kissed
▁Dev
▁accounts
enses
▁survive
bell
okes
▁Gard
▁heavily
▁Everyone
▁max
▁expert
▁ment
▁feature
▁radical
▁Mean
▁Catholic
▁offering
▁assume
▁guards
▁Lew
ierce
▁Latin
▁allows
▁excess
▁loyal
▁Fur
American
▁split
▁warri
▁Central
▁involve
aping
▁Virginia
▁impression
hist
▁Den
▁armed
▁twent
▁Star
▁client
▁unknown
▁overwhel
▁precisely
▁clin
ua
▁Review
▁thrown
UT
▁motor
▁welcome
▁teach
itutional
▁via
▁Place
▁spell
▁snapped
▁jacket
▁superior
▁breaking
fortunately
▁Hy
▁Cle
▁helps
emies
▁genuine
▁examples
▁lob
ammed
ishes
▁hated
▁customers
▁defense
▁Nick
▁poetry
At
rim
isting
▁reduce
▁Ha
▁bloody
ilty
▁foods
▁fourth
uate
▁arrival
▁consequences
gger
xual
orical
▁absence
▁Alexander
west
▁consid
urse
▁steady
AY
iar
lands
▁boots
Un
▁metaph
▁Marx
vard
▁plus
ortion
▁orange
▁checked
▁softly
▁Es
▁confident
onic
▁Det
▁minds
▁largest
uan
▁Ange
▁answers
▁numerous
▁Marsh
▁magazine
Ph
▁narrative
▁rif
▁happiness
▁Gab
▁expensive
▁Everything
eral
▁dawn
▁increasing
▁shore
▁cutting
icide
▁Have
essor
▁Research
▁raw
jo
▁Sub
▁flew
▁options
bow
enly
▁centre
▁heading
▁——
▁alco
nat
unte
rical
▁drugs
▁agents
▁bother
▁dece
▁abandoned
▁bigger
▁neighborhood
▁Lar
▁video
▁includes
▁located
▁totally
▁owner
▁theat
▁forehead
terday
ano
▁cards
▁lucky
▁Hot
▁visited
▁Ven
ordin
this
▁breast
▁anticip
▁fan
asty
iped
▁bud
▁aspects
▁wand
▁homes
iven
▁harder
▁Would
NA
▁Ap
▁incom
▁Berlin
▁sending
▁reputation
▁Kore
▁processes
ington
Hey
▁tough
▁deeper
▁gre
IM
▁pride
▁shame
▁performed
▁Tal
ura
▁mal
throp
▁upset
▁predict
ayed
▁Harr
ologies
▁chann
▁curious
▁pref
pass
oma
elle
unning
▁relie
irmed
iations
▁guests
▁marry
▁naked
▁Put
▁Lind
▁etc
arant
▁engaged
ila
▁painted
▁fundamental
▁PR
▁Australia
▁Sea
▁pour
▁Mexico
ointment
▁proof
Or
▁investment
▁rarely
▁jer
▁Young
▁fo
▁gang
▁evident
▁wounded
▁application
eps
▁Ry
▁properly
▁Iraq
▁ensure
▁determine
▁sed
▁dread
▁wings
▁programs
▁Right
▁ocean
▁signed
tha
▁dirt
rors
▁Master
▁Pan
▁Kenned
iano
▁fucking
▁Scot
▁fuck
ige
▁Take
▁honey
▁models
▁incident
▁Use
Bl
html
▁sets
▁officials
rehens
▁fairly
▁referred
▁Museum
▁recommend
▁poem
▁glasses
▁cler
long
▁yards
▁Empire
▁contained
▁aid
▁recorded
sm
▁attacks
onent
▁communities
**.
▁sons
▁regarded
rem
▁teen
▁betray
▁lots
▁native
▁concrete
▁domestic
CE
▁rocks
enger
▁wise
▁techniques
▁Lie
▁combined
▁dynam
▁ceiling
▁platform
▁Cur
gging
▁wisdom
mination
who
▁Hell
▁craw
lar
▁Dick
▁stretched
▁Ori
formation
▁whenever
▁positions
▁badly
▁dried
▁necessarily
▁champ
▁drunk
▁waist
▁cleared
▁ash
▁era
iture
▁estim
▁partners
vy
▁Sk
▁acting
▁Tay
▁apply
▁tomat
▁expand
▁Ash
▁reader
hemat
▁Angel
▁signal
▁adding
▁conference
▁Holly
▁cheer
▁merch
▁Office
▁rig
orders
lan
▁Institute
astern
▁ate
▁friendly
▁ignored
▁Beh
▁seeds
▁tempt
umbling
▁administration
ba
arted
▁conqu
iser
▁Anna
▁Science
dam
char
▁concerns
▁ax
unched
▁decade
▁Hard
▁extract
▁advanced
▁pit
▁cake
▁tact
▁shake
▁estate
▁reaching
▁supported
iral
▁temple
...'
aste
▁garlic
▁Human
▁weeke
▁crying
▁difficulty
▁advert
▁Kennedy
ST
urday
▁goals
▁corrid
▁commander
life
▁widely
zer
▁Est
▁landscape
▁Water
▁slept
▁senior
▁laughter
▁College
▁Kat
▁urban
▁starts
clock
▁relative
▁attached
▁coc
▁blame
▁nineteenth
▁yard
▁photo
Because
▁prompt
▁rapidly
▁tip
▁holds
irts
▁Tri
▁simpl
▁units
isa
duct
▁Ill
▁Stephen
▁pushing
▁election
▁institutions
▁constit
▁violent
uh
▁cheeks
▁buck
▁victim
▁casual
IP
▁fuel
inction
dy
▁considerable
▁Leon
▁Att
▁unh
▁ham
▁recip
▁Econom
▁eval
▁prisoners
addy
▁Way
anches
cel
▁scholar
▁unusual
ologist
▁muscles
▁aircraft
umes
▁Ele
▁definitely
eman
RA
▁script
▁plays
ader
▁acts
▁olive
▁poison
▁Internet
▁lect
▁lift
▁lord
▁trained
▁exposed
▁typical
▁reward
▁proposed
▁slaves
▁excited
▁creative
▁division
uration
▁infant
▁naturally
▁abst
oos
▁dough
▁encourage
▁sigh
▁phrase
boy
▁Fig
▁ped
▁fulf
▁western
▁department
gie
▁scared
▁occasionally
▁chocolate
▁lap
▁nurs
▁Public
.:
▁thread
▁Committee
▁lic
power
▁directed
▁informed
▁End
▁cabin
▁judgment
▁subjects
▁vegetables
EM
istan
▁plot
uthors
▁angel
▁legisl
▁acknowled
▁baking
▁artists
▁rates
▁favour
▁nights
▁webs
▁enemies
▁settle
iece
▁confused
ensions
▁player
olve
▁guilty
▁parad
▁prote
bury
igration
▁Nic
▁songs
▁completed
▁myster
ordinary
▁hurried
▁chemical
inding
▁blade
▁waved
▁organized
velt
▁Ref
▁Test
▁Sher
▁tunn
▁sne
▁atmosphere
▁assault
▁shooting
▁medicine
▁debt
▁ultimately
appy
▁moves
▁debate
▁Indians
▁lemon
▁Cook
▁batter
▁scan
▁Association
aned
▁returning
arliam
herent
▁grinned
Ah
acher
▁interact
▁allowing
▁root
▁Power
▁yield
▁Having
▁grateful
▁opposition
▁reflected
vi
▁Bible
▁conver
▁stones
▁illness
sters
▁diagn
▁prepar
▁pointing
▁fet
▁Next
▁Jacob
▁fiction
▁organizations
▁Make
▁edition
▁Hun
adian
ishop
▁divine
▁frowned
▁horror
▁previously
arts
▁Wild
Pro
▁functions
▁landed
iplom
▁rand
▁suffer
▁gle
▁clouds
oosevelt
▁territory
▁Group
▁vital
▁intr
▁chamber
▁substant
new
▁delivered
▁protest
iley
cri
going
▁lake
▁pec
▁Anne
▁Asia
▁finds
▁personality
▁butt
geant
▁palm
▁accord
▁switch
▁anybody
▁doorway
▁investigation
acles
after
sect
▁authorities
▁Lu
▁owned
▁vehicle
▁spending
▁staying
▁projects
▁acid
▁singing
▁unexpected
CT
▁Ram
▁entry
▁arranged
pathy
▁waters
▁argue
▁remote
▁flower
▁landing
▁whisper
otton
▁Work
▁seeking
▁contains
▁surrounding
▁keeps
▁pleasant
gram
▁Rad
oving
▁thumb
>.
ras
eyed
arest
▁puzz
OP
▁Dam
▁transm
▁Les
▁Spain
▁reass
▁Eth
▁Texas
▁layer
▁destruction
free
▁Nap
itement
▁demands
▁clothing
acc
ador
onym
▁Alice
▁toler
▁warned
▁Ra
unted
▁sites
▁profound
▁Neg
▁powder
itate
▁alien
▁paralle
▁Pac
▁Call
▁seed
▁teachers
▁Civil
coming
▁existing
▁refuge
Get
isation
▁combat
▁device
▁persons
▁sixty
▁attempts
umps
▁thy
▁universal
pm
quarters
arliament
▁stronger
▁Ret
▁cha
▁alarm
▁affairs
▁implement
▁external
irk
iger
enh
▁unp
▁grip
▁lamp
assion
▁wanting
▁restrict
▁colleagues
erent
usions
▁random
▁Rock
▁muttered
bling
orage
▁Gall
ethe
▁tension
▁desperate
▁bay
▁union
▁colour
▁paying
▁definition
▁Sever
▁resemb
▁femin
▁vulner
▁elsewhere
▁developing
rant
▁trem
▁hungry
▁brilliant
▁Kh
▁conclusion
▁complicated
▁rush
ugged
▁gasp
▁figured
▁guarant
▁routine
▁Saturday
▁standards
▁Light
▁Nob
▁fabric
▁hiding
▁shield
▁propos
▁lightly
▁shifted
wed
▁Dun
angle
▁Barb
ighter
▁strict
▁Ireland
inson
sch
▁Williams
▁dirty
▁university
▁continues
▁responded
▁accompanied
▁Fam
▁clock
▁ingredients
▁preced
archy
▁Sudd
▁surre
fall
oration
▁valuable
▁Roosevelt
▁subs
orters
▁neut
▁briefly
worth
▁Cub
▁conven
▁poured
▁gradually
ds
▁Los
▁Spir
▁muscle
Per
▁ease
▁selling
▁Greg
orious
▁commission
BC
▁films
▁nuclear
▁draft
▁triumph
esty
▁charged
▁colors
▁cloth
top
aren
▁volunte
oric
▁hal
▁conserv
▁kingdom
▁obst
▁Taylor
▁Walter
▁Liber
▁gesture
incl
▁explo
▁resist
atherine
▁profession
oty
▁structures
▁pace
nic
Some
▁divided
▁technique
▁achieved
▁captured
▁cooper
there
▁worn
▁brings
ATION
▁sink
▁farther
▁vote
▁Whatever
lec
▁News
▁competition
▁pig
▁voc
▁string
orous
▁riding
▁neat
▁innov
▁attacked
▁telephone
aron
▁clut
▁Angeles
▁climb
▁irrit
▁Health
▁Grace
rine
▁Kate
▁liberal
▁obsc
▁thri
▁thrust
▁reluct
▁Further
▁measures
case
▁Matt
▁cogn
▁Major
Have
▁inhab
lla
inth
▁swung
▁factor
▁que
▁mile
▁philosoph
▁Son
atched
▁Philip
▁dealing
▁syn
eline
▁alcohol
▁Cass
▁hook
▁#####
▁criminal
▁Rus
uated
▁tiss
arette
▁yesterday
▁Rac
ashes
▁arrive
▁lawyer
▁reveal
▁symptoms
▁excitement
▁flex
ira
▁Ren
▁lung
▁knee
▁frozen
▁secretary
▁mail
▁prayer
▁writes
▁rolling
car
▁district
▁vine
thew
▁jew
▁County
▁firmly
▁creatures
awn
▁vig
▁Club
vation
▁occupied
aus
▁guilt
▁twisted
▁democracy
▁pist
▁nations
▁literally
▁searching
▁MA
▁cod
▁joke
▁Hal
aning
from
erving
ogen
▁roots
▁ancest
▁billion
▁retreat
▁hills
▁panic
▁privile
▁Soon
world
▁servants
▁confusion
wen
▁markets
▁remarkable
erable
▁awareness
▁---|
▁Class
▁filling
▁regarding
oster
Will
▁Rod
és
▁affected
▁Duke
▁edges
annah
▁threatened
ece
▁Laur
▁inher
▁policies
▁Web
itter
▁victims
▁branches
aze
Every
▁elder
▁opposed
▁UN
crib
▁prepare
▁gif
▁explore
BI
ello
▁classic
▁opportunities
adel
▁consc
▁employees
▁dining
▁invent
stand
▁Chief
▁banks
▁scientists
▁grey
▁typically
▁poll
▁Mu
▁brush
▁instructions
▁Hay
▁Spe
▁Service
▁knocked
iro
▁holid
▁appe
▁manifest
▁gonna
▁rhyth
▁stated
▁Suddenly
▁handsome
hent
▁neighb
▁Colonel
▁Ah
▁diam
▁Billy
▁prices
▁Besides
▁lowered
arity
▁authors
oard
▁Cy
lets
uting
▁severe
▁biggest
▁doctors
▁enh
▁Come
▁wing
▁queen
Tr
omp
▁dict
▁contrad
▁aston
inem
▁von
▁lone
▁nowhere
▁slip
▁attempted
Se
▁Arm
▁bench
▁distribution
TH
ibl
▁belly
▁cheap
▁logic
atoes
imental
oto
arse
▁soup
▁wash
▁bub
kward
▁cigarette
▁Tit
▁tas
▁overall
▁exception
▁nurse
▁dramatic
▁millions
Please
▁limits
aneously
▁existed
▁extraordinary
▁Tony
▁Within
▁fleet
▁elabor
▁interpretation
▁towns
▁providing
alin
arer
otted
▁annoy
▁rushed
rait
▁survived
▁appeal
olk
▁Li
inations
▁Southern
▁Meanwhile
▁packed
▁meetings
▁Dist
▁visitors
▁Francisco
oming
▁palace
God
iday
▁Columb
Cl
▁cousin
don
▁Loc
▁undert
▁pron
▁ridic
▁controlled
▁technical
▁Plan
▁coal
▁bless
▁striking
▁Lab
▁Using
▁texts
▁hunting
quis
▁Sure
▁rode
OC
seless
▁uncomfort
itar
▁mild
▁recru
▁inspect
▁concluded
▁psychological
▁spite
▁Albert
▁valley
▁imperial
▁cryst
▁empire
▁grounds
nel
omic
inder
▁closing
uled
▁vague
▁borrow
▁selection
▁recognition
edy
ela
▁defeat
asting
ima
▁ON
▁belt
▁phase
pled
Figure
▁Lewis
▁expans
▁anxious
▁choices
nding
▁Georg
▁survey
▁tank
▁museum
▁assured
▁granted
ixon
▁Bus
▁Blue
▁Bank
▁parking
mary
▁Cross
▁Ford
▁dragged
ante
▁steep
▁spirits
▁blocks
▁suspected
low
some
▁mode
called
▁prime
▁dancing
▁sisters
)_
▁spark
▁steam
ologists
▁properties
▁Flor
uscript
▁eleven
▁Someone
▁documents
▁Six
▁amazing
▁puts
▁Among
▁swept
▁Brother
▁Night
▁twentieth
ilding
▁obtain
Any
aft
peare
▁Nich
▁supplies
▁pile
▁lands
▁preferred
enna
aying
▁rope
box
▁interior
▁awkward
▁hasn
▁stab
itarian
▁gender
▁profit
▁painful
bu
mun
▁musical
▁humanity
▁intim
▁ladies
▁Acad
▁newly
▁stair
his
avig
▁ain
▁Corn
making
▁awake
▁feared
▁inspired
▁grandmother
▁marks
▁Note
▁Steve
▁Palest
▁purposes
gs
itudes
▁birthday
orge
▁Jess
▁maid
stream
▁theme
▁Government
▁considering
▁tie
▁leaf
rating
▁agric
▁diplom
Here
omer
▁alb
▁bags
berry
ée
▁adapt
▁alongside
rum
▁alert
▁margin
akespeare
▁messages
▁Soph
▁tremb
isy
ario
▁cruel
▁abstract
▁innocent
▁tightly
▁Table
▁envelop
riger
▁friendship
vas
hesis
▁blur
▁damp
▁epis
rained
▁folded
gery
orce
oscow
▁fist
▁Lucy
▁clients
▁fortune
keep
▁cooked
▁appreciate
▁Eric
▁rage
▁presum
▁cultiv
▁Does
acious
▁studio
▁degrees
OUR
▁Hand
▁approx
▁reck
▁legit
▁stare
▁Margaret
▁eleg
▁helpful
▁Matthew
▁awful
▁flavor
▁detailed
▁Modern
▁specifically
▁disappear
▁web
▁recipe
istent
▁Chris
▁mathemat
▁UK
▁Found
▁mud
▁pilot
▁Studies
uin
▁Bush
fire
▁directions
gly
▁Age
▁software
▁cub
▁fears
▁grat
ifer
▁significance
una
▁assign
▁gained
Tell
icism
▁sport
iciency
obe
▁Alf
▁tap
▁stranger
▁tests
▁Tell
▁sole
▁Death
▁funds
▁Please
▁sacred
▁Bal
▁stretch
OK
▁apolog
▁collected
cut
▁pond
▁mystery
▁Therefore
▁situations
had
▁tracks
▁researc
▁operating
▁originally
▁encounter
lym
amped
▁affair
▁surf
▁pitch
▁files
▁linked
▁upstairs
▁Id
uity
▁adopted
▁advoc
▁blond
▁invis
▁kicked
▁legend
▁Bru
▁Kim
▁Valley
▁climate
occ
▁crucial
▁Pop
▁gut
▁inch
iating
▁reasonable
▁affection
▁frightened
▁unconscious
▁tower
▁valid
▁Pacific
vity
▁tape
▁Sav
▁Force
▁Stone
▁cong
▁Ep
▁Vi
▁fed
▁annual
▁Uncle
lly
▁weird
▁torn
apse
▁tale
▁Being
▁latest
▁Him
▁dat
▁hyd
▁Holy
▁Techn
▁adults
▁Security
▁ultimate
anting
▁gathering
▁Ron
▁describes
▁Five
▁swift
▁Commission
▁digital
▁Luke
▁Develop
▁permanent
▁Wat
▁beans
▁chairs
aver
▁cave
har
▁Vietnam
▁grandfather
▁boo
▁bars
iac
▁Win
▁Home
▁regularly
arded
▁sche
▁sheep
▁theore
▁loving
▁satisfaction
▁fond
.),
▁folk
▁collaps
rose
▁shower
▁depression
acking
▁Davis
▁chuck
▁indicated
ota
▁Several
▁exped
▁wrist
▁Professor
wide
▁vit
▁susp
▁Miller
▁launch
▁stores
▁assigned
mind
▁Rub
▁likes
▁sports
▁Maria
gers
ione
▁Roger
gle
▁AD
▁jaw
▁guest
▁accommod
▁gay
Journal
▁termin
▁rend
▁emergency
▁fierce
Mr
fa
▁beliefs
▁normally
rer
etime
▁bunch
▁grief
▁infin
▁roads
▁Rather
eff
▁Hon
▁Sing
▁dull
rup
▁whereas
▁confirmed
▁commitment
▁cycle
▁partly
orne
ilton
▁Could
▁straw
▁swallowed
▁Oper
riting
▁hopes
▁basket
▁mainly
▁occurs
otte
pent
▁testing
▁studying
▁arguments
▁Aut
▁spat
▁Third
▁ignor
ieval
▁Supp
▁elimin
▁Mond
Mar
▁murmured
▁Down
▁user
▁corridor
▁Grant
▁harsh
▁attended
▁customer
▁employed
▁Dutch
▁System
▁Moreover
▁encouraged
▁thigh
riel
▁portion
▁collective
▁engage
▁separated
olas
white
▁primarily
▁prev
▁agency
▁Bi
▁__
avery
▁personally
▁Fa
▁Gil
▁skull
▁condem
▁simult
▁incorpor
▁photographs
En
ez
▁Kar
▁outer
▁observ
▁impr
▁buying
▁screamed
▁therapy
three
▁Keep
▁stead
▁teams
ugs
▁pause
▁interf
▁fest
▁weakness
▁discovery
rett
▁cosm
▁Early
usalem
▁Susan
▁decre
▁pants
▁Avenue
▁instantly
odge
▁Saint
▁handful
▁effectively
▁environmental
▁rifle
▁sheets
▁sam
▁Ross
▁bite
▁machines
▁Us
▁strongly
Ind
bits
oning
▁sket
bably
▁tear
▁screw
▁branch
▁exists
▁regime
ghan
▁lover
ivalent
▁reflection
iders
ifies
▁contrary
▁Ted
▁foundation
fulness
▁inspir
▁protected
▁attractive
▁boxes
pless
▁altogether
▁photos
aughters
▁Division
▁session
▁ic
▁bold
ruption
▁monitor
▁Iran
▁relevant
▁Organ
▁expecting
▁Jam
▁addressed
▁rust
▁touching
esy
mail
inton
▁extend
heim
anche
▁Field
▁screaming
UN
ounded
▁senses
▁principal
iel
▁Mah
▁———
▁noble
▁pros
▁reserved
▁survival
▁criticism
▁Moscow
▁tossed
ava
venty
▁illeg
▁weekend
▁disg
▁angle
▁colonial
▁connections
▁fled
▁gentleman
Sc
mony
▁Aunt
▁drank
▁bullet
▁raising
Sure
▁Pen
▁dishes
ographic
Me
angled
▁distinction
▁precious
iry
hard
▁essentially
rane
▁Brad
▁Canadian
▁indicate
▁selected
▁efficient
▁Shakespeare
▁blew
▁explicit
De
▁sacrifice
bye
nda
▁scrap
▁academic
▁clo
▁covering
▁newspapers
▁silk
▁coinc
▁abrupt
▁clever
▁lux
▁formation
rates
▁impressed
▁objective
▁qualities
▁capture
▁withdraw
▁furniture
▁Inf
▁woke
▁Adm
▁aest
▁error
eton
even
igen
ucky
▁Pot
▁bast
gered
▁escaped
ao
▁None
▁arrested
▁subtle
▁Unt
addle
atching
itty
▁Walk
TS
parent
▁falls
▁servant
▁refriger
roc
ulpt
▁exhausted
pson
▁Fif
encing
▁displ
▁scarce
away
▁depends
▁Du
▁fence
▁football
▁IV
▁Bow
▁disag
▁excuse
▁collabor
▁publication
▁translation
▁Brian
▁hesitated
",
▁ward
▁Author
omething
▁satisfied
▁devoted
▁belonged
▁sharing
vol
atern
▁http
▁yelled
ja
▁Os
▁hired
▁parallel
▁Han
▁glow
▁eighteen
uma
▁Fair
▁throwing
▁Fire
▁labour
wich
▁kil
▁faded
▁Muslim
opyright
EP
▁dow
▁soph
▁spare
▁Friday
▁quoted
▁explains
▁romantic
weet
umble
▁eaten
ennis
▁Food
▁anch
▁hearts
▁slee
▁Thank
▁leaning
▁subsequent
▁score
abb
burn
▁bot
▁vary
▁movies
attering
▁Eastern
▁Harvard
▁Morgan
▁delicate
▁potatoes
▁assistance
▁manuscript
▁brut
▁optim
▁Too
ques
oli
▁subm
▁storage
▁assistant
▁brave
▁assass
AB
▁boil
▁washed
anes
▁...
▁FOR
▁lesson
▁eastern
uliar
▁ignore
▁shortly
▁Roy
uther
roduction
olen
▁dign
▁purchase
▁Lieutenant
iosity
▁lined
▁contempl
othy
▁airport
▁causing
▁returns
▁Remember
▁sup
▁Pass
▁trace
▁barrel
▁prince
▁devices
▁Earl
▁cher
▁moder
▁conducted
▁Sa
▁bree
▁breathe
▁healing
prise
Jo
▁chat
▁manip
▁counsel
▁budget
▁crowded
▁generations
▁kick
▁perception
▁les
ellow
rooms
▁Helen
▁perpet
▁tablespoon
fit
▁unl
▁Beat
▁Steven
▁stable
▁warmth
▁endless
▁neutral
▁insurance
igan
▁charges
▁Churchill
▁Unfortunately
▁Ten
ecess
▁chill
▁disorder
▁Leg
ouses
mill
▁castle
▁shouting
net
▁click
ressing
▁detect
▁composed
▁scattered
▁introduction
."_
▁concepts
▁sequence
▁struggled
▁comparison
▁Last
▁suicide
ko
▁boats
▁maintained
jud
achment
▁thoroughly
▁Dark
▁renew
▁cotton
▁greatly
▁unlikely
dess
▁Row
▁launched
▁Special
▁funeral
lend
▁blanket
▁concentration
armed
▁fishing
▁holes
▁sorts
▁scenes
▁farmers
▁invisible
▁fever
opp
▁gap
▁hypot
▁Howard
olis
▁Hotel
▁scent
▁tempor
▁desired
eight
eller
▁tasks
▁corp
▁picking
▁website
▁sale
▁Whether
iii
▁_(
phy
▁articles
▁approaching
▁Free
▁inex
▁rank
ersonal
▁highlight
▁preparing
▁coach
acement
▁Harper
▁sensitive
▁independence
Pr
▁Samuel
▁talent
gic
▁Jr
▁dug
essions
▁Hollywood
▁adopt
▁crown
▁rhythm
▁load
▁Form
▁immense
▁Log
▁knock
▁Jerusalem
▁Minister
uty
yard
▁interpre
▁exh
▁horn
▁racial
▁acquired
▁Set
▁circles
▁whist
▁classical
▁Dougl
▁Emily
▁theories
▁couch
▁outcome
▁peculiar
▁virtually
▁characteristics
▁hem
about
▁prosec
▁summon
▁challenges
▁interrupted
▁mask
▁virtue
▁spray
▁professor
▁Brand
▁uncomfortable
▁Ruth
▁impat
▁pregnant
des
▁AS
With
▁lun
rection
▁Others
▁shocked
▁Atlantic
▁hallway
ups
▁squad
▁refers
▁visiting
▁thir
▁Arist
▁purple
▁oun
▁keys
▁currently
▁Jimmy
▁overcome
▁occasional
eem
oded
▁hip
▁holy
▁issued
cons
▁accum
issance
uction
▁Point
▁Rachel
verty
▁dwell
▁smoking
▁crossing
▁executive
ailing
▁invasion
▁companion
▁committee
▁Nevertheless
▁Benj
▁Penn
estion
▁ho
▁ath
opher
▁printed
▁spotted
▁dressing
▁emphasis
▁quarters
orney
▁stub
▁abuse
▁Hind
cription
▁concert
▁Emma
▁Navy
▁glory
▁Philos
▁repeat
▁foolish
▁fewer
▁retire
▁organic
▁relieved
▁possibilities
▁Event
▁cliff
▁index
resents
olds
▁deploy
fect
▁procl
related
▁Thanks
▁seated
acon
▁org
tains
▁bits
▁synt
▁observation
ellig
▁Jake
▁),
▁vel
aints
▁Care
▁arts
▁loves
▁involves
")
aux
kind
▁moist
▁rescue
▁shopping
▁controvers
▁punishment
vet
▁Pear
▁overt
▁backward
▁disaster
";
▁Gord
▁Whit
▁factory
run
▁Pa
▁poverty
▁Franklin
▁pressing
▁Chap
▁essence
▁governor
ophy
▁Bon
▁horizon
▁accurate
▁Spirit
▁founded
▁dare
▁exhaust
aneous
▁sensation
▁Hug
▁admir
abilities
▁scholars
abs
▁Edd
celer
▁Anth
esc
▁penet
etheless
▁behaviour
oga
▁discipline
UL
oper
gence
▁fancy
▁patri
▁prominent
pa
six
▁Adams
▁wiped
CC
▁ugly
▁sooner
▁despair
oria
aders
▁lessons
▁depending
▁Pap
▁ank
▁Alan
illery
▁FBI
▁Low
ordan
▁Disc
▁surge
▁Unlike
▁authent
▁corporate
hew
▁Anton
▁bored
▁Super
▁Justice
▁install
▁relaxed
▁Educ
▁shade
▁regions
rome
▁caf
▁seats
thy
▁entit
▁walks
istence
▁rubbed
▁perceived
▁architecture
▁tunnel
▁comprom
atus
orse
▁heels
▁spoon
▁sixteen
▁denied
▁choo
▁veter
▁Christianity
aser
▁Jay
▁Much
ifications
▁users
▁worship
▁jail
Nothing
▁theater
▁retrie
▁sear
▁Follow
▁SP
organ
▁substance
▁Sup
▁zone
▁Blood
▁accused
adelph
▁novels
URE
▁Fil
▁reven
▁dragon
▁insult
▁sculpt
AND
anges
▁jeal
▁folks
▁vanished
engers
▁recover
tery
▁Neither
▁shelter
▁appointed
▁translated
IF
▁confirm
▁embrace
▁daughters
bro
uddy
▁Mid
struct
made
▁beef
mo
word
▁pleas
▁spaces
ORD
▁Joy
▁Eight
▁decent
▁fert
▁Report
▁flames
being
first
▁Liter
▁insight
▁concerning
▁ma
heast
ships
▁comments
walk
▁fifth
▁humor
▁Christians
▁represents
oub
▁Cole
▁Moon
▁Laure
▁Ess
▁shed
▁horrible
▁succeeded
▁Dri
▁ric
▁Negro
▁seventy
▁Tam
▁poly
▁Ze
▁Fle
▁fortun
▁speaks
▁sunlight
Ne
▁Hans
▁porch
▁sections
oped
▁Kent
▁salad
▁protein
▁replace
sl
▁Freud
▁regist
▁Florida
▁dedicated
irms
▁Vis
▁strategies
teenth
▁offices
▁resulting
▁Fran
▁Stand
ifferent
▁headquarters
▁Sn
AG
elia
▁Isa
▁navig
style
▁Josh
▁backed
▁beating
▁struggling
III
non
▁Lo
▁Very
lected
natural
▁Copyright
▁Ur
▁Der
chief
▁pier
▁grain
▁hollow
erer
iasm
▁bore
▁languages
▁statements
sen
▁rival
▁possessed
▁Beth
ictions
▁recording
ART
isten
oples
▁Crit
▁drinks
▁duties
Con
▁roughly
▁obtained
▁Cas
▁Fel
▁League
▁inevitable
▁Word
▁buzz
▁reception
ften
▁poems
▁tissue
imony
▁stored
▁silently
▁approaches
▁Allen
▁Short
igrants
▁contents
▁generous
▁administr
pert
▁cam
▁stops
▁mobile
▁philosophical
vals
▁Burn
▁brick
▁essay
▁Battle
▁Twenty
▁earned
▁slavery
▁realm
▁squeezed
▁swimming
ji
▁SE
▁Lear
▁irre
▁Holl
▁breasts
▁Cro
▁Jefferson
▁Bull
ishers
▁memor
▁networks
Qu
ali
▁).
▁cord
▁hint
UM
▁Clark
abet
▁Bry
▁Cre
▁Years
▁blinked
lle
▁nest
▁march
▁AT
adelphia
▁Carolina
▁Communist
▁pretend
▁commonly
▁phenomenon
▁scre
▁Nixon
▁cul
▁nom
▁fans
▁apple
▁meals
▁rural
▁traveling
▁vir
abled
▁dimin
▁components
▁transition
mad
▁Ern
mates
▁feather
▁necessity
▁Tar
gments
▁halfway
acts
gedy
Right
▁graph
▁scram
▁shops
▁killer
▁Ari
ushes
▁onion
▁Papers
▁seized
▁bearing
▁frequent
▁continuing
From
▁Mas
▁tun
▁jealous
▁revolutionary
▁paintings
▁electronic
▁Key
▁thunder
▁midnight
▁fog
neath
▁Ryan
issions
ERS
bes
▁Town
▁pine
▁sustain
▁conventional
spe
▁Merc
▁Nature
▁containing
▁oxy
▁encl
atures
▁trusted
▁schedule
state
▁Case
▁forb
▁emperor
IGH
bra
▁Cut
▁upd
▁outl
▁aboard
▁equivalent
rep
▁mart
▁crash
▁traveled
▁recommended
▁Nik
▁hier
▁rested
▁adventure
ouch
Sorry
Thanks
▁prisoner
▁difficulties
▁Mess
▁Page
iology
▁drama
▁representation
kel
▁Rh
▁panel
▁injury
tes
sized
▁mysterious
▁bon
▁wishes
▁Head
▁opens
▁Stalin
▁examine
ESS
▁hast
▁risks
▁shots
▁convey
▁consumption
▁periods
▁stirring
▁hurry
▁wider
▁parked
▁Asian
▁tucked
▁inhabit
▁societies
yes
▁devil
▁rejected
▁transformation
rons
▁Beck
▁Year
▁amounts
▁AL
▁acted
▁secrets
▁convince
▁gal
▁blend
▁Republican
▁instrument
▁practically
▁sank
▁Given
▁Nancy
▁sliced
▁examined
▁Rick
▁param
pany
orton
▁gear
▁pump
▁compos
▁entering
▁publisher
▁Non
▁depos
▁tendency
▁neighbors
Pl
▁Until
▁cared
▁ending
▁alle
▁vulnerable
unks
▁Laura
osexual
▁bureau
▁Dave
▁drum
▁murdered
▁requirements
▁RE
▁Real
▁stolen
▁Scotland
▁temporary
tic
▁IT
▁Australian
▁aimed
▁Benjamin
▁climbing
ancer
front
▁Hart
▁Mind
▁cott
▁behalf
▁expectations
▁FR
▁aunt
▁sovere
▁topic
▁mutual
lie
▁Federal
▁trading
▁initially
▁intensity
BN
▁deny
▁Fried
▁sharply
▁AR
▁insect
▁collapse
▁photograp
▁comprehens
▁consequence
AF
awa
▁NY
▁Aud
level
▁Monday
▁lonely
ographical
▁Kev
▁measured
▁Fox
olves
▁flame
▁surve
▁toile
Med
icer
olph
▁pap
▁caut
▁expansion
▁settlement
load
▁Family
▁chances
▁exposure
▁impressive
▁Cab
▁Mum
▁Card
ainted
▁nerve
▁actors
▁afterwards
▁transformed
▁Pier
▁menu
▁decline
▁vehicles
▁Senate
issa
▁roles
▁genius
▁CIA
▁DNA
▁stages
anor
▁sty
▁trapped
▁Jonathan
▁Lawrence
▁balls
▁sniff
▁Freder
zo
▁covers
▁gifts
▁traditions
imm
▁Var
▁Wolf
▁besides
▁Eventually
▁enthusiasm
".
sche
▁propag
▁Maj
▁adequ
▁extensive
ati
▁Net
▁mac
▁Jenn
▁strip
▁resting
▁startled
▁consideration
▁acceler
▁helpless
Like
will
▁pad
andal
▁Corps
▁plates
▁jeans
▁pockets
▁curiosity
brows
▁rack
idding
▁beast
▁everyday
andy
▁Nazi
▁hips
▁Front
▁Patrick
▁assessment
▁Behind
▁"'
ects
▁scheme
▁seemingly
▁possession
ogs
ayer
race
▁Aff
agged
cribed
▁consistent
child
▁Nobody
▁babies
▁damned
▁revers
▁Project
▁improved
uv
▁mechanical
uffed
▁sits
rogen
▁rhet
▁pistol
▁stroke
▁Similar
▁receiving
▁departure
rm
immer
▁accent
▁Children
▁physically
▁WH
▁cracked
▁governments
rd
fish
▁heal
▁revel
▁downstairs
▁Kath
▁Rober
def
▁Prov
▁Cover
▁stew
▁sophistic
▁researchers
sk
ocial
ountered
▁lifetime
uced
▁Sign
▁monster
▁winning
▁delicious
▁substantial
▁conversations
bage
▁Marie
▁BE
▁spun
ranean
▁council
▁inh
▁trap
ptions
▁surviv
▁minimum
▁utterly
zil
▁Arn
▁Face
▁Swed
▁Origin
▁insert
▁sample
▁Northern
▁floating
▁exceed
ertainly
▁Development
▁McG
ghter
▁brow
▁nuts
▁shapes
▁differently
rin
▁buff
▁item
▁Guard
▁abund
▁gates
▁civilization
▁Rest
▁democratic
▁association
▁Ott
▁jar
▁lou
arks
▁Karl
▁sang
▁Santa
▁Johnny
▁Barbara
asses
aware
▁drops
▁tries
▁encountered
arter
▁Main
▁Vill
▁carriage
▁Ian
▁vamp
▁———.
AV
aya
▁initi
▁battles
▁category
▁checking
▁overhead
▁permitted
▁acknowledge
▁Cra
▁nearest
conscious
mble
▁Brun
acular
▁Jordan
▁shaped
▁throne
▁procedure
▁om
▁viewed
▁Emperor
▁stopping
▁engagement
yers
▁Stra
▁marketing
▁intervention
umed
when
▁milit
▁Temple
▁creates
▁critics
▁simultaneously
gor
▁Has
plete
▁loaded
▁worthy
▁Islamic
▁fourteen
▁suitable
books
▁residents
▁overwhelming
▁surrender
▁successfully
▁tab
enguin
▁define
▁listed
iliation
lessness
▁abandon
▁thereby
udge
▁passes
▁dil
▁Treat
▁bowed
▁carpet
▁mounted
▁wealthy
▁constructed
ivery
▁mush
▁sheer
▁firing
▁ceremony
▁presents
▁habits
▁modest
▁worlds
▁execution
▁ridiculous
▁vari
▁Start
▁swing
▁Doctor
hour
▁Jason
▁edited
▁sob
▁lungs
▁Cooper
▁Hannah
OG
▁Sky
▁lawn
▁stern
▁burden
▁isolated
▁conservative
▁Data
▁ages
▁peas
▁DC
eries
▁compassion
▁Roc
▁exclaimed
▁suggestion
▁manufacture
▁significantly
osa
▁album
▁increases
▁desperately
▁participants
▁frown
▁slammed
▁remarked
▁stake
▁artific
▁closest
▁cognitive
▁wolf
Would
▁exit
▁Think
▁hence
▁praise
▁occasions
▁deliberately
▁Len
▁patch
▁punch
▁mothers
OV
▁slide
▁Kelly
▁Anthony
▁logical
▁eyebrows
▁restaurants
Ab
adow
post
resses
▁whites
▁intelligent
▁shy
▁tum
ilipp
▁diary
▁Should
▁courty
▁enjoying
▁employment
▁na
▁Gray
anguage
▁Inside
▁bottles
▁recovery
▁characteristic
ester
▁Hop
▁Russell
▁Cold
▁flashed
▁meditation
ocation
▁attracted
▁Gene
▁ber
▁pity
▁dates
▁bacter
▁guessed
▁bol
▁ven
▁Isab
▁Roll
uffled
▁actor
▁Marshall
iche
▁Julia
▁underneath
▁pir
▁camps
▁breeze
▁approval
▁producing
anked
era
zens
▁Box
▁Bart
▁carved
▁upright
▁Jos
▁wounds
▁corners
▁Victoria
▁baseball
leton
▁Best
▁observe
▁Charlotte
_."
igious
▁devast
▁layers
▁peoples
▁reaches
Int
lock
▁crou
▁desires
▁responses
By
▁Ot
unior
perial
▁deleg
▁silly
▁solve
▁collar
▁accomplished
aka
such
▁vice
▁Obama
▁souls
▁housing
▁surgery
▁Die
▁Wed
▁Turk
▁chaos
▁urged
itative
▁refuse
ito
shaped
▁wives
Perhaps
▁Morris
▁tended
▁Douglas
▁Looking
IE
ping
▁Carter
▁oxygen
▁holiday
▁Hold
▁intu
▁piano
▁beaten
▁Amb
▁Afghan
▁announce
▁preparation
Our
heat
▁sympathy
▁Bruce
▁smelled
▁accompany
▁demonstrated
page
▁tooth
▁safely
▁Mexican
▁fantasy
high
▁bru
▁Between
▁enthusi
▁Mun
ource
▁avoided
▁vegetable
▁midst
hyd
▁Brig
▁conj
▁cultures
▁disappointed
ulus
onder
▁Graham
▁upward
▁derived
▁CON
achus
▁hood
▁rings
▁maximum
Take
brew
irds
▁tomb
▁Kingdom
wa
sky
hole
▁warn
▁believes
iy
▁]
▁revol
hess
▁downt
▁Greece
▁crushed
La
aman
aund
unting
▁analog
▁provinc
▁tomatoes
▁wherever
door
▁Circ
▁injured
▁entitled
▁Christopher
▁stal
Chapter
▁biological
Man
Does
▁chapters
▁AP
oking
▁bark
▁nost
▁auton
▁absurd
▁Secretary
Pe
▁Py
hire
inian
▁hunt
▁fluid
onymous
▁Square
▁reverse
▁exciting
inkle
riers
▁Creat
tan
▁Elect
▁unity
▁ginger
▁gardens
oyd
good
▁Amy
▁Goo
▁ling
minded
▁Annie
▁elected
▁opinions
▁Wy
asha
ensus
▁Columbia
▁relatives
onto
▁trunk
ipher
▁Broad
▁compens
▁genetic
▁establishment
nut
utor
▁cuts
▁dominant
wan
▁Lyn
burgh
▁wars
▁patience
▁Zh
esar
eches
▁verse
▁displayed
▁complained
rot
urches
▁tales
▁Donald
ags
▁ta
eland
▁Gordon
▁elaborate
▁supporting
▁molec
inating
▁boundaries
amps
▁hol
▁Fall
▁Self
▁links
▁serves
▁chronic
▁pursuit
▁framework
▁Bri
▁hed
▁scra
▁---|---
▁clinical
SE
▁Ak
▁delay
▁Supreme
▁useless
Am
ILL
▁Sel
▁Beach
▁Almost
▁alleg
▁patrol
▁Admiral
.'"
▁award
▁channel
▁categories
▁Eis
▁urge
sis
▁mand
▁zero
avalry
itches
agne
esis
riet
▁alter
▁tanks
▁divide
▁intimate
▁Catherine
▁recovered
▁proportion
po
ardo
▁pipe
▁smiles
▁underlying
▁Dra
▁Leo
▁array
▁hunger
▁determination
▁tin
inge
elson
▁advis
▁flick
▁Academy
▁candidate
▁collapsed
alion
matic
ouncing
▁repair
▁Business
▁villages
wick
▁cats
▁curve
▁explosion
erie
▁Pur
▁rebell
▁conspir
▁dropping
▁Political
▁psychology
Very
▁amid
▁ranks
gain
including
ventions
▁Hamilton
ipt
ori
tail
▁thou
▁saving
▁brushed
▁lecture
▁identical
xic
John
ysical
▁artic
▁peered
▁eternal
uccess
▁elegant
▁trigger
▁Ka
▁Joan
reated
rac
etts
▁Ker
▁penc
ribly
▁elbow
▁crimes
arling
ifully
▁Kevin
▁fires
▁Heaven
▁beloved
▁distinguished
rolled
▁rubber
uns
▁Tan
▁soot
▁stem
▁allies
▁versions
piece
▁swear
▁islands
idal
▁arc
▁loyalty
▁emerging
▁businesses
▁beard
▁reign
ighters
▁Things
▁autumn
▁liberty
▁theatre
▁medieval
▁sway
▁sector
▁warriors
▁interaction
MS
▁Dur
agram
unned
▁Move
▁Brook
▁combine
alph
TR
▁Lt
▁cu
▁mate
▁chart
▁earliest
▁strategic
▁McK
rations
▁testimony
▁Democratic
unc
rell
▁Near
▁drain
▁abruptly
steps
▁Dead
▁pulse
▁references
aza
▁Ve
▁Confeder
ika
pit
▁Eff
▁Zeal
▁Story
▁clearing
▁invented
aki
▁pupp
ructure
▁visits
wr
▁prosper
▁shining
▁discourse
▁Philadelphia
▁tray
▁abroad
▁cattle
▁feeding
▁percept
▁repeatedly
▁boot
▁cops
▁Trump
▁elite
onsense
▁psychiat
▁trim
▁Dream
▁expense
▁Anderson
ulse
impse
ospel
▁beds
▁vivid
▁Protest
▁Nicholas
▁courtyard
▁sofa
▁copies
▁guitar
sex
▁Spring
amon
▁Lang
▁neur
▁contempt
▁accomplish
▁Bert
▁peak
▁Flore
▁Culture
ggy
▁taxes
▁magical
▁retired
▁companions
▁_**
▁subur
▁Common
▁armies
PS
Her
▁Bad
▁Pak
▁haz
▁tremend
▁Girl
▁bund
▁Clare
▁resent
onia
▁Try
▁keen
employ
▁Marcus
▁disgust
▁thirteen
▁girlfriend
▁Napole
▁Reagan
▁garage
▁Doc
haired
▁Music
▁Bridge
▁Remove
▁finely
▁communicate
▁politicians
▁Dal
itage
▁Dean
▁hyper
▁witch
▁worker
▁cabinet
▁payment
has
orus
▁freshly
▁profile
▁strengthen
▁awa
▁furious
▁suspicion
▁eighteenth
▁Ext
▁adj
▁Ball
▁Prop
▁rect
▁glimpse
itis
shirt
▁talks
▁Oliver
mers
ragon
▁bike
▁plun
▁kings
▁stuffed
▁approximately
▁illusion
▁involving
▁implications
ensed
▁overl
because
▁incredible
▁Tib
▁lin
▁Coast
▁descript
▁presentation
igs
▁Gro
▁fee
▁examination
▁util
▁backs
▁describing
▁influenced
▁instruments
eters
▁adds
▁bust
▁gene
▁Alfred
▁carbon
▁Mountain
▁OK
erior
▁Olym
▁spine
▁Gabriel
▁underground
eav
▁rib
▁bulk
▁Moo
istocr
▁Politics
▁appointment
▁threatening
)**
lete
wind
▁Exper
▁gloom
▁shallow
▁dependent
▁trembling
iolet
▁whisk
▁container
▁historian
▁Ban
▁Meth
▁ticket
upt
▁Clinton
▁vessels
▁bleeding
▁Education
▁transcend
▁Study
▁neuro
▁unhappy
▁attempting
▁Ins
▁planted
▁promote
▁warrior
▁reporter
ppers
▁forgive
tw
▁fruits
▁detective
▁dismissed
▁arrangement
sts
▁Dire
▁Open
itably
▁gazed
assador
▁resource
▁surprisingly
obi
eu
▁indul
▁slope
▁honour
▁counted
▁automatically
ref
▁Expl
▁Board
▁towel
▁estimated
ikes
odox
▁Top
▁til
▁frustration
▁CE
▁gover
▁courts
dri
▁wax
mented
▁candle
▁Georgia
▁mechanism
SS
quet
▁pip
▁voy
itals
▁Stat
▁deaths
ooped
▁lightning
▁seve
▁sque
▁prost
berries
▁Corpor
shot
▁limbs
▁versus
▁forming
▁remembering
vania
▁loudly
▁composition
▁applications
▁Ni
uously
tenance
▁Wright
▁loop
▁ours
▁Eddie
▁Except
▁delivery
▁portrait
▁passengers
▁unn
▁dumb
▁tube
forced
lighten
▁pursue
▁kilomet
▁tragedy
▁welfare
▁artillery
aton
▁Sad
▁pear
▁Jerry
▁Moses
▁wicked
▁capitalism
▁acknowledged
▁Lily
▁piss
▁strain
onut
arently
▁Contin
▁tapped
▁potentially
▁barn
▁Danny
▁citizen
▁regional
ieve
▁Inn
▁horm
▁odds
▁Market
▁doctrine
▁proposal
▁corps
▁winds
▁mistakes
DR
▁cert
▁Small
▁obser
▁marched
otal
▁Jere
▁ties
retched
▁dynamic
▁artistic
▁Tob
▁aer
▁diamond
▁package
▁portray
▁arrangements
rix
syl
tra
Hist
comes
▁Mars
▁episode
▁explaining
▁fib
atell
▁Clay
▁Line
▁chim
▁gown
▁Holmes
▁splend
seven
▁Color
▁experts
▁dialogue
▁writings
Ad
▁Know
▁rows
▁delighted
▁passenger
▁assets
▁oldest
▁lid
▁freely
regation
▁Foreign
emen
▁jur
illes
rition
▁elderly
▁treasure
▁conviction
▁processing
▁Information
▁Introduction
roph
▁diver
▁losses
▁resident
▁tore
▁shoved
ho
acter
raham
▁Rout
▁rigid
▁render
▁waving
Com
▁Bor
scale
▁Pract
▁lobby
▁ruled
▁Walker
▁echoed
▁aristocr
Sp
rast
▁commod
▁basement
▁envelope
BS
bul
▁CO
▁ink
▁spo
asper
▁Maggie
▁shares
▁scarcely
iterranean
▁aesthetic
▁offensive
—'
▁Ide
▁Mach
▁Shar
▁aggressive
▁embarrassed
mate
were
faced
▁needle
▁purchased
▁experiments
hop
▁Peace
▁Beyond
▁sensed
▁expedition
▁nevertheless
otle
▁pork
▁Garden
▁Rights
▁Egyptian
▁magnific
▁indicates
▁celebrated
▁suggesting
▁Ru
Hello
▁Kant
▁Mama
antine
▁datab
▁stumbled
▁solutions
▁terrified
ubs
▁Rain
▁Creek
▁eighty
via
mare
▁closet
iva
reck
ttps
▁Ast
▁rely
▁ruin
headed
▁Nations
▁destination
▁aloud
▁sanct
▁resolution
▁theoretical
lemn
imens
irming
▁Friend
▁searched
▁expressions
▁quit
▁impatient
▁convenient
▁representative
ami
agle
▁pup
ooled
▁Andy
▁diseases
▁elevator
EST
▁py
keeper
weight
▁gentlemen
agg
lad
▁Madame
pathetic
▁stations
wall
▁Bos
After
▁Warren
▁hatred
▁operate
bet
▁Az
emin
uber
▁wagon
▁Zealand
▁peaceful
▁Gary
▁cinem
▁Theory
▁acquaint
▁Vinc
▁synd
▁tested
forcement
▁attorney
▁controls
▁overnight
zes
azed
occup
▁arrow
▁defeated
▁inclined
AK
▁BC
▁Ts
▁Bec
▁bears
▁Claire
▁signals
▁resulted
▁introduce
▁greeted
hill
iper
▁gigg
▁Golden
▁intend
▁marble
▁highway
▁preserve
bus
aris
▁mercy
▁prohib
▁Sab
kered
▁Brazil
▁colored
▁ethical
▁frequency
▁Ice
itating
▁expanded
▁assumption
icop
lims
▁bin
ungle
ounted
▁noteb
▁dating
▁dozens
▁cleaning
▁Sid
▁Domin
▁charm
through
▁Alexand
▁inherent
▁witnessed
▁lur
▁tense
▁emerge
▁deserve
▁exagger
▁vinegar
▁boyfriend
▁concentrated
▁Wr
only
▁ego
▁Ward
▁disgu
▁erect
▁ID
change
▁label
▁naval
every
▁Iron
▁lighting
▁Parliament
die
orph
▁divorce
▁readily
▁contribution
Br
▁grade
▁curled
▁gasped
▁bron
▁NE
arms
ormal
▁fare
▁flee
▁mistaken
▁personnel
awed
▁Police
▁threats
▁crisp
▁racing
▁illegal
achusetts
▁investors
▁revealing
▁institution
oof
▁tack
▁tips
▁priests
isive
▁jury
alling
▁wrest
▁brains
▁suspicious
▁demonstrate
▁communications
▁Occ
▁Cost
▁cough
▁Castle
▁absent
▁toilet
▁placing
▁Russians
▁arriving
▁attitudes
▁invitation
▁Mediterranean
▁alike
▁aspir
▁dense
▁herbs
▁interviews
rat
roid
▁Syl
▁chick
▁choosing
▁inspiration
▁involvement
▁TR
onial
▁snake
▁Design
ologically
▁acceptance
ti
eur
▁od
▁True
▁charming
▁Lisa
▁prey
▁Harris
▁advised
aky
break
▁pant
▁Sergeant
▁eds
▁unm
pread
▁Andre
▁Clear
▁steal
▁damaged
▁formula
alo
gov
obs
eous
rolog
▁Sant
▁subt
▁criter
sylvania
▁bastard
▁breathed
acco
▁maps
erness
idance
▁Order
▁skirt
▁Philipp
opes
▁Roberts
odes
▁Wel
▁cure
▁Korea
▁appet
green
▁unple
▁reliable
▁component
uum
▁cel
▁strangers
▁Hugh
▁domain
▁tribes
▁spreading
▁artificial
▁YOU
▁gran
▁Google
▁confess
▁catching
▁demanding
▁Constitution
hot
repre
▁noon
▁tide
▁stove
▁solemn
▁privacy
▁consumer
▁extension
▁neighbour
▁educational
beat
▁ratt
▁dealt
▁purely
▁generated
boat
ietz
▁Parker
▁believing
▁gamb
▁bonds
▁admire
▁deadly
▁endeav
▁hammer
idespread
izer
▁pie
▁acute
▁jewel
▁Lib
Christ
inkled
▁circuit
▁advertising
▁wrap
▁Bobby
▁corpse
▁Penguin
▁impress
elligence
▁Publishing
▁Hung
reprene
▁drifted
▁**"
▁Syd
▁Crow
▁Heart
▁unfold
▁anthrop
▁discussions
▁sophisticated
Gu
alm
▁Hur
terior
▁Portug
▁Massachusetts
▁Som
▁brows
▁fatal
▁palms
▁infantry
▁electricity
rency
▁bour
▁toes
▁lasted
▁_'
▁bitch
▁canvas
▁pillow
vo
pton
isons
▁Moore
▁Darwin
▁planes
oen
▁Dom
▁USA
enged
ustomed
▁Martha
▁output
▁dominated
▁Foundation
▁intentions
▁oh
▁trous
▁defence
▁harvest
▁conception
________________
▁Ms
ibid
obile
▁amuse
▁weigh
▁contributed
oca
alia
vate
lines
▁Imag
▁scope
▁solar
▁identification
▁Equ
▁Pic
▁astron
▁melted
▁dignity
▁managers
zi
pher
▁lists
igenous
▁cottage
▁referring
▁Management
ivia
▁Gib
▁Seven
▁Control
▁Lucas
▁infection
keley
▁spots
▁lawyers
▁compound
▁procedures
▁inhabitants
Cam
▁Fitz
▁Pete
orient
▁gravity
▁torture
▁realised
psy
▁seal
▁snap
azines
▁rivers
▁sticks
▁physics
▁Rud
oding
lights
▁blast
▁breaks
▁mighty
▁Bernard
▁churches
gines
irling
▁Sophie
▁challenging
kh
Ref
fold
ippi
▁laz
ansas
▁bills
▁bureaucr
lightenment
▁continuous
▁DE
▁Jen
▁Half
▁Griff
▁Command
▁Princeton
▁CD
olitan
▁suits
▁rounds
▁imprison
▁commanded
pen
umm
IGHT
angel
▁cage
▁goss
▁skept
▁ethnic
▁sorrow
▁sphere
▁caution
▁Economic
▁consists
▁performing
▁instruction
rehe
▁pars
▁Ralph
▁marsh
hips
ller
▁Anc
▁Less
▁thee
▁remem
▁Indust
▁promises
▁probability
gal
shire
ilation
▁statue
▁disturb
▁transferred
usc
ennes
▁Ever
▁numb
▁slice
▁origins
▁remarks
▁targets
Im
▁infinite
▁produces
▁Lim
▁coin
▁vain
▁polite
▁Imperial
▁troubled
▁miserable
mund
▁Belg
▁facil
▁shove
▁assembly
▁guarantee
assy
▁Stew
▁dies
▁Labor
▁peeled
seen
▁shelf
▁archae
▁slices
struction
▁occupation
whe
rowing
▁Luther
▁ladder
▁Ali
▁Hebrew
▁cm
master
▁arise
▁cable
▁depri
▁participation
bi
▁Return
▁reconc
▁alleged
▁ancestors
▁widespread
rik
▁Nelson
▁nerves
▁columns
▁clay
▁mast
▁vibr
efully
▁forcing
▁glowing
▁Commander
▁Frederick
▁afterward
▁reactions
▁SS
itzer
hattan
▁Muslims
▁hostile
human
▁Past
▁Tommy
▁cited
▁cloak
▁answering
▁facilities
▁Pennsylvania
▁Norman
▁Historical
▁Gi
▁cries
Coll
reeks
icular
▁trend
▁athlet
▁horrif
▁earnest
hal
stick
▁revenge
▁secondary
fr
▁Lin
▁cob
erman
▁eleph
▁Balt
▁deer
▁masc
▁Works
▁repet
▁Abraham
▁crystal
▁followers
stra
▁Mot
▁oak
▁Athen
▁Anyway
▁Hunter
▁basically
▁Palace
▁Station
▁happily
▁Buck
▁halt
▁yeah
▁whoever
▁discussing
▁Harold
▁educated
▁conscience
▁distributed
Fr
▁Ald
estyle
▁washing
▁Chen
▁Caesar
▁jerked
▁lifting
▁ongoing
▁resolve
▁hopeless
▁Ll
pring
▁flung
▁farmer
▁gratitude
▁stability
ardon
▁Cher
▁email
▁argues
Fig
▁Maur
ducing
ugging
▁alley
▁wheels
▁Mississ
▁speaker
▁gestured
▁broadcast
unct
▁comr
acent
▁ISBN
▁chains
▁guided
▁Madison
▁acceptable
▁engineering
IST
▁AC
trans
▁virtual
▁tremendous
ithm
▁liver
▁shaft
▁ruined
▁catalog
▁helicop
▁respected
▁SH
▁patron
▁sliding
inting
▁dreamed
▁recipes
▁shifting
▁assembled
eren
▁Stu
▁Left
▁mini
active
▁Daily
▁wheat
▁config
▁contest
▁register
▁contribute
▁Phot
▁clar
▁Program
Even
actory
interest
▁seventeen
lu
oubted
▁regardless
▁separation
▁entertainment
▁nap
▁Gener
▁accus
▁defensive
▁phenomena
▁philosopher
may
▁beg
Never
▁Invest
▁supper
ietzsche
▁resolved
idy
arma
▁ratio
iblical
▁downtown
scar
enched
▁trips
itchell
oven
▁bend
▁Larry
▁clubs
▁resort
▁Napoleon
▁guidance
▁merchant
▁divisions
▁ribs
market
▁lingu
actions
▁correctly
▁Lore
▁fury
▁grows
▁Frances
▁absorbed
▁improvement
▁technologies
▁****
▁Mason
▁balcon
Wait
▁frost
▁blacks
▁engines
▁registered
osy
inks
▁lod
▁tang
▁Making
ais
▁ramp
▁seas
▁bands
▁switched
▁disappointment
oan
▁dared
▁engineer
▁uncertainty
▁Say
▁fork
▁restored
▁footsteps
▁Ara
▁pod
ulsion
▁orient
▁maintenance
▁Plato
▁interrog
spec
▁vic
azing
▁arguing
▁frank
▁troubles
abl
▁Liz
▁masters
▁('
your
people
▁admired
▁bothered
▁quantity
▁reduction
▁wool
▁ounces
▁approved
▁populations
omon
osity
▁Aaron
▁idiot
▁physician
LY
▁Pope
▁Apple
▁reporting
▁percentage
oa
?**
gage
rity
ersed
▁Mack
section
▁obliged
minute
▁diverse
oqu
▁Na
emet
▁Staff
▁ruins
▁blessed
▁exchanged
▁TW
▁Wars
agraph
▁fatig
▁evolved
▁negotiations
ova
wild
▁Bol
▁aged
▁prox
▁onions
▁recept
▁Thompson
▁kindness
▁Manhattan
▁Testament
▁locations
▁nightmare
ét
▁Od
▁Rena
▁magazines
▁maintaining
▁gn
▁scow
▁embod
hearted
His
▁Mand
▁bride
▁grant
working
▁miracle
▁computers
▁presumably
town
▁spy
▁digging
▁hitting
▁observations
cor
name
uffs
▁Tues
▁Prime
PR
actly
range
▁taxi
▁ripped
▁distinctive
bound
▁Polish
▁crowds
▁immune
▁gripped
▁faithful
▁dimension
▁exercises
▁Mississippi
kee
▁Theod
▁blown
▁gloves
▁joining
▁Consider
▁elections
▁journalist
▁Ohio
▁flowing
▁generate
ldom
▁Molly
▁Reich
▁Sally
▁paths
▁drives
▁prophe
▁employee
▁Ein
▁Jamie
▁Julian
▁Winter
▁virgin
▁secured
geois
leans
▁sore
modern
▁Bureau
▁publicly
▁constitution
sa
▁compr
▁Poland
▁enable
▁saddle
▁Israeli
▁stirred
▁agricultural
appro
icket
▁flut
▁quot
▁empir
▁inject
olitical
▁visitor
nine
rust
▁Yan
▁vot
▁curse
▁exert
forward
▁Change
▁Fortun
▁underm
▁Fal
annel
hedral
▁Robin
▁misery
▁publishing
▁unpleasant
gate
ylan
owell
▁Hum
▁Hope
▁suited
▁compare
▁strikes
▁findings
▁symbolic
Two
rod
▁gig
stage
▁brid
▁armor
▁stunned
▁descended
▁Philosophy
rics
acies
▁span
▁Guide
▁CA
These
▁ridge
▁goddess
▁Furthermore
INE
ube
▁Alb
▁twin
▁Phill
▁Tower
▁cavalry
▁avoiding
▁passages
▁pregnancy
▁preserved
held
▁Rap
▁Give
▁facult
▁disrupt
▁shorter
▁symbols
▁distinguish
Was
wer
anne
ctic
izza
olar
▁amongst
▁consent
▁reserve
▁historic
▁questioned
▁Ta
agen
▁sip
ulously
▁sealed
▁forests
▁counting
▁disorders
▁countryside
▁participate
iki
▁PL
usively
▁Medical
▁Similarly
▁mechanisms
▁navy
▁dated
holders
▁adoles
▁designs
▁paradox
ahl
▁Fab
▁Nov
uming
▁Sean
▁tribe
▁Silver
▁brutal
▁Toronto
▁executed
▁Barry
▁Hence
▁Space
▁openly
▁Princess
▁abilities
▁diagnosis
▁residence
▁institutional
DA
▁Tro
chair
▁reads
▁therm
oz
▁Ale
▁Exp
oping
▁brig
umping
▁reson
▁Living
▁county
▁outs
formed
▁Trade
▁Hospital
▁agencies
Ed
▁Lam
▁NOT
▁hid
grad
▁Thor
▁stag
irable
▁Stock
▁civilian
▁golf
▁rehe
▁cameras
▁chuckled
▁Aristotle
▁historians
▁inevitably
▁refrigerator
ele
icts
▁Were
▁lamb
▁blowing
▁gallery
▁singular
▁characterized
empl
riter
▁Daddy
oubtedly
▁pouring
▁distress
▁princess
▁influential
▁AM
thodox
istically
▁equality
▁instructed
coll
▁fake
▁mant
▁unre
▁ninety
▁themes
▁copyright
▁primitive
▁challenged
ikh
uer
▁Cz
mons
▁Nev
ipper
▁soap
▁raced
▁texture
▁facility
▁ME
Only
care
arett
▁hire
icable
▁courses
▁inherit
▁railway
▁diversity
▁favourite
El
▁Kay
Cross
▁fists
▁boards
▁ashamed
▁curtain
▁Mitchell
fol
▁Slow
▁doubts
su
pow
oust
▁pudd
▁copper
▁sessions
▁witnesses
▁electrical
plex
actor
▁shiver
▁Scottish
▁ideology
▁enterprise
ARD
▁Mall
▁depths
▁masses
▁slowed
▁barrier
▁adequate
▁steadily
▁Wol
▁jet
▁Trad
▁clerk
emetery
far
▁gram
fashion
▁dispos
▁alliance
▁metaphor
▁efficiency
SA
emed
▁Lev
▁Micro
▁ignorance
▁functional
rimin
▁Farm
▁beam
▁prize
▁Michel
▁meters
▁belongs
▁venture
▁stubborn
▁heir
▁Isaac
▁spont
▁helmet
▁Natural
▁drained
▁Following
▁structural
▁spectacular
▁,"
▁luxury
ignation
▁warfare
▁republic
▁gym
▁hits
▁widow
▁shells
▁settings
▁leap
▁Cond
▁Jersey
▁shattered
▁distracted
▁productive
Act
pool
▁Clar
▁genes
▁gorge
▁simmer
▁reveals
▁stepping
▁complexity
ITH
▁rab
urned
▁Often
▁nasty
▁Pierre
▁Romans
▁ceased
▁vertical
aska
inos
▁Hem
heart
▁Batt
▁Cape
▁Policy
▁dollar
▁pencil
▁wandered
▁jungle
▁Outside
▁profits
▁pounding
would
▁rebu
▁shoe
giving
▁bombs
▁firms
▁pulls
▁Global
▁Orleans
▁exploded
▁survivors
▁encouraging
pur
▁pub
▁abol
▁Karen
▁lacked
▁imposed
▁Afghanistan
▁concentrate
asse
▁Seb
▁Need
▁clue
▁purse
▁floors
▁coconut
▁scandal
▁mistress
▁scrub
▁default
oirs
▁Sydney
▁interven
Cont
▁Owen
ources
▁arrog
▁variable
▁Cit
▁arbit
▁comic
▁syrup
▁louder
▁lovers
▁Comb
▁Tibet
▁invite
▁daylight
▁glorious
acre
▁Abb
ucker
▁Forest
▁certainty
▁sentences
▁Adv
▁Camer
▁prejud
▁Caroline
▁trousers
▁retirement
abul
▁brass
aternal
▁proven
▁Campbell
▁province
bone
▁owe
onnie
▁cort
▁altar
version
▁bacteria
▁questioning
uz
did
atre
ridge
▁seam
▁Haven
▁Method
▁achievement
▁fascinating
oval
▁lam
atisf
encer
▁Benn
▁crust
▁sixth
▁squeeze
▁OR
▁Hob
▁Hom
sight
▁Lane
essert
▁Surely
▁promising
▁sustained
BER
▁Jenny
▁permit
fortunate
▁Medicine
▁summoned
▁reasoning
ui
aria
▁hug
▁roar
▁meaningful
uating
▁Trail
▁maneu
istical
▁corrupt
▁unnecess
▁entreprene
▁Dig
▁pose
▁twist
▁Around
▁tomato
▁accustomed
Em
iev
▁SC
▁chef
▁stere
▁tends
▁Century
▁terribly
▁magnificent
utt
▁Ho
opath
▁divers
▁spinning
▁converted
auer
▁ware
ulates
▁Buddha
▁retain
▁narrowed
▁protecting
▁Imp
iches
▁drown
▁blessing
▁consumed
▁presidential
Stop
▁Joh
▁loan
▁flies
▁pione
ountain
▁Either
▁Newton
▁impulse
▁injuries
▁Nietzsche
▁officially
ACK
Time
▁Bed
▁unb
▁melt
▁Peters
▁geomet
▁Working
▁isolation
▁developments
▁straightened
Wor
▁Guy
▁Finn
▁LORD
▁deaf
▁colony
':
ials
black
chers
igion
▁crops
▁errors
▁gossip
▁harmony
▁swiftly
▁feedback
▁installed
▁lion
▁Baker
▁Woman
▁pairs
▁uncon
▁Section
Cambridge
vironment
▁balanced
▁polished
▁scenario
▁strictly
Ke
oni
▁oz
orig
rily
▁greed
▁wages
▁sketch
▁curtains
▁lifestyle
vell
▁Hud
▁Gulf
omatic
▁incon
ounding
▁sufficiently
▁HE
▁Ent
imore
▁obed
▁supporters
▁competitive
▁Si
▁dub
▁eyel
▁trop
olving
▁neatly
▁rendered
▁Certainly
▁celebrate
▁dimensions
tion
▁Fut
▁Lat
borne
▁Vers
▁Terry
▁males
▁squat
▁Athens
▁trials
▁varied
▁wholly
▁enhance
▁goodness
lee
neys
handed
▁Trust
▁secular
fly
pot
bows
▁Yale
▁glared
▁blocked
▁minority
▁conceptual
Which
names
▁Kirk
▁View
▁hosp
▁Korean
▁supreme
▁currency
▁deserted
▁Play
▁caps
▁tune
feld
▁Kal
▁dock
▁vest
First
▁adap
▁bunk
▁arose
▁agenda
▁satell
▁timing
▁stretching
RI
▁Arts
▁ruler
▁stack
▁Murray
▁subsequently
ilia
itan
▁tob
enhower
▁immort
▁scores
▁Stanley
▁Building
▁mos
▁Diana
▁prest
▁fitted
usk
▁SU
grade
▁Wales
▁inhib
▁outrage
▁clenched
▁countless
▁Room
urable
▁surviving
▁ga
▁Show
▁ripp
▁nails
▁dischar
▁priority
▁proceeded
_,
▁Fat
▁shred
▁drawer
▁thresh
▁coordin
▁managing
iors
▁Pitt
▁seldom
▁failing
▁Thurs
▁boiling
▁morality
▁stripped
▁provision
SC
ripp
▁Fro
▁Ellen
▁Truth
▁spear
▁District
▁claiming
▁reluctant
▁Bou
▁apples
▁sucked
especially
▁Ye
▁lust
▁semi
▁lighter
▁Administ
▁opponent
▁sensible
▁sideways
▁disturbed
▁Ul
irled
▁Kenn
▁cust
▁rabb
▁Bishop
▁destro
▁finest
something
▁Robinson
▁slightest
▁teaspoons
TE
have
mont
▁kne
▁input
▁calmly
▁sleeve
idelines
▁fulfill
▁deserved
▁featured
▁automatic
▁corruption
roit
▁Fund
▁Okay
▁fame
▁tatt
▁Labour
▁Eleanor
▁behaviors
▁immigrants
▁Renaissance
▁legislation
iary
inois
▁algor
ependent
▁license
▁admiration
▁advantages
acht
▁tons
▁minim
▁races
▁romance
").
▁–;
amic
list
▁mic
▁urgent
▁broader
▁outward
▁ignoring
▁ownership
▁paragraph
endar
▁treas
▁altered
▁conceived
▁dwar
access
verted
▁chips
▁restore
▁variation
▁Lad
▁parl
orting
▁Nathan
▁Reading
▁madness
▁rounded
▁vanilla
▁sticking
hou
adequ
▁lets
▁Apoll
overing
▁Taking
▁namely
▁waking
▁protested
▁Greeks
▁ceremon
▁Buddhist
▁partially
▁incredibly
▁oath
person
▁Dylan
▁colleague
▁legitimate
▁representing
▁constitutional
rav
brow
▁potato
iological
▁scientist
ATE
▁Kl
pack
▁Song
▁loos
▁thighs
▁Probably
▁critique
▁nonetheless
▁Intelligence
PA
▁kin
▁Blake
rimination
▁homosexual
▁Dog
hammad
▁spons
orr
▁slim
strong
▁titles
▁centers
▁cookies
▁confined
▁persuade
GE
olo
▁Ky
▁Rhod
▁mold
Really
▁Judge
▁crept
▁Always
▁Unless
▁candles
▁Victorian
pd
▁Pay
ectic
inery
▁Ocean
otherap
▁popped
▁destiny
,**
▁hob
▁Cuba
▁discl
▁shone
▁insist
▁partial
▁accepting
▁reporters
▁capitalist
▁considerably
▁correspondence
pres
▁fict
▁Jesse
▁knelt
▁weary
arettes
▁tragic
▁conting
▁removing
▁instances
ni
apor
star
▁Mos
annon
▁Heat
▁Pick
▁mans
ourage
▁Herbert
▁unemploy
▁merchants
▁Apparently
dis
shine
▁constra
▁sadness
▁moderate
▁persuaded
gies
▁shiny
▁lately
▁fighters
▁condemned
▁unfortunate
itory
▁mock
▁handling
▁Psychology
▁gau
▁Carm
▁List
▁Ident
▁amused
▁ascend
▁Florence
▁estimate
▁expenses
▁requested
▁continually
pha
▁Kr
etta
imps
▁Along
▁mayor
▁nutri
▁correl
▁Turkish
fashioned
▁focusing
▁Wes
▁Carr
▁ambit
▁exile
▁folder
plus
▁dys
▁tel
ambers
▁Turner
▁borders
.—
IVE
▁Ga
▁toy
▁Hend
▁Hegel
▁clasp
▁sweep
writing
▁Sister
▁overse
▁misunder
▁tightened
▁lieutenant
isle
▁bid
▁rav
▁harbor
▁darling
eded
▁ster
▁prayed
▁notebook
▁frustrated
▁protective
▁Bat
▁appar
▁inquiry
▁Direct
▁begged
▁sentiment
LA
Sir
think
▁carn
▁unto
▁marvel
ometimes
▁sympathetic
found
▁Sara
▁Script
▁cursed
▁clarity
▁conflicts
▁responsibilities
story
udder
rehend
▁assure
▁ruling
▁fighter
▁swinging
IX
▁Ok
▁inequ
▁spraw
▁Persian
▁Wallace
▁tactics
▁reflects
▁LE
colm
▁vag
▁Joyce
▁Kings
▁rolls
innamon
▁meantime
▁sandwich
▁depressed
▁mathematical
▁pole
▁Enter
▁mortal
▁sailed
▁privilege
▁propaganda
ivan
pling
▁chron
▁etern
outheast
▁sailors
▁outcomes
▁consumers
▁decorated
▁prevented
▁Eisenhower
▁influences
▁innovation
▁parliament
▁supplement
essa
▁Julie
▁Native
▁heated
▁explicitly
▁hypothesis
▁comprehensive
Dam
blem
econ
▁unst
▁eased
▁Allied
▁consisted
ptic
▁nick
imeter
▁clust
▁stool
▁champion
▁perfection
▁Kong
▁Hawai
▁punct
icating
▁boring
▁Facebook
Washington
inf
▁Sac
▁crop
▁tastes
▁tobacco
▁attributed
Black
▁Pain
▁chase
▁calculated
▁cooperation
step
▁Rab
iller
▁cens
▁illum
▁legacy
▁circular
▁embraced
▁predicted
)—
▁Cow
▁Bour
sworth
▁resid
▁shrug
▁organs
▁strips
▁cleaned
▁rushing
▁Military
▁mattered
▁reducing
CA
eat
▁Dear
▁flows
▁stole
▁judges
▁laying
▁Director
▁betrayed
▁interactions
Har
hin
iege
esome
▁icon
avement
▁recoll
▁server
▁ringing
▁slapped
▁progressive
▁Henri
▁selfish
▁ambition
▁commented
cha
▁Pil
▁Deep
▁hind
abetes
▁poets
▁theor
▁styles
▁anticipated
soft
ublin
▁Poor
▁duck
▁danced
▁customs
▁dessert
▁coverage
▁knocking
▁similarly
▁wandering
▁cigarettes
▁contributions
bery
▁Stir
▁freed
▁practiced
▁passionate
▁pronounced
▁experimental
lit
rium
unken
▁Snow
▁Stri
▁Tour
▁opera
▁Protestant
▁assumptions
▁realization
amel
unts
izard
▁intact
▁carries
▁doubted
▁jam
▁Tuesday
▁organiz
▁attributes
▁dramatically
.]
mile
▁Cec
▁Ivan
▁Keith
▁Lloyd
▁coins
▁quote
▁finance
▁Governor
▁integration
▁nep
▁Phys
▁robe
▁heroes
▁funding
▁mobil
▁Series
▁trauma
▁graduate
inda
▁coarse
▁Gregory
▁flipped
bey
▁Minn
▁metab
▁bombing
astically
▁sergeant
▁vacation
▁ambitious
▁evidently
▁Conference
▁Throughout
▁celebration
Col
izar
▁Ark
▁Bud
▁ecc
▁Clin
▁knot
▁Pakistan
▁database
▁equation
ci
IES
got
▁Pra
overs
▁Grey
angling
▁Letter
▁Turkey
▁descent
urrection
▁channels
▁membership
ppy
ilst
alism
▁producer
▁attacking
▁variables
▁candidates
▁Fortunately
▁Eld
nesday
▁Hindu
▁Thirty
▁treaty
▁volumes
▁whipped
▁fragments
rastructure
oft
osl
▁AB
iens
apable
▁Thursday
enz
sur
isure
▁Agency
▁attachment
sea
▁COM
▁Cad
▁Ltd
▁prel
igrant
▁deals
▁knight
▁tourists
▁undoubtedly
loc
anas
▁Sue
▁rim
raine
▁Diet
▁Juan
▁Pict
▁arous
▁glare
▁retro
▁wreck
▁Better
▁Louise
▁insane
▁kindly
▁colonies
▁counterpart
▁appreciation
eda
var
houses
▁ambig
▁bloss
▁jumping
▁sidewalk
▁justified
▁realizing
▁varieties
▁BR
▁musc
▁spur
▁angels
▁ethics
▁inadequ
▁prayers
▁Interview
airy
unny
▁Must
▁suck
▁format
▁Majesty
▁satisfy
▁sheriff
▁nonsense
▁suggestions
cery
comed
▁Serve
▁abdom
▁fract
▁slipp
amiliar
▁Stuart
▁exotic
▁nephew
▁intimid
▁attraction
▁BO
▁café
antern
▁bacon
▁jokes
▁Vienna
▁Windows
XX
endix
veled
▁Bond
urrent
▁bucket
▁swords
▁scratch
▁amusement
Rep
bie
▁Ped
ductive
itivity
ructive
▁strode
▁wasted
uffy
▁Made
▁Mons
▁fairy
▁vs
ylon
▁Cop
▁Ric
▁Neil
makers
▁Anglo
▁buttons
▁temples
▁conclusions
▁cargo
▁dusty
▁toast
▁submar
▁Country
▁enabled
▁horizont
▁suspended
▁functioning
▁regulations
▁philosophers
▁Ut
▁Emer
▁declined
▁sweeping
▁rebellion
▁laboratory
auc
▁Ay
riages
▁Notes
colored
▁promoted
▁creativity
▁corresponding
gon
Give
stan
▁Opp
▁atop
▁mamm
▁pilots
▁charity
▁crawled
▁congress
▁bourgeois
▁limitations
▁mathematics
▁representatives
▁bicy
▁prol
uddled
▁Begin
▁Buddh
▁paste
▁mixing
▁integrity
▁signature
rus
▁CR
▁iv
ibli
utors
normal
▁Capital
▁puzzled
▁Illinois
▁fantastic
▁accessible
keys
rawn
wear
▁Conc
▁Gill
▁tilted
▁growled
angs
▁Shan
▁bald
▁draws
▁trash
▁intens
▁makeup
▁theirs
▁thirst
▁verbal
▁couples
▁addresses
▁inherited
▁indication
"),
ieu
sels
▁Find
agging
▁ankle
illance
▁Summer
▁Collins
▁actively
▁dragging
▁continent
▁Uk
▁Vir
▁Gent
▁lied
uality
▁Colin
▁Arnold
▁curved
▁topics
▁complain
▁staircase
▁overwhelmed
▁Trib
▁Linda
▁Malcolm
▁justify
▁radiation
▁Il
▁Tol
ettle
imity
ocity
▁united
▁skilled
▁borrowed
▁implicit
▁fox
venth
▁foul
▁Media
▁unpre
▁mature
▁tasted
▁Vincent
▁shelves
▁assuming
iti
avia
ista
▁substitute
disc
size
untary
▁Evans
▁comedy
▁hissed
▁lesser
▁savage
proof
entive
▁Rosen
▁delic
▁affirm
▁relent
▁belonging
▁investigate
ruff
▁humble
▁boundary
▁displays
▁appearing
rice
▁irony
▁voyage
▁Freedom
▁balcony
▁wishing
▁feathers
▁operated
▁battlefield
.).
▁WAS
▁Amaz
▁acres
▁darker
▁courtesy
▁politically
ALL
Rem
▁VI
news
▁lowest
▁fathers
▁manners
ERV
text
uter
▁Lay
arked
▁posts
ittered
▁crashed
▁threshold
▁collecting
▁pretending
pin
▁Run
▁rod
Great
onies
▁Barn
▁rasp
▁rude
▁embed
▁mascul
▁wildly
▁remembers
▁casualties
fig
▁AF
▁xx
▁gross
▁battery
▁lacking
▁rubbing
▁supplied
▁welcomed
▁succession
oops
rils
▁Salt
▁sect
▁orche
▁catast
▁Archives
▁inferior
▁concealed
▁evaluation
▁exhibition
brid
cott
▁Pam
▁cad
Listen
▁rises
▁Hudson
▁roared
▁Letters
▁matched
**_
▁scrut
▁hyster
▁relate
▁refugees
▁Otherwise
▁Relations
▁Bron
▁Wend
▁Stewart
▁acquire
▁pursued
▁Palestine
▁examining
▁appreciated
▁asc
antry
maker
▁Hong
▁Shaw
renched
▁Duncan
▁casting
▁kissing
▁sinking
▁indicating
ENTS
acker
▁rape
▁groaned
▁painter
▁saucepan
▁agriculture
▁Bald
▁Transl
▁raises
▁reserv
▁trucks
▁mushrooms
LD
iox
ulum
plate
▁boom
▁caring
▁declar
▁Thought
▁handled
▁mankind
▁overlook
▁particles
Sm
Pub
▁ram
▁Dall
▁tops
▁drill
▁punish
▁rhetoric
▁syndrome
▁forbidden
▁technological
bean
▁Rebec
▁hotels
▁compromise
▁supposedly
▁Kle
▁sung
▁Faith
▁crude
▁froze
▁nucle
▁stall
▁Person
▁bronze
▁summit
▁rehears
▁Contents
▁equipped
▁contracts
▁respectively
iph
kers
▁Bod
▁Cru
▁Sex
boards
umental
▁sprang
▁Theatre
▁kicking
▁peasant
▁tempted
▁Language
Ge
chen
ieur
▁bush
▁Geoff
▁pasta
▁Scient
▁amazed
▁slender
▁departed
▁expanding
▁scrambled
▁variations
SP
▁Eug
nergy
▁hatch
▁discom
▁impuls
▁females
ands
▁landl
endment
▁cluster
▁commands
▁professionals
▁Pu
▁ze
seud
▁vib
ateral
▁Click
▁laund
▁framed
▁singer
▁slipping
▁wilderness
App
backs
heard
ocrates
▁exclusive
ré
▁Zen
▁lime
ulative
▁imagin
▁longing
▁Harrison
▁speeches
▁expertise
▁scheduled
▁embarrassment
UD
bris
▁Meg
woman
▁Full
anners
apolis
▁virus
▁terrain
▁cheerful
▁insights
▁treating
▁sexuality
▁manufacturing
EE
▁Mult
▁clan
▁wage
▁candy
▁mines
▁behave
▁campus
▁ghosts
▁nodding
▁swallow
▁Brooklyn
▁railroad
▁popularity
esus
lings
▁Marine
▁attending
bly
▁Wa
▁Obs
▁Magn
▁fuss
▁fraud
▁piled
▁sober
▁oneself
▁revenue
▁eliminate
▁assignment
▁motivation
▁ideological
Dr
▁weekly
▁Leonard
▁disbel
▁convert
▁insects
▁minimal
▁indirect
grim
▁erupt
▁Engine
▁endure
▁exempl
▁junior
▁stocks
▁dangers
▁drivers
▁Berkeley
▁Hoo
▁Sull
▁epic
▁oral
▁fried
▁adjusted
▁preoccup
▁supports
▁Sig
▁bind
▁lump
▁recl
▁bloom
▁blamed
▁ragged
▁thrill
▁bullets
▁salvation
▁Fra
ortions
▁smoked
▁matches
▁obscure
▁snorted
▁descriptions
ARY
▁Bear
▁tones
▁vitamin
▁hi
▁Sic
storm
▁haul
▁Logan
▁posed
itching
▁traced
▁seventh
▁programme
▁EN
alie
oise
uish
arson
eting
▁Cart
▁sarc
▁Pearl
▁arrows
▁sounding
▁splendid
▁classroom
▁initiative
▁Wag
▁suitc
ailable
▁Valent
▁Ancient
▁transmitted
Bet
rene
▁demons
▁fragile
▁volunteers
▁straightforward
dep
gue
rary
rock
▁Scar
▁Side
▁farms
arrison
▁traits
▁annoyed
▁fingert
▁criteria
▁grinning
▁struggles
▁surroundings
▁evac
▁risen
▁wines
▁Watson
▁inward
▁Conserv
▁Together
▁momentum
▁worrying
mitt
▁Fest
▁coup
▁dash
redict
▁booth
▁unders
▁sailing
▁musicians
▁confronted
pdf
▁Ult
inced
▁goat
▁scal
▁Stein
▁trains
▁disturbing
OUN
sub
type
iping
plant
▁bass
▁lens
▁Czech
ulatory
▁Senator
▁interpreted
ilem
ollen
▁Game
▁Crown
▁fatigue
▁economics
▁invention
ths
▁mit
▁rats
▁yoga
▁medic
▁bushes
▁gazing
▁locate
▁frontier
▁Democrats
▁authentic
▁regulation
inus
oner
pose
▁Bent
▁implies
▁heritage
▁honestly
▁Gran
▁Noah
▁Gerald
▁hugged
▁incons
▁leaped
▁parted
stration
▁Rebecca
▁conceal
▁resumed
▁Wednesday
▁commanders
▁exclusively
▁nu
▁ow
beit
▁Ack
gener
▁Bird
▁Text
▁soda
orship
▁Betty
▁entity
▁Getting
▁Magazine
▁integrated
▁mainstream
oys
▁bob
▁deputy
▁editors
THE
▁IP
▁Emb
People
▁Miles
▁pizza
▁almond
▁bewild
▁samples
▁accuracy
▁crouched
di
▁EX
▁Ple
▁blog
▁Shell
▁penal
▁flushed
▁genuinely
▁emotionally
▁apt
IGURE
▁Late
▁Beaut
▁Eliot
▁feast
akening
regular
▁escort
▁plague
▁retail
▁Whenever
▁rejection
▁righteous
▁journalists
Ber
chi
opt
umer
etary
▁cush
▁Above
▁Oscar
▁nursing
TA
aga
igo
▁Nation
▁solely
▁implied
▁tickets
▁restricted
▁disgr
▁blades
although
▁appoint
▁driveway
▁excessive
Life
bian
▁pic
▁vom
▁fits
▁hedge
▁veins
▁anchor
▁cinema
▁manual
▁mouths
▁Somehow
aired
▁Read
▁obey
▁quart
▁Harvey
▁Raymond
▁prolong
ictionary
▁contacts
▁festival
▁thoughtful
▁interviewed
▁transportation
Hi
wy
gus
▁Mes
▁Sau
▁Viv
▁bury
▁matt
▁reviews
ufficient
▁chairman
▁reminder
▁practition
rowth
▁Writ
▁sack
Donald
▁disappro
▁ambassador
▁statistics
avior
▁cann
ignant
spring
▁Sweet
▁creep
▁globe
▁prose
▁advers
▁fantas
▁Officer
▁diplomatic
▁obligation
▁revelation
▁bolt
▁owed
▁Bring
▁Feder
▁evenly
▁patted
▁tourist
▁withdrew
▁audiences
▁fortunate
orns
▁mouse
▁gravel
▁discipl
▁dispute
▁engineers
▁hierarchy
▁controlling
▁orientation
coat
▁sins
urated
▁posted
▁Collection
▁coincidence
▁immigration
▁hull
▁rocky
▁Seeing
▁flowed
▁restra
▁lasting
▁freezing
▁infrastructure
nty
▁Ku
avan
mouth
ollar
▁Claud
▁Spart
▁blunt
▁smells
▁taller
▁Dorothy
▁leisure
▁Kir
▁sire
▁traces
▁thanked
▁unnecessary
Dec
inis
quin
▁Ned
▁WITH
▁raid
▁agony
▁twins
▁Venice
▁goddam
▁wonders
▁disagree
▁dreaming
enne
▁tan
About
▁heel
▁judged
▁eyebrow
▁lantern
▁appetite
▁monaster
▁Mam
▁mun
▁Fish
▁verb
▁Money
▁Sebast
▁widened
▁reflecting
▁seventeenth
▁consistently
▁mim
inged
▁Lion
entric
olation
▁Number
▁farming
▁outline
▁Technology
Os
fin
▁Gh
▁Ask
▁loft
itness
▁persec
anchester
▁modified
▁reinforce
pos
▁Veg
▁rug
▁dive
▁fees
▁fiber
▁Hughes
▁hunter
▁stance
▁Michigan
▁Community
▁reproduced
More
rise
▁Got
▁Hou
▁Saf
gress
udged
▁spit
▁tire
filled
millan
▁Austin
▁Chamber
▁vampire
ironments
▁chemicals
▁illustrated
vised
▁mour
umbers
▁suite
▁votes
idegger
▁bubble
▁uneasy
▁strings
▁imaginary
Ann
isha
▁Mao
actic
▁Rail
▁foss
▁Nazis
▁genre
▁salmon
ifference
▁definite
▁organize
oup
amine
▁Quinn
▁aging
▁brisk
▁opponents
▁Abd
▁Las
▁swore
▁analys
▁founder
▁perceive
je
log
ateur
nings
▁ibid
estone
omeday
▁Quick
▁conced
▁thesis
▁Solomon
▁renewed
▁prompted
▁establishing
cat
oux
ousse
liness
▁blows
▁flatt
▁orbit
▁Argent
▁dreadful
▁likewise
▁finishing
▁worldwide
▁conspiracy
DS
▁GR
isan
▁Cup
▁haw
▁mum
print
izable
▁sadly
▁Ernest
▁mining
▁realistic
iov
▁sandw
▁vocal
▁Slowly
▁Ottoman
▁devotion
▁payments
hea
▁Gor
▁Price
▁drowned
▁smashed
▁decisive
▁fraction
▁sciences
▁unwilling
helle
ignty
▁reun
▁gloss
▁grill
▁shifts
▁Spencer
▁biblical
▁Republicans
▁umb
▁Khan
▁Pour
bourne
namese
umatic
▁clung
▁fisher
▁applies
▁diagram
▁Movement
▁drawings
▁secretly
▁transmission
Comm
dale
kets
▁maj
▁Roth
PubMed
▁Krist
▁Angela
▁Jeremy
▁cinnamon
hh
oks
▁dorm
▁nods
health
▁Craig
▁artif
▁pharm
western
▁acquis
▁attain
▁fridge
▁Jacques
▁applying
▁youngest
▁motivated
▁terrorist
▁corporations
;_
CP
▁Deb
athed
▁Papa
▁asset
▁sizes
▁Knight
▁Inspect
▁reminds
▁designer
▁experiencing
mil
ulu
anton
▁Bene
▁Kell
▁whip
▁Islands
▁colonel
▁downward
▁murderer
▁exploring
▁helicopter
▁liberation
▁Map
Those
ummer
utable
▁ineff
▁loans
▁heroic
▁wander
▁fitting
GB
asi
both
girl
lain
▁pled
▁rejo
▁align
▁stems
▁Austria
▁mentally
▁theology
▁machinery
▁strangely
ANT
airo
▁Bul
amous
ishly
▁gains
▁intrig
▁Clearly
▁stained
▁accessed
▁sovereign
hu
fil
wal
ilant
General
urities
▁Fisher
▁debris
▁summar
▁Univers
▁vaguely
▁gestures
▁convincing
Car
erals
▁Path
▁Appro
oi
▁hay
could
▁Syria
▁roses
▁Disney
▁removal
▁resigned
▁anonymous
▁industries
HER
ITY
...."
▁nearer
▁poetic
otherapy
▁retained
PL
iane
▁bou
Oxford
asters
commun
▁baked
▁robot
respect
▁apprent
▁travels
▁Muhammad
▁engaging
▁campaigns
andra
▁claws
▁monks
▁socks
▁stays
mentary
▁greens
▁warrant
▁refusing
din
len
osom
resa
▁Curt
▁Foot
▁Poet
▁Poly
▁pretended
▁hesitation
▁Ax
▁Cob
▁awe
itious
▁Clara
▁paras
▁rabbit
rational
▁Defense
▁notions
▁portfol
▁operator
▁settling
▁conversion
▁monitoring
rape
Could
alted
guard
▁Gate
▁bases
▁grated
▁soaked
▁compelled
Cap
ruit
insula
▁attach
▁elbows
▁towers
▁Einstein
▁observing
▁reasonably
ril
shit
▁emp
table
▁Week
▁scor
▁toys
iquity
second
▁Olivia
▁Truman
national
▁monarch
▁stressed
▁policeman
▁identifying
▁surveillance
▁administrative
roe
lace
nuts
▁cows
▁inval
quisite
▁phones
▁sunset
▁tricks
▁comrades
▁strained
▁Convention
▁Vietnamese
▁frightening
▁associations
gil
yon
week
store
heimer
▁Wells
▁shrie
▁reflex
CrossRef
▁grasped
▁flashing
cap
▁nurses
ittering
▁Holland
▁drunken
▁legitim
▁multipl
▁empirical
▁considerations
great
▁antib
▁sends
▁digest
▁rooted
▁motives
▁glancing
▁moonlight
mid
wart
▁Mort
▁Nash
▁carr
▁lent
▁league
▁tugged
▁yelling
▁temporarily
omas
▁peer
▁Chron
▁filed
▁linen
▁deemed
▁voters
▁streams
▁Services
▁matching
▁stealing
▁evolutionary
▁Ec
▁soy
▁cope
▁ambul
lements
▁freeze
▁passive
imensional
▁compelling
OOD
▁ecst
▁meets
▁shudd
▁Dublin
▁Violet
▁shakes
▁conclude
▁associate
▁encouragement
Cent
▁fragr
▁stark
ournals
reement
▁Random
▁intric
▁poorly
▁melanch
▁unaware
▁clutching
▁terrifying
▁importantly
conf
▁ampl
ancial
▁Dennis
▁Fourth
▁scanned
▁summary
▁Interest
▁electron
▁deliberate
ulin
▁icy
glass
▁bees
▁repr
▁Diego
▁breed
▁troop
▁Marian
▁solved
▁Against
▁Ministry
▁blankets
▁unfamiliar
▁performances
▁MP
▁whit
▁crest
▁siege
▁motive
▁rumors
▁transf
munition
▁neglect
▁darkened
▁ignorant
▁peasants
▁disciples
▁foundations
ELL
wyn
efin
Three
▁Buff
▁anat
▁burial
▁parade
▁sticky
▁spilled
▁desirable
▁promotion
Da
kyo
▁Ju
Fine
avin
Jesus
https
▁crad
▁Check
▁tearing
▁solitary
▁discomfort
▁enforcement
▁BL
ouri
▁Body
▁void
▁Parad
▁Swiss
▁Milton
▁liquor
▁static
▁Process
▁recalls
▁rituals
▁nineteen
▁Oak
▁mol
▁Beau
▁vend
▁dwarf
▁resembl
ependence
▁flexible
▁fireplace
_?
▁.'
----
▁epit
▁Centre
▁Murphy
▁checks
▁compete
▁savings
▁vicious
▁depended
nia
▁Hab
▁toe
▁grid
▁nail
screen
▁tennis
▁virtues
▁weighed
▁Colorado
▁adjacent
▁Hus
▁Lud
▁Pel
adium
▁Pull
▁boost
▁fetch
▁Future
▁Standard
▁calories
▁Literature
km
▁Haz
▁esp
▁Gand
▁tens
soever
▁duration
▁inflation
ECT
▁IM
folk
grat
▁crum
▁Champ
▁airpl
▁torch
▁shirts
▁defining
él
▁vo
ugar
▁pee
iances
▁hears
▁peers
▁Quarter
▁murders
▁screams
▁brightly
▁casually
▁invested
▁predomin
▁ministers
▁preceding
count
▁Didn
▁Fear
▁Ruby
spoken
▁trump
▁vault
▁frames
▁Imagine
▁Brothers
▁Jennifer
▁instincts
▁indigenous
▁Few
▁Fou
▁Lor
▁clip
▁lend
▁fails
▁wrists
▁destroying
▁enthusiastic
▁preparations
AST
uli
anqu
▁dun
▁yog
blood
lined
▁padd
▁Ethan
▁Tyler
▁Watch
▁crawl
▁immun
▁velvet
▁volcan
▁Antonio
▁objectives
renn
▁Raj
otype
▁Band
▁heter
▁Really
▁filter
▁laughs
▁locals
▁precip
▁Writing
▁faculty
▁autonomy
cal
▁PC
rams
▁civ
▁plum
▁shaken
▁watches
▁Actually
▁advances
▁Heidegger
▁extending
▁measuring
iko
why
quer
▁hut
thood
▁Exec
▁Goth
▁Perry
▁cease
▁daring
Something
▁printing
▁travelled
▁commentary
▁satisfying
▁expectation
parents
▁intake
▁quantum
▁promptly
▁snatched
▁directors
mi
ndon
▁Ages
▁airl
▁math
▁slam
▁Baron
▁brace
▁bishop
▁routes
ribution
▁softened
▁Especially
▁controversy
▁environments
▁Jar
imson
▁Brid
▁Arabic
▁differ
▁notably
▁phrases
▁Environment
▁exploration
uy
▁Chi
▁Tel
▁Upon
▁ropes
▁noting
▁declare
▁sickness
▁Obviously
▁violently
▁ammunition
▁scholarship
blue
etti
grand
▁saus
▁vols
▁floated
▁parsley
▁whistle
▁addressing
fat
▁maxim
▁multi
▁glances
▁heavens
▁visions
▁deciding
▁employer
▁activists
▁innocence
▁compliment
](
jan
onge
ymph
raged
▁Mist
▁jazz
▁lapt
▁schem
▁toxic
▁Village
▁sunshine
▁subjective
gi
▁Gri
▁Nine
▁monk
▁Wayne
▁hauled
▁backing
▁notable
▁Administration
IB
cond
▁Hey
▁cyn
▁Todd
▁junk
▁lazy
loaded
▁vigor
Art
Eng
▁CL
elli
orable
▁Lower
▁Sandy
▁cakes
▁Yellow
▁unfair
▁density
▁favored
▁gleaming
▁intimacy
▁magnetic
▁socially
▁nervously
▁Bh
▁Burg
▁Yeah
course
▁Daisy
ciously
▁Kansas
▁Consequ
▁talents
▁whiskey
▁factories
▁temperatures
Brit
illo
▁tag
▁Berg
arring
wright
kerchief
▁binding
▁harness
▁posture
▁constitu
▁embedded
▁meanings
▁emergence
▁beautifully
ICE
aro
bad
sole
▁lane
▁porn
▁Cohen
▁bells
▁beasts
▁lively
▁rocket
▁Affairs
▁delayed
▁willingness
ovich
owski
▁Prim
▁flip
▁wipe
▁scrib
---|---
▁battered
▁formally
Sch
cht
opl
half
icky
powered
▁Carlos
▁cautious
▁diabetes
▁sometime
▁staggered
urb
plan
▁lav
▁Pent
▁Sold
▁Liver
▁leapt
abulary
▁coastal
▁hastily
▁Constant
▁calendar
▁spectrum
▁appealing
▁imagining
rah
elta
▁Appl
▁fanc
▁limp
▁nurt
inners
resist
semble
▁Title
▁canal
▁roast
▁Norton
ennessee
▁protests
▁constitute
▁Corporation
▁astonishing
▁understands
▁Organization
abel
hall
▁Bang
▁herb
▁Fifth
▁Tokyo
▁crush
▁modes
▁venge
ighting
appropri
▁doubled
▁shocking
▁beneficial
▁reinforced
icia
cling
▁Homer
▁Index
▁Katie
▁Justin
▁Revere
children
▁adapted
▁champagne
▁anticipation
.;
dem
uru
Keep
eler
▁Sem
▁broth
▁norms
▁invari
▁Jessica
▁screens
▁teenager
▁connecting
Out
▁ethn
▁ming
akened
intage
▁Raven
▁Sleep
▁prick
▁Energy
▁cloves
▁humili
▁poster
▁shouts
▁carrier
▁millenn
▁Cultural
▁replacement
▁universities
cf
conn
gard
▁mug
utter
▁yawn
advant
▁juris
▁unions
▁segment
▁cemetery
▁tracking
▁acquaintance
én
ryst
▁Sym
▁Tow
stead
▁dual
▁Records
▁conform
dia
▁nit
▁dent
▁stain
amation
▁haunted
▁jewelry
▁laundry
▁skillet
▁clutched
▁fundament
▁commanding
▁designated
Gl
▁rip
▁seg
▁Lanc
▁boiled
▁eagerly
▁guarded
▁dynamics
▁legendary
▁therapist
KE
IDS
ogan
otta
robe
▁Rol
▁gul
▁Zion
▁brew
sembly
▁bizar
▁trails
▁Anything
▁competing
▁producers
▁circulation
UC
ilib
▁Gun
▁cement
▁feminine
▁quantities
dig
ilda
math
pers
▁Hunt
▁Kiss
▁fier
▁Carib
▁reapp
▁bargain
▁garbage
▁inability
▁strongest
▁provisions
?—
amas
▁Hills
olutely
▁Dragon
▁rebels
▁scales
▁colours
▁publish
▁passport
obiography
▁confessed
▁qualified
Uh
Sec
▁Kel
▁dod
▁rou
insky
▁orch
▁proc
▁Edmund
▁Usually
▁swollen
▁civilians
▁investments
UE
amy
▁Abs
integ
▁ench
iscons
▁aller
▁lamps
▁obliv
covered
▁bundle
▁gaining
cm
▁Mend
▁unch
▁seeks
▁coward
▁grains
function
▁formerly
▁greeting
▁contradict
▁permanently
▁handkerchief
▁discrimination
opard
▁Dale
▁smugg
inburgh
▁Wagner
▁essays
▁overseas
▁Mountains
DP
REE
▁Duc
▁kit
aline
asser
▁Stre
school
▁Horse
▁nause
▁denial
▁wolves
▁elevated
▁Routledge
▁apologize
aque
▁Poll
▁Seth
arians
▁codes
compass
▁psychic
▁hardware
▁regiment
▁prosperity
▁demonstration
nish
▁epid
▁panc
artime
▁Burke
▁traders
▁Broadway
▁satellite
▁accurately
War
pron
▁Imm
▁Soul
idency
ometer
▁Action
▁Joshua
▁Detroit
▁veteran
▁respects
▁severely
▁shipping
▁Baltimore
▁retreated
▁complaints
▁requirement
bohyd
▁Pruss
portant
▁subsid
isconsin
▁Religion
▁depicted
▁requests
▁twisting
▁complaint
▁confession
alg
▁Kit
▁Rat
▁ech
▁barr
▁remn
▁Anyone
▁Everybody
▁parameters
▁accommodate
▁resemblance
';
aude
chem
▁Eden
▁ripe
rative
▁Chance
▁salary
▁dripping
▁generals
▁moisture
Des
Too
say
▁Ign
▁Ton
▁cyl
▁Edgar
▁tipped
oriented
▁Private
▁plunged
▁seasons
▁hospitals
▁socialist
ean
axon
▁Tab
▁Days
▁pean
▁prow
History
▁flicked
▁speakers
▁DO
▁MS
▁orn
heres
▁Prom
▁ashes
▁Jackie
▁Seattle
▁admission
▁whatsoever
sim
icus
osph
▁Sor
▁mes
▁sab
▁nort
▁gotta
ickered
▁Apollo
▁cavern
▁paradig
▁Katherine
▁intervals
▁slaughter
lon
▁Sit
asive
▁hamm
▁plac
▁dilem
itations
▁Marines
▁costume
▁cousins
▁prophet
▁superst
▁incidents
▁fascinated
▁transparent
VER
iden
▁Devil
▁Sciences
▁editorial
▁photographer
.-
▁EM
heads
ivism
oused
ysics
▁Jill
▁bisc
▁guer
▁limb
control
▁packet
▁puzzle
▁chasing
▁worries
mentation
▁terminal
▁Tennessee
▁emphasized
dad
▁Alt
▁lyr
▁tyr
roads
▁Hein
▁nour
enders
▁monop
▁gospel
▁multip
▁vacuum
▁dresses
▁Stanford
▁observer
▁restless
▁proposition
')
RS
▁''
▁Film
▁Resp
▁dump
achers
▁Felix
▁Olymp
▁Amanda
▁Johann
▁bodily
▁Socrates
▁discount
▁marginal
▁stunning
▁expressing
▁controversial
bank
▁Suz
oline
▁Chase
▁Cliff
▁Dante
▁swell
▁strand
▁eternity
▁gorgeous
▁smallest
▁improving
▁precision
Sat
▁Fu
Miss
idan
▁Mey
▁Raw
▁ruth
▁shine
igation
olester
perhaps
▁relied
▁praying
▁refusal
▁bake
▁syll
▁tart
ilight
prints
▁deepest
▁fearful
▁mansion
▁Europeans
▁preference
▁systematic
▁Palestinian
Tom
iop
imen
wife
▁orph
except
▁knuck
▁rever
▁Atlanta
▁consensus
▁repeating
▁appearances
utic
▁BBC
▁Sud
▁Vas
▁Otto
▁fren
▁ingen
▁scare
▁Select
▁Cameron
▁affects
▁defended
▁remarkably
▁restrictions
▁Kam
▁Doug
▁cane
▁carc
▁touches
▁exhaustion
Aye
supp
▁Gay
▁Sin
▁ost
arled
ijing
▁Baby
▁crap
▁saint
quality
▁Travel
▁glimps
▁winner
iversary
▁asserted
▁irregular
▁obstacles
▁sandwiches
uese
▁Esc
▁Kor
▁Lis
cence
▁Troy
▁cares
▁congrat
▁outdoor
▁memorial
▁medication
oyle
▁Hig
▁Oil
omous
▁aims
▁dazz
▁dose
▁pots
▁Bloom
▁dispar
▁metres
▁spices
ensively
▁peripher
▁pursuing
▁migration
bird
▁Viol
▁Buddhism
▁explored
▁Inspector
▁shuddered
▁volunteer
▁fingertips
▁responding
▁RO
▁Fern
▁stamp
▁waiter
▁illumin
▁detected
▁resisted
▁settlers
▁resentment
▁operational
him
▁eh
▁eyed
▁Treas
▁coord
▁escal
▁pains
▁pinch
▁drifting
▁evenings
▁corrected
▁publicity
▁Lock
▁Lost
outing
▁injust
▁joints
▁varying
▁diameter
▁temporal
▁pleasures
▁Depression
▁announcement
Cor
cro
mel
too
Most
▁Nut
▁bias
▁herd
▁subsc
▁histories
▁incorporated
ghed
rave
▁YOUR
oulder
▁Ellis
▁usage
▁yeast
▁Altern
▁yanked
▁clicked
▁pavement
▁surfaces
▁apprehens
uri
helm
▁Dod
▁Wang
▁burnt
▁unbel
▁angles
▁barbar
▁grunted
▁backwards
▁persistent
▁sovereignty
▁explanations
▁Bee
▁Lex
idity
▁Plus
idable
▁arena
▁merit
▁ankles
▁energet
▁husbands
▁shivered
▁superiority
▁Nan
▁pel
▁Luck
▁float
angular
otional
▁surgeon
▁Learning
▁Detective
▁Macmillan
▁practicing
▁productivity
hum
educ
prof
▁glac
▁Fleet
▁Upper
▁robes
▁bitterly
▁possessions
▁speculation
iri
▁Ko
lies
requ
▁Lan
▁Dest
▁Nina
▁Saud
▁Theo
▁crews
▁excav
▁Ronald
▁debates
▁marching
▁smoothly
▁adventures
▁outstanding
stop
court
▁Wald
▁monst
▁upside
▁Richmond
▁astonished
▁linguistic
▁travelling
▁exceptional
ERE
Mrs
vor
acer
vous
▁Janet
▁divor
▁angrily
▁relating
▁collections
▁measurement
▁territories
▁NAS
their
▁membr
▁expend
▁grocery
▁receiver
▁uniforms
▁whispers
▁proclaimed
VD
▁CT
bach
iami
ostic
▁hats
▁veil
▁Paper
▁absorb
▁counts
▁fading
▁valued
ographer
▁bridges
▁headache
▁defending
▁treatments
fu
▁LA
lett
▁Jun
▁Mans
▁startling
▁horizontal
TY
agu
▁Mis
▁Sep
etics
▁Tele
▁ally
▁envy
▁enlar
▁parch
▁pills
▁knives
▁terrace
▁tribute
▁weeping
▁fortress
▁disbelief
▁processor
▁disappoint
▁BY
▁ly
azar
orie
▁nob
▁wary
venant
▁Brain
▁bliss
▁polar
▁Harbor
▁outfit
▁prints
▁rented
▁chickens
▁withdrawal
▁respectable
▁organizational
asis
inqu
▁ski
icker
olshe
▁peaks
▁Account
▁wretched
▁traditionally
MA
adi
prot
skin
third
▁cant
▁Model
▁Dallas
▁dialog
▁rulers
▁truths
iability
▁bizarre
▁perched
▁shudder
▁feminist
▁inviting
▁organisms
▁consistency
▁specialized
.*
_?"
avi
prom
▁los
▁Cand
▁Gram
enberg
▁circled
▁flooded
▁sweater
▁Analysis
▁neglected
▁inheritance
Mon
▁fri
▁sunny
ivities
▁Bright
▁hooked
▁ideals
▁Harriet
▁Portuguese
▁Sound
▁rebel
▁safer
▁processed
▁politician
▁Confederate
▁reluctantly
dec
▁chip
▁grie
▁sauc
▁flown
▁ranch
▁throb
▁recruit
▁deployed
▁politely
▁remainder
▁organizing
▁positively
▁accordingly
▁CEO
▁Hank
▁solo
▁Across
▁arises
▁chapel
▁facial
▁targeted
ounge
▁Barr
▁adul
retion
▁Brigade
▁Gilbert
▁discont
▁classified
▁respective
▁verd
utives
▁Leave
▁Quest
▁panels
▁earthqu
▁Reverend
▁Transfer
▁consolid
▁protocol
▁estimates
▁accordance
▁capabilities
Hel
open
opic
oter
utton
▁heap
▁parks
▁chorus
▁harass
▁pinned
ublished
▁Maurice
▁reforms
▁colorful
▁conquest
▁Manchester
Oct
yan
oots
▁blues
▁blonde
▁clinic
▁shorts
ductions
▁viewing
olesterol
▁blocking
▁determin
ancers
elcome
▁Cuban
▁grape
▁choked
▁Indiana
▁destined
▁meanwhile
▁resembled
▁accounting
▁declaration
ept
▁Dew
▁Kap
▁luc
grown
illon
inence
▁tires
▁tract
▁expose
▁goodbye
▁infected
▁assassination
cart
▁dip
erers
might
pherd
▁vacc
▁Leslie
▁carrots
▁talented
▁justification
▁implementation
▁>>
▁Tu
atra
comm
▁Ach
▁Wool
▁flank
▁laptop
▁handing
▁forgetting
▁Rice
▁sunk
udging
▁Storm
▁hesit
ecticut
emption
▁noises
▁mustard
▁provincial
▁collaboration
Aug
haw
▁Kra
redit
▁Vern
▁zomb
itutes
▁melod
ocratic
▁filthy
▁robust
▁spouse
▁planets
▁seeming
▁slumped
▁spatial
▁entities
▁failures
▁subordin
▁biography
▁destructive
▁Own
▁pam
stood
▁plural
▁Hopkins
▁exhibit
▁commerce
▁Wisconsin
▁addiction
▁architectural
edu
▁Dyn
arthy
ettes
vance
▁Kurt
▁Pink
▁mirac
▁pyram
▁cannon
▁clergy
▁draped
▁pastry
▁sights
▁symmet
oneliness
▁ministry
▁Sebastian
atha
inate
ogene
regon
▁Born
▁Butter
▁discern
itzerland
▁Standing
▁holidays
▁nostrils
▁Caribbean
▁ambulance
▁devastating
mus
▁ml
▁Daw
▁aug
apore
phones
▁stabil
▁Channel
▁monthly
▁punched
▁elephant
▁disadvant
▁negotiate
▁exaggerated
hart
leen
levant
▁hosts
▁spared
▁endured
▁labeled
▁sniffed
▁winding
▁cocktail
▁spectacle
▁warehouse
▁partnership
olia
▁nic
CTION
▁Arabs
▁ports
▁Houston
▁proudly
▁enhanced
▁lectures
▁objection
▁teachings
▁transaction
IAN
Mad
Damn
▁Lac
▁Mol
▁logs
lihood
▁Powell
▁utility
▁fountain
▁treacher
▁prospects
▁whispering
▁constituted
mal
▁Dim
isers
▁voted
▁Nether
▁eighth
▁happier
▁peering
▁adoption
▁incapable
aby
eted
▁Tai
orthy
▁Lamb
▁prud
▁grams
▁tents
iblings
ipation
▁dipped
▁enters
▁arrives
▁longest
▁tapping
▁founding
▁realities
▁exceptions
▁inspection
,—
?"_
flies
inges
▁kidn
▁tant
▁coats
▁crumb
▁Butler
▁pardon
▁conquer
▁missions
▁intermedi
▁provinces
▁Ps
Book
weed
▁Reed
▁Ridge
▁deeds
prising
▁extrem
▁lining
▁Knowing
▁rewards
▁scanning
▁hostility
▁Publishers
▁programming
▁acids
▁enact
▁pools
▁volat
ascular
▁Rogers
▁banking
▁bending
▁portfolio
▁successor
!)
▁XV
ools
▁enl
cross
▁Walt
▁smok
ouched
▁bowls
▁guides
▁tradem
▁flights
▁imagery
▁stacked
▁situated
▁nutrition
▁behavioral
▁forgiveness
Res
flu
nell
urdy
▁Calvin
▁Commer
▁whilst
▁actress
▁shotgun
▁breeding
▁decrease
▁sixteenth
▁invariably
card
▁MAR
▁Magic
▁intest
▁refined
▁Louisiana
▁cultivated
▁obligations
Tw
try
cock
stock
▁Nell
▁dome
▁mint
▁toll
dollar
enance
▁Salad
▁insec
▁Easter
▁Foster
▁indisp
▁needing
▁tangled
▁intuition
dimensional
▁narratives
▁determining
ICK
urry
▁poo
ilian
hester
▁wrath
▁ducked
▁racism
▁trends
▁sleeves
▁squares
▁warming
Everything
▁Augustine
▁messenger
▁melancholy
▁overlooking
.[
END
bin
▁Iss
▁radar
tically
▁Sweden
▁biology
▁enables
▁maneuver
▁dissolved
▁interface
▁parchment
▁identities
▁illustrate
▁photography
▁independently
vag
▁CP
abama
▁Pant
▁Award
▁Heath
▁Kitty
▁Venus
▁flush
▁exasper
amination
▁monsters
▁steering
▁inequality
ORE
▁PE
vial
zzle
▁Mong
▁Team
▁handy
▁mourn
▁pseud
▁Amazon
Whatever
▁Assembly
▁Sullivan
▁earnings
▁gambling
▁offended
▁mortality
▁Connecticut
▁indifferent
▁unfortunately
SR
abe
Love
▁ben
▁wag
ockey
▁unle
▁Drive
▁Phoen
▁Bennett
▁Kentucky
▁Practice
▁sexually
▁chemistry
▁thereafter
▁illustration
▁Dak
▁Crus
▁Delhi
▁Satan
▁dashed
▁quarrel
▁teenage
▁boarding
▁criminals
?)
Jew
UST
zona
▁cav
▁Stop
▁beck
author
▁aisle
▁galax
▁tenth
▁certific
▁mattress
▁Switzerland
▁nationalism
▁confrontation
BL
emade
▁enzy
▁lace
▁ferry
▁peril
original
▁begging
▁intrins
▁reserves
▁formidable
▁temptation
▁Eli
▁pigs
▁riot
ivable
ouring
iminary
uations
▁Conrad
▁Beijing
▁awarded
antically
bot
▁Gy
▁Horn
▁Kill
▁Radio
▁locks
▁squir
▁wires
umbered
▁Custom
▁Sylvia
▁senator
▁hesitate
▁mechanics
▁embarrassing
gom
than
Paris
erton
▁duke
ocaust
▁assim
▁breaths
▁hunters
▁Regiment
▁barriers
▁configuration
rip
ando
ocus
izzie
ricia
▁Sche
veland
▁Serge
▁plaus
▁superf
▁mumbled
▁tropical
▁guidelines
▁citizenship
▁perspectives
▁reproduction
Red
nex
▁vow
▁Bapt
▁Locke
▁rider
▁sworn
ourable
▁shades
▁stares
cedented
▁abundant
▁abundance
▁algorithm
▁cautiously
▁encounters
▁Kaz
▁disd
▁unim
▁thief
▁dumped
▁verses
▁Winston
▁Operation
▁privately
▁religions
FF
Fl
itus
▁Cel
▁Eva
▁bump
▁cute
▁morn
hetics
▁Apart
▁Naval
▁Squad
▁seize
▁cellar
▁cliffs
▁nicely
▁occupy
▁stroked
▁wartime
▁encompass
▁offspring
▁scratched
▁aggression
▁intellectuals
Ro
Bri
▁SA
▁Brah
▁Evan
▁Jude
▁rays
▁Adrian
▁atomic
▁grapes
▁kidding
▁someday
itionally
▁Maryland
▁sanctuary
▁presenting
flow
allic
▁sage
▁Lenin
▁Vegas
▁Hoover
▁fertil
▁backyard
▁deserves
▁discreet
▁psychoan
▁punished
▁specified
▁Nonetheless
▁Grad
▁Kyle
▁Pret
▁Reyn
▁VIII
icipal
▁linear
▁frantic
▁Theodore
▁inserted
▁passions
▁portions
▁promoting
agus
leys
▁Vic
▁Hamp
▁Chuck
▁Fresh
▁Store
▁petty
▁riders
▁Kenneth
▁realise
▁opposing
▁planting
▁executives
▁proceedings
cul
upon
▁Bir
▁err
▁muddy
▁Compan
▁depict
▁tribal
▁communist
▁nutrients
▁guaranteed
▁"[
▁mm
▁tsp
▁Nath
inkling
without
▁serial
▁envision
▁Represent
▁projected
▁repetition
▁compensation
NE
urst
xton
▁Sed
▁disl
▁gaps
▁stif
iantly
itcher
▁epist
▁flock
▁picks
▁charts
▁submit
▁Mission
▁condemn
OUT
▁Mix
stant
ultan
▁clam
▁coffin
▁cracks
▁scroll
▁balloon
▁deterior
▁noticing
▁ordering
▁battalion
▁positioned
▁reassuring
▁vocabulary
▁flexibility
▁sensitivity
▁achievements
hor
also
▁gam
▁Cort
▁puff
akable
taking
▁Large
▁adren
▁slack
Chicago
▁dagger
▁skinny
▁titled
▁fellows
▁offense
▁signing
▁siblings
▁entrepreneur
GH
▁PA
▁Type
▁prone
▁queer
▁width
▁impose
▁packing
▁stagger
rys
emit
▁rue
▁Tree
▁ample
▁groom
▁rally
▁wield
▁Season
▁crunch
▁wallet
▁Dickens
▁Sherman
▁mirrors
▁patches
ropolitan
▁outlined
▁telegram
▁veterans
▁requiring
▁likelihood
▁problematic
aca
into
rians
uffle
▁Hugo
▁frog
▁wept
▁horns
▁potent
▁cooling
▁sensory
▁interfere
fif
imb
▁Byz
▁ger
▁jog
▁Shir
length
▁Close
▁Palmer
▁tattoo
▁Already
▁berries
▁shuttle
▁disguise
▁disposal
▁comprehend
▁containers
▁distraction
▁alternatives
▁representations
▁Rou
▁som
▁Name
▁Poss
▁sexy
penter
▁cigar
▁reins
▁Shadow
▁fights
▁pissed
▁bankrupt
▁informal
▁breakdown
▁champions
▁villagers
▁distinctly
tor
▁Jed
doors
▁PART
former
wealth
▁Penny
▁Riley
▁beams
ameless
▁Proper
▁clinging
▁constraints
omo
esota
▁Mann
▁brandy
▁cherry
▁curves
▁insign
▁kisses
ilibrium
▁embassy
▁perfume
▁Missouri
▁Edinburgh
▁flashlight
ML
Ant
loe
▁Ont
iries
month
▁Madd
▁SERV
▁dusk
▁narc
urious
▁scarf
▁Porter
▁Network
▁hurting
▁muffled
▁propose
▁sympath
▁urgency
▁grabbing
▁achieving
▁advancing
▁inadequate
emp
▁dy
▁Yor
again
▁quad
▁noisy
▁compat
▁harmon
▁dialect
▁missile
▁recognised
▁complaining
'_
vid
▁Ja
urred
▁foam
▁shri
▁Cloud
▁recre
▁Oregon
▁spider
▁uttered
ede
▁ONE
adays
words
▁bean
▁hipp
▁loaf
▁oils
▁Agric
▁Leban
▁oddly
▁Bailey
▁minced
▁postwar
▁praised
▁sincere
▁communal
▁threaten
▁subjected
▁compartment
TO
Jan
owa
voc
▁piv
icals
▁Base
ifting
▁Miami
▁eloqu
CHAPTER
▁cowboy
▁console
▁tumbled
▁Monsieur
▁enclosed
▁energies
▁apparatus
▁grandparents
▁Enlightenment
hon
▁pays
▁tech
arming
▁Honor
▁piles
▁monkey
▁Turning
▁bicycle
▁concess
▁threads
▁sparkling
▁thoughtfully
▁unprecedented
IAL
lah
izzy
▁Brew
▁Dere
▁Kend
▁Nate
▁lakes
▁matrix
▁pedest
▁skirts
▁alarmed
▁analogy
▁enduring
▁Scripture
▁supernatural
asso
cycl
▁Dub
cover
▁foil
▁lodge
▁Bolshe
▁timber
▁Preheat
▁backpack
▁farewell
ubb
▁DR
▁ferv
▁idle
aments
orning
▁apost
▁smoot
Collins
▁jurisd
▁Twitter
▁ranging
▁procession
CO
imo
Star
▁Deal
▁phil
urning
▁tubes
▁Judith
▁Willie
▁behold
personal
▁Grandma
▁amateur
▁penalty
▁thrilled
▁trembled
▁effectiveness
omi
rophe
those
▁Ring
▁Soft
▁beet
legged
▁Makes
▁bully
▁albeit
▁cricket
▁Michelle
▁contempor
▁exquisite
▁publications
▁Alec
▁Said
▁uncont
▁unsure
▁warmed
▁kilometers
▁Core
▁auto
▁topp
▁Neuro
▁slower
▁urging
▁contexts
▁exterior
▁fiercely
▁proteins
▁attendant
▁painfully
▁proximity
▁basketball
▁descendants
▁MY
rika
uper
▁gum
▁Pont
▁Saul
ilated
borough
▁crafts
▁apology
▁rescued
▁Cleveland
▁graduated
FL
serv
▁disk
▁glam
▁gluc
▁anarch
▁arched
▁scored
▁Indones
▁Alliance
▁Festival
▁crashing
aic
▁um
orde
▁Shel
▁Tall
▁Turks
▁creek
▁pamph
▁weeds
▁snakes
▁Chicken
▁advocate
▁incorrect
▁initiated
▁uncovered
LC
▁Cyn
cloth
▁Cour
▁Dise
▁jars
▁surg
gomery
▁erotic
▁tranqu
▁Swedish
▁consume
▁faintly
▁Treasury
▁preventing
HA
Te
love
thia
yson
▁Bea
▁Craw
▁Fine
▁Gwen
▁Talk
osystem
versely
▁slopes
▁trench
▁Edition
▁bounced
▁humiliation
▁historically
ryn
▁Dol
▁gel
itous
▁Chel
▁Drug
▁Vlad
▁Wait
▁fade
▁topped
▁fitness
▁recommendations
QU
ju
ONE
arth
imon
▁swam
▁Lydia
▁basil
▁Lizzie
▁cocked
▁roasted
▁comforting
IME
rend
▁Bog
▁Dow
▁Judy
▁Kind
▁bapt
▁Prize
▁cripp
▁hurts
▁shack
jective
▁Reserve
▁knights
▁motioned
▁loneliness
▁acquisition
▁anniversary
Che
iman
▁Tax
▁psy
▁Cave
▁Stef
Arthur
▁drums
▁tours
astrous
▁Orange
▁unsett
etically
▁Heather
▁compact
▁heavier
▁honesty
▁trailed
▁bitterness
▁consisting
▁sensations
bag
div
▁au
June
Lord
uder
▁Coc
▁bug
iscal
▁enqu
▁turt
▁zeal
▁Break
▁Julius
▁antagon
▁crumpled
▁soothing
iona
▁Arc
▁Hir
▁Nar
iably
▁Zach
▁grav
▁slap
abling
alties
▁imply
▁pipes
▁extends
▁propped
▁organism
▁suitcase
▁emphasize
▁foreigners
▁motionless
▁Inv
▁Kid
▁huh
▁rag
entin
raits
▁Shah
▁whim
iamond
▁tourn
▁wears
▁Alabama
▁Princip
▁beaches
▁chewing
▁celebrity
▁simplicity
▁desperation
▁unemployment
sor
▁SM
▁Buch
▁feud
atches
▁steak
minster
▁wholes
▁Arizona
▁focuses
▁screwed
▁episodes
▁tortured
▁emptiness
▁fictional
▁molecules
▁tolerance
▁Understanding
ends
Trans
eston
▁Falls
▁Maine
▁dairy
▁housed
▁ribbon
▁voting
▁dilemma
▁melting
▁monument
▁explosive
▁perimeter
▁reminding
othe
ieves
ioned
pound
▁hike
ooting
▁Banks
▁flags
sterdam
▁Record
formance
▁Timothy
▁clasped
▁extravag
▁weekends
▁attribute
▁profoundly
▁substances
akh
▁Job
▁gren
▁Byron
▁Plant
▁knots
▁cookie
▁obsess
▁peppers
▁statues
▁interval
▁jealousy
▁overview
▁wrinkled
▁libraries
fits
balls
still
▁Dawn
▁aven
▁Basic
▁Crime
▁decay
▁intol
▁longed
▁imposing
▁muscular
▁petition
▁tolerate
▁Battalion
▁cathedral
▁commodity
▁monastery
▁diminished
▁separately
▁constitutes
del
ser
otch
▁bio
Times
paper
▁Anti
German
prises
▁Blair
▁Casey
▁audio
▁scary
rolling
▁Allies
▁cosmic
▁doomed
▁rifles
▁relieve
▁missiles
▁mourning
▁disappearing
BA
ema
ilyn
ults
ierra
▁Liam
▁Mull
▁Rosa
▁cycl
▁helm
▁Acknow
▁Friends
▁Stephan
▁torment
▁animated
▁Minnesota
▁confusing
▁notorious
▁patiently
▁privileged
▁calculations
▁measurements
ggs
asia
▁Pad
▁VII
World
andel
▁dupl
imated
▁canon
▁Treaty
▁ashore
▁natives
▁pounded
▁schemes
▁unpredict
▁Ce
▁din
arios
umper
▁budd
▁raft
▁Urban
▁Regard
▁chased
▁Hundred
▁heights
▁coalition
▁MD
avid
rella
ulent
▁Bess
▁Cord
▁Happ
▁Highway
▁Success
▁careers
▁heating
▁receives
▁sweating
▁considers
▁obedience
▁disastrous
▁unexpectedly
▁Live
▁cans
▁Ghost
▁skies
▁Warner
▁parish
▁remedy
▁tavern
▁turkey
▁frankly
▁freezer
▁crawling
▁Singapore
▁replacing
▁sculpture
▁glittering
NS
Conn
cuse
maid
undy
iator
ocaly
smith
▁pige
▁myths
▁theft
accessed
▁theatrical
▁discovering
▁perceptions
oda
rov
▁Hav
▁Ord
▁sod
▁Help
▁Maya
▁Plat
▁trig
▁Quoted
▁echoes
▁hazard
▁ironic
▁Present
▁blazing
▁honored
▁hopeful
▁huddled
▁regards
▁detached
▁journals
▁imprisoned
lay
ski
▁EU
▁ya
Jack
obic
yrus
▁Wer
▁clues
▁Source
▁sipped
▁wiping
▁Gallery
▁inspire
▁awakened
▁propriet
▁compounds
▁associates
▁documentary
▁WE
anni
ruly
▁Ana
▁Isn
▁bee
anyon
▁omin
▁Bruno
▁Edith
▁puppy
▁marine
▁rotten
emporary
▁Liberty
▁crosses
▁stamped
▁Thinking
▁reciproc
▁uncommon
▁conquered
▁occurring
▁delightful
▁delivering
▁oppression
▁preferences
▁classification
Up
onda
▁Kil
▁aqu
adows
nothing
▁overth
▁picnic
▁crooked
▁harbour
▁Memorial
▁chambers
▁gigantic
▁hardened
▁rewarded
▁discarded
▁suppressed
▁entertaining
▁exploitation
dr
aco
neg
▁Vik
▁Cant
▁Hoff
▁overly
▁pickup
▁stabbed
▁narrator
▁underest
▁Friedrich
▁pressures
▁prolonged
▁accompanying
OB
amily
▁hath
▁Alger
▁awaiting
▁foremost
▁internet
▁injustice
▁vengeance
▁authorized
▁specialist
▁introducing
▁theological
!—
isse
▁Bah
awing
olith
outed
▁Joel
▁Mick
▁tram
ativity
▁Isabel
▁judging
▁shimmer
▁twenties
▁Montgomery
▁mg
▁morph
▁Esther
▁Sharon
vernment
▁folding
▁metabol
▁Personal
▁hormones
▁workshop
▁employers
dog
fle
uda
Part
home
▁"...
▁Draw
▁bucks
▁debts
keeping
thought
▁Herald
▁Stella
▁advise
▁joking
▁spells
▁plaster
▁rightly
▁suppress
▁intercept
▁irritated
▁accumulated
▁reconstruct
ioc
uki
▁Vit
Under
elfth
izers
▁moss
▁pony
▁whale
▁emerges
▁rocking
mediately
▁immortal
▁mainland
▁unusually
appropriate
▁momentarily
▁Wis
aters
irties
minent
▁Benny
▁Drake
▁Iraqi
limited
▁elders
▁humour
▁broadly
▁Behavior
▁fulfilled
▁stretches
▁recognizing
CR
aa
Sept
▁Pas
anity
reath
▁Sens
▁lett
thirty
ousseau
written
▁lounge
▁winced
▁Miranda
▁erupted
▁imported
▁enjoyment
▁retrospect
▁consciously
▁convenience
▁proportions
▁statistical
▁fundamentally
usa
emia
▁Pom
▁Flet
▁Gret
▁prag
▁loses
▁scorn
▁sailor
▁towels
economic
▁Shortly
▁Sitting
▁graceful
▁restoration
▁improvements
Af
llor
▁raz
isans
llers
pical
▁FROM
▁axis
lasses
▁halls
▁shrimp
▁McCarthy
▁embodied
▁resemble
▁Armstrong
▁distances
▁masculine
▁submarine
▁triggered
▁definitive
▁interference
Rel
drop
▁ale
▁tox
erred
▁redd
ooping
▁Local
▁Welsh
▁Words
▁bleak
▁hello
▁licked
National
▁Stories
▁tunnels
▁pathetic
▁Microsoft
▁ambitions
▁judgments
▁translate
▁confirmation
acey
emor
▁Gam
edies
▁Coff
▁José
ousing
▁ounce
▁zones
William
science
▁devote
▁preval
▁quiver
▁Strange
▁individ
▁economies
▁disappearance
"?
IO
ben
bsp
lig
agin
▁Hat
orian
▁Camb
▁nipp
▁Diane
▁arche
▁libert
▁approve
▁cruelty
▁literal
▁plainly
▁transmit
▁horrified
▁inventory
▁adaptation
▁indifference
Rec
eta
elong
▁Bake
▁chop
▁temp
ecting
social
▁cance
▁rehab
▁tiger
▁Essays
▁Illust
▁silhou
▁grammar
▁Amendment
▁Christine
▁generosity
▁insistence
lia
ggie
rans
▁fug
▁Mail
▁pest
worthy
▁Frost
▁demol
▁Norway
▁labels
▁calcium
▁Geoffrey
▁orthodox
▁arbitrary
▁curiously
▁continuity
▁Consequently
AA
Old
ecd
atum
left
▁Liv
chron
▁Chin
▁Hale
▁Harm
▁ache
▁curb
▁todd
▁Venet
▁whirl
▁halluc
▁liking
▁uneven
▁Griffin
▁airplane
▁excluded
▁submitted
▁physicians
Call
▁Slo
▁peel
Europe
iatric
▁poles
▁risky
▁cleans
▁Express
▁pleaded
▁trivial
▁dangling
▁homeland
▁completion
▁innovative
▁departments
▁contradiction
bn
lic
weg
▁Ow
ocated
▁stray
▁Jeffrey
▁Silence
▁awesome
▁blurred
▁flavors
▁springs
▁proclaim
▁miniature
IZ
!"_
ogg
Four
anse
rigg
▁mig
ienne
▁Jama
▁Rule
▁Cairo
▁vines
▁Crisis
▁hither
▁corpses
▁strands
▁athletes
▁brushing
▁governed
▁hovering
▁probable
▁comparable
▁astonishment
AGE
▁Pin
athon
ische
jects
▁Witt
▁worm
▁Trist
▁poked
▁Brooks
▁dealer
▁export
▁skelet
▁underg
▁butcher
▁emptied
▁hunched
▁microsc
▁supervis
Mom
▁Tun
enery
▁lest
▁Bened
▁chrom
enstein
▁halted
▁revolt
▁videos
▁wizard
▁Stevens
▁exploit
▁teaches
▁betrayal
▁lingered
▁Evolution
▁batteries
▁cardboard
▁Om
▁PH
▁fu
▁tu
ashi
▁sel
olics
▁Gust
▁subl
flower
▁Incre
▁curls
▁outst
▁teens
British
hematic
▁######
▁foster
▁Bradley
▁Edwards
▁decides
▁Perspect
▁mortgage
▁obsession
▁Federation
,"_
orf
rev
recy
▁Fen
marks
uates
▁Patt
▁Sons
▁crus
▁mice
▁slit
intend
▁unseen
building
specific
▁Frankie
▁coherent
▁tactical
▁convicted
▁cholesterol
▁Ny
iker
▁Rot
forth
▁Init
▁Lenn
▁Loren
▁Sauce
▁drying
▁neural
▁dislike
▁charging
▁persisted
▁prejudice
▁settlements
HEN
▁oy
rina
▁oct
▁Lodge
▁Moroc
selling
▁Claude
▁gifted
▁divorced
▁mystical
▁fantasies
▁monstrous
▁comfortably
▁commissioned
CL
xx
Bar
▁Chan
▁gust
▁Niger
▁slick
▁Clarke
▁Forces
▁Madrid
▁transp
▁Wilhelm
▁antique
▁legally
▁garrison
▁multitude
▁resignation
hl
▁Mak
enson
iless
athing
▁hybrid
ceedings
▁custody
▁enlight
▁pension
▁pierced
▁pitched
Sometimes
▁hydrogen
▁velocity
▁elementary
▁disposition
▁accidentally
▁organisation
oche
▁Ath
▁Ree
ifier
isine
▁vein
▁Cream
daughter
▁graphic
▁comparing
▁consulted
▁streaming
▁strengths
▁Industrial
▁governance
▁irrational
▁profitable
▁yourselves
▁intersection
IND
▁UP
llen
oton
poss
▁Fay
▁Pun
▁puls
▁Based
▁Ninet
▁fiery
▁hairs
▁Evelyn
▁Nicole
▁lengthy
▁loading
▁discoura
▁guardian
▁mounting
▁flickered
Cal
▁NJ
seat
▁Kon
▁Bomb
▁Race
▁nood
▁skip
before
▁Basil
▁ditch
▁treats
▁tissues
▁nobility
▁reviewed
▁abolition
▁competent
▁fascination
▁neighborhoods
▁Fed
▁Ish
March
▁Dana
▁borne
▁niece
herence
ifiable
▁Sexual
▁disreg
Remember
▁Morning
▁replies
▁revised
▁homeless
▁sweetness
▁overlooked
Ibid
hrer
atics
fried
▁anth
Should
▁paran
▁reper
▁sandy
▁Terror
▁curric
▁physic
▁thinly
▁currents
▁combinations
▁demonstrates
Ser
ffe
kov
anie
Princ
obody
▁Mead
▁torso
▁healed
▁chilled
▁trailer
▁Austrian
▁aftermath
▁apartments
▁irrelevant
▁neighbours
▁corporation
▁conservation
OH
ods
▁ont
▁ted
▁fung
▁dilig
▁Galile
▁chunks
▁cycles
▁superb
▁traded
▁unreal
▁Belgium
▁martial
▁integral
▁premises
▁memorable
▁mysteries
▁teenagers
kar
▁Chem
▁bail
▁Mayor
▁buses
▁penis
renches
▁convoy
▁quotes
▁Infantry
▁homework
▁affecting
▁hopefully
▁equilibrium
▁preliminary
▁interpretations
ibi
irs
orno
rigu
▁WOR
anium
never
ooked
▁Cool
▁Parm
▁seaf
rystal
▁Glass
▁scars
▁spill
▁Alaska
▁Canyon
▁Gandhi
▁cortex
▁plains
▁Phillips
▁advertis
▁homemade
▁heartbeat
▁scholarly
GM
ACE
▁FL
gins
▁odor
▁_____
▁mound
▁Parent
▁Twelve
▁magist
▁vulgar
▁aroused
▁echoing
▁reversed
▁energetic
▁magnitude
▁fashionable
▁transported
inse
spir
▁Mae
Frank
bread
ingle
izens
▁Vice
▁brist
▁scalp
▁Divine
▁Fergus
▁Roland
▁Survey
▁cooler
▁layout
▁humming
▁loosely
▁railing
▁rattled
▁Question
▁inquired
▁domination
▁irritation
▁sacrifices
▁nationalist
▁investigating
deg
onc
▁SW
geon
oday
▁Bak
▁Prep
▁Stay
▁dart
should
▁Irene
▁beads
▁conve
▁penny
▁sting
ordered
▁costly
▁decomp
▁Soviets
▁amusing
▁marking
▁motions
▁radically
▁conventions
affe
iler
▁axe
▁wry
Think
ieces
olini
▁zest
seeing
▁Franz
▁troll
entials
▁Circle
▁Prison
▁hunted
▁ration
▁defines
▁Complete
▁carbohyd
▁documented
▁prescribed
▁publishers
▁spontaneous
Ps
Put
gas
▁Nad
falls
▁Code
▁Hann
▁Hood
▁burd
▁flaw
▁plea
▁Canal
▁laser
▁equity
▁reckon
▁Marshal
▁dynasty
▁lengths
▁applause
▁bursting
▁shivering
▁plantation
Hold
imer
▁Cha
▁Dee
▁Sie
▁woo
▁Pack
▁Verm
thouse
inement
▁backup
▁biting
▁throws
▁flashes
▁Augustus
▁proceeds
▁weakened
▁Architect
▁Somewhere
▁lingering
UP
Isn
ppe
▁Nep
mares
▁scur
▁Exerc
▁Meyer
▁freak
▁Access
▁FIGURE
▁Search
▁Sophia
▁barked
▁refres
▁sturdy
▁cunning
▁surrend
▁develops
▁Amsterdam
▁Melbourne
▁presidency
▁structured
▁circumstance
▁Lé
Once
cers
▁gin
ounces
uggage
ulsive
▁Saudi
▁burns
▁cents
▁rests
▁Hawaii
▁Memory
▁glowed
icularly
▁Olympic
▁editing
▁evangel
▁novelist
▁obsessed
▁surgical
▁wrapping
▁illuminated
baum
▁Yah
▁Celt
▁stap
ectual
marked
▁Advent
▁Reform
▁jewels
▁saints
▁spokes
▁triple
▁afflict
▁eyelids
▁appealed
▁evaluate
▁accidents
▁illustrates
Fuck
anim
gart
▁Cou
racted
▁Percy
manship
▁blender
▁disdain
▁Rousseau
▁prosecution
▁investigations
Mus
erto
moon
▁sew
emale
uzzle
▁Levi
▁deed
▁hack
▁saut
August
▁Honey
▁debut
▁glist
▁Editor
▁Gospel
▁Sidney
▁mentor
▁trades
▁guiding
▁receipt
▁socialism
▁Netherlands
▁HarperCollins
osher
psych
▁Chair
▁Derek
▁deriv
▁skins
ificant
▁Ground
Actually
essional
▁Emerson
▁suscept
▁traject
▁escaping
▁guerrill
▁observers
dro
tre
▁dot
Daily
allow
gends
▁Anat
▁Incl
▁Birth
▁chees
▁Guards
▁consec
▁spiral
▁telesc
▁anguish
▁clearer
▁protagon
▁corridors
asa
nik
▁NA
ells
▁Lem
▁ore
▁fret
otypes
▁Prior
▁Teddy
▁chess
▁Coming
▁dishon
▁inland
▁Corinth
▁disconn
▁lowering
▁tensions
▁triangle
▁Different
▁accommodation
▁Mul
▁Saw
cault
tight
▁Wiley
▁tunic
▁worsh
▁barbec
▁parlor
▁pupils
▁unjust
▁Marilyn
▁bubbles
▁wireless
▁assurance
▁intuitive
Ste
atz
aran
ansom
▁Dust
▁Euro
▁Lill
jected
▁buddy
▁folds
▁goose
▁unint
▁meadow
rapeutic
▁auction
▁bombers
▁trailing
▁unlocked
▁detection
▁presently
▁instinctively
CS
vie
icon
▁Jung
▁Allan
▁masks
uminous
▁clapped
▁abortion
▁packages
▁squinted
▁eliminated
▁suspicions
Ma
ér
VEN
▁Aw
Make
▁McN
▁Rein
▁eman
▁ensl
▁glue
▁styl
▁wrec
ricane
▁Jonah
▁Photo
▁Woods
▁brack
▁caves
▁crypt
▁alumin
▁phases
▁rocked
▁cartoon
▁harmful
▁reminis
▁conducting
▁impressions
▁vulnerability
▁"—
▁NO
ylum
▁Eye
▁NAT
boats
igger
▁Crom
points
▁blink
▁Archae
▁cabbage
▁dragons
▁erected
▁insists
▁revival
▁grounded
▁vigorous
▁eccentric
▁intensely
▁intricate
▁judgement
▁Ez
lyss
▁Cly
ivals
▁Eyes
▁Juda
▁alph
▁bart
▁fres
▁unqu
▁Olive
▁basin
▁sauté
▁Listen
▁darted
▁fucked
▁lyrics
▁Whereas
▁cheaper
▁induced
▁proving
▁escorted
zan
ghai
ipes
▁HIV
▁Kin
▁cer
shore
▁Area
▁Virt
▁jaws
stones
▁Forty
▁cubes
▁recur
▁Munich
▁breach
▁incarn
▁Babylon
▁Commons
▁barrels
▁conspic
▁easiest
▁simpler
▁customary
▁attendance
▁accumulation
ORT
▁Frit
▁Math
▁curt
▁overd
▁paces
▁yogurt
▁strokes
▁mentions
▁priorities
ml
ORY
eges
iban
inea
▁Ella
▁fills
▁Mickey
▁graves
▁wagons
▁dealers
▁stating
▁blinking
▁disinteg
▁imminent
▁dominance
▁intercourse
Es
▁ER
▁cf
Paul
aleb
▁wob
graph
▁Fasc
▁Yang
ulator
whether
▁Reason
▁magnet
▁invaded
▁sucking
▁starving
▁Democracy
▁Financial
▁portrayed
▁implemented
BM
▁Et
Dear
Mart
este
igma
ribe
▁Rum
ogenic
▁awoke
▁compass
▁scowled
▁solving
▁spinach
▁wasting
▁composer
▁defenses
▁disgrace
▁editions
▁prestige
▁proposals
▁recruited
▁Alexandria
▁residential
CD
oil
food
▁cuc
▁crab
▁Chall
▁Tears
▁lifts
▁weaker
▁reduces
▁teasing
▁tossing
▁unified
▁cracking
▁crushing
▁intently
▁monarchy
▁technically
▁consequently
fi
itol
Since
orman
rious
levard
▁Chile
▁Diary
▁Humph
▁Scots
▁ornam
▁unmist
▁Prophet
▁granite
▁Fletcher
▁frowning
▁moreover
▁Holocaust
▁northwest
▁stationed
▁transactions
pop
asma
▁omn
iotic
▁baff
Boston
▁Marco
▁Patri
▁Gloria
▁Monroe
▁Strong
▁evapor
▁exting
▁frying
▁Springs
▁denying
▁execute
▁fleeing
▁luggage
▁pirates
▁roaring
▁knuckles
▁criticized
▁relentless
▁ED
▁IL
MENT
coal
lynn
meal
uana
▁BCE
▁pac
floor
▁AIDS
▁Abby
▁Bath
▁pope
▁Polly
▁coron
▁embro
▁hearth
▁captive
▁Appendix
▁swelling
▁offerings
▁unsuccess
▁contingent
▁impatiently
HS
take
▁Gaz
▁tug
owitz
▁Dion
▁agon
▁guts
▁Agent
▁Amelia
▁fossil
▁insurg
▁indefin
▁necklace
▁outright
▁amazement
▁privileges
irie
ovan
onian
▁unav
▁Agnes
▁Engel
▁Games
▁capac
▁overc
▁raids
Someone
▁Horace
▁induce
▁stride
▁pilgrim
▁analyses
▁irresist
▁optimism
▁squadron
▁believers
▁blackness
▁paperwork
▁solidarity
▁manufacturers
ASS
pol
▁Abu
amins
▁Gert
▁Gide
▁gull
▁pert
▁rapt
▁socc
▁Milan
▁shrew
ophical
▁labore
breaking
▁Baldwin
▁Simpson
▁locally
▁heavenly
▁scrutiny
▁terrorism
..._
Back
▁ard
▁sor
avian
▁pans
▁leans
develop
▁murmur
▁soccer
▁Diamond
▁surplus
▁creeping
▁pictured
▁swirling
▁Executive
▁optimistic
▁insufficient
SD
regn
▁Nag
▁jab
brown
vered
▁Nora
▁inaug
▁plump
▁banned
▁cruise
▁jammed
▁respir
▁skeleton
▁thinkers
▁wildlife
▁terrorists
▁sustainable
▁reconstruction
xy
rida
▁Enc
erity
▁bang
▁unin
▁numer
▁spies
purpose
▁Arctic
▁Hector
▁Lauren
▁eldest
▁tongues
eneration
▁abnormal
▁cupboard
▁keyboard
▁paradigm
▁travelers
▁competitors
▁Ivy
blems
ussion
▁Bever
▁Lance
▁chewed
▁esteem
▁analyze
▁needles
▁Critical
▁civilized
▁withdrawn
▁Individual
FC
Got
uba
▁RA
▁McL
▁pins
Intern
omical
▁woven
▁diving
▁newcom
▁winked
▁boarded
▁recount
▁Patricia
▁conveyed
▁dominate
▁mobility
▁mornings
▁solitude
▁predictable
wig
▁Lil
idian
▁Bast
▁Pale
▁Tang
Before
▁Going
▁solic
▁unrel
▁hiring
▁update
▁vacant
▁Current
▁coughed
▁crimson
▁annoying
▁scenarios
▁descending
▁undertaken
Mc
Les
exp
uph
▁ul
anic
full
odka
ooms
▁hen
izoph
▁Hawk
▁Myth
▁Soci
▁jerk
▁plug
▁thud
▁Ellie
▁civic
▁unequ
▁copied
▁learnt
▁proves
▁empathy
▁hormone
▁bouncing
▁simplest
▁umbrella
▁wardrobe
▁Catholics
▁Knowledge
▁Valentine
▁diagnosed
▁skeptical
IRE
erl
▁gh
note
▁Hil
▁Bott
▁bout
▁casc
▁node
owners
▁Rosie
▁loads
Exactly
inosaur
raising
........
▁Workers
▁assisted
▁barracks
▁drowning
▁harmless
▁squirrel
▁youthful
▁geography
▁Immediately
▁counterparts
comp
sson
▁Sah
stery
▁Pyth
▁cove
urolog
▁Edwin
▁atoms
▁goats
▁Wonder
▁creamy
▁Liberal
▁bedside
▁altitude
▁designers
▁immigrant
▁pollution
ibliography
▁Petersburg
▁sentiments
▁Ran
▁ads
ammat
▁Ashley
▁Curtis
▁Notice
▁banner
▁brigade
▁gradual
▁reacted
Christian
▁deprived
▁inconven
▁steaming
▁suspects
▁furnished
▁underwear
▁violation
▁willingly
▁Richardson
▁ceremonies
▁incorporate
Ass
OME
▁Arg
▁NASA
▁Sett
lahoma
▁motif
▁verge
history
▁Connie
▁Repeat
▁torped
▁trunks
▁mineral
▁Schuster
▁arrogant
▁ventured
▁discharge
!!
avil
iage
imir
cause
▁wins
unches
▁Level
▁Quite
▁kills
▁lever
▁popul
▁Geneva
▁outlaw
▁Cabinet
▁severed
▁Exchange
▁defiance
▁paradise
▁ecosystem
▁releasing
▁Independence
"_
Die
mag
amus
bott
▁hoo
▁sid
▁BOOK
▁Fold
▁aver
▁heed
▁indo
▁arter
ividing
▁Gothic
▁Miriam
speaking
▁Ontario
▁Systems
▁goddamn
▁refuses
▁deceased
▁highlights
EX
esp
chet
cribe
▁Bing
▁Tess
▁dove
profit
▁Pitts
▁lords
▁Employ
▁Beatles
▁optimal
▁waitress
▁contacted
▁premature
▁vigorously
▁continuously
chel
llis
many
thel
▁sul
▁Ster
▁haze
▁sadd
Social
enches
▁Sugar
▁Tiger
▁Queens
▁rental
ammation
▁orderly
▁Students
▁assertion
▁deception
▁exclusion
▁Communists
▁cheerfully
▁contemporaries
aney
iffe
▁Hod
▁Raf
▁Vel
▁File
▁skim
▁Chand
▁cooks
▁griev
▁postp
▁Eugene
▁poised
izophren
untarily
▁Iranian
▁fingern
▁mocking
▁Likewise
▁grinding
▁equations
azi
isch
kill
▁Gas
▁Mut
lower
▁Lynn
▁pall
▁Steel
▁Barnes
▁aching
ritional
▁Clement
▁serpent
▁snarled
▁dwelling
▁geometry
▁particle
▁plausible
Co
RY
INGS
prem
umsy
itime
yards
▁taut
opedia
▁Armen
▁apron
▁jumps
▁tighter
▁featuring
▁agreements
▁capability
▁nightmares
▁interventions
Hen
dest
hero
them
brush
▁Acts
▁Glen
▁Rush
rising
▁Bless
▁spice
▁thyme
▁Arabia
▁Monica
▁aiming
▁mercen
▁sausage
▁Chocolate
▁Published
▁marriages
▁implication
▁legislative
▁congregation
lli
▁Fo
▁gy
arte
rade
▁Dry
▁Gon
April
apple
urate
▁Chloe
▁Marty
▁grind
▁snack
▁Franco
▁oppose
▁paraly
▁purity
▁Shelley
▁militia
▁forecast
▁preceded
▁readings
▁twilight
▁mythology
▁discoveries
▁neighboring
big
odus
pine
▁Swe
enzie
▁Salv
ecraft
▁maker
▁rides
▁roofs
ulators
▁litter
ammatory
▁Anthrop
▁intrigu
▁Isabella
▁Thousand
▁centered
▁Naturally
▁Constantin
▁ecological
▁familiarity
Er
Day
NOW
ocy
▁PM
":**
West
bral
ussy
▁cue
▁ree
▁tut
▁brim
▁mund
▁Amber
▁Girls
▁Klein
▁shrine
▁slides
Everyone
▁devised
▁museums
▁shields
▁unclear
▁verdict
▁marrying
▁pleading
▁Liverpool
▁favorable
▁modernity
▁dependence
▁practitioners
▁é
King
itas
esses
▁Moss
▁Rise
covery
▁pagan
▁urine
▁whore
▁Jessie
▁pirate
▁precar
▁sewing
▁warmer
▁hideous
▁clusters
▁gripping
▁headline
▁alternate
▁imitation
▁surrendered
PP
apa
cre
ido
▁Oz
Phil
bish
corn
obia
▁Cic
▁Moz
▁twe
Still
olate
▁Boys
ichael
▁tiles
respons
telling
▁Carson
▁Rivers
▁locker
▁squash
▁Denmark
▁Problem
▁aggress
▁perplex
▁wrought
▁impulses
▁musician
▁perpetual
▁earthquake
▁originated
withstanding
OND
doc
ibn
ennel
enser
▁Herr
▁Watt
▁athe
▁frig
▁hust
bishop
iotics
kshire
▁Elena
▁Total
▁bonus
▁fluct
▁overr
▁phant
▁Brooke
▁pushes
▁splash
▁catches
▁pillows
▁pudding
▁exposing
▁grandson
▁maturity
▁trenches
▁portraits
▁successes
▁facilitate
▁flickering
▁infinitely
▁submission
▁supportive
▁reflections
Sun
sted
▁Rio
▁Bach
▁Drew
▁Leah
▁Vera
▁Winn
▁aura
▁soci
▁attic
▁misle
▁Bernie
▁gluten
▁regain
▁drawers
▁plucked
▁outdoors
▁bothering
▁courtroom
▁governing
▁retrieved
▁tendencies
▁vegetation
▁preservation
Has
comb
verb
Psych
ggers
▁Gods
▁toug
▁Donna
▁Marion
▁fibers
▁patent
▁sleepy
▁Fiction
▁Marxist
▁forearm
▁pitcher
▁scarlet
▁bullshit
▁coloured
▁snapping
▁regretted
▁objections
▁comparative
▁availability
Que
offs
▁Phy
▁Yug
▁orb
casts
otism
quest
rator
▁Suff
Little
▁jelly
▁Desert
▁barren
▁lumber
▁mildly
▁phosph
▁massage
▁trimmed
▁infections
▁manuscripts
ete
uto
alan
▁doi
▁Ship
▁Till
▁barg
▁sped
▁Glenn
▁flared
▁gloomy
▁shores
▁uncons
▁Judaism
▁earning
▁electro
▁shaping
▁tracked
▁Foucault
▁defenders
▁separating
▁recommendation
▁XX
ahan
▁Sha
▁Cind
▁idol
▁Shall
▁glove
▁rooft
▁sneak
uffling
▁Rhodes
▁bricks
▁fixing
▁resume
▁unbear
▁Brandon
▁Tibetan
▁secrecy
▁circling
▁nickname
▁remnants
▁districts
▁exchanges
▁voluntary
▁disability
▁definitions
▁frantically
rez
Five
deep
user
adder
hetto
iates
▁Rita
▁Wing
Mother
▁packs
▁celery
▁miners
▁Italians
▁Portland
▁investing
▁weaknesses
▁medications
OST
▁km
mart
stud
amboo
sided
▁Pars
▁recy
istant
leness
▁Wendy
▁raven
▁villa
▁makers
▁storms
▁Catalog
criptions
▁Evidence
▁chatting
▁sporting
▁terrific
▁navigation
▁relaxation
tz
aler
ongs
▁RAF
▁hym
accept
driven
▁engra
▁owing
▁Volume
▁herbal
▁sparks
▁assumes
▁compost
▁cuisine
▁shipped
▁kneeling
▁panicked
▁doubtless
▁intrinsic
▁rendering
▁professors
▁confidential
▁manipulation
▁metaphysical
▁Dh
puts
▁Fac
▁Pir
▁Kane
▁bows
▁Swift
▁batch
▁doctr
▁razor
▁flakes
▁obeyed
▁unrest
laration
▁Economy
▁cheered
irmingham
▁Material
▁objected
▁retrieve
▁legitimacy
▁prediction
▁Westminster
▁territorial
▁inappropriate
,'"
ISH
▁GO
None
ousy
thly
▁Bot
▁Bacon
▁Gates
▁ached
▁strap
▁Poetry
▁blouse
▁ranges
▁tackle
aternity
▁awaited
▁bathing
▁cocaine
▁Reynolds
▁minerals
▁outbreak
▁shuffled
▁communism
▁beginnings
▁jurisdiction
Mark
core
edar
rama
▁Ble
▁Nav
phony
▁Damn
▁Holt
▁bulb
shield
▁Gross
▁bites
▁fatty
▁paced
▁token
reading
▁contra
▁marker
▁utmost
▁Chester
▁foliage
asionally
▁Literary
▁agitated
▁judicial
▁massacre
▁prophecy
▁unpredictable
EAR
Over
iang
stad
▁hub
ariat
maybe
▁Cash
▁Maced
▁haste
▁sails
parable
▁Burton
▁Images
▁Sierra
▁interl
▁kidney
▁deposit
▁thieves
▁despised
▁fragment
▁pronounce
▁stillness
▁breakthrough
tar
▁MI
▁SO
▁Fun
▁peb
ravel
▁chalk
▁diced
country
▁Period
▁Sicily
▁disple
▁moaned
▁Tribune
▁footage
unciation
▁surveyed
▁overheard
▁treasures
▁welcoming
▁complications
pal
July
rers
riad
Table
▁Sorry
▁mosqu
▁noses
▁resil
▁swamp
eration
▁Connor
▁closes
▁hoarse
▁teased
▁Feeling
▁choking
▁provoked
▁slippery
▁towering
▁stumbling
▁efficiently
▁installation
TP
Fin
date
fact
ianc
iast
onal
▁Kan
▁idi
elope
ivist
▁Bark
▁unsc
atable
terson
▁Grove
▁ninth
▁bolted
▁canopy
▁Suppose
▁steward
▁completing
▁translations
ovak
▁ecl
▁gly
atism
▁Java
▁gast
▁seiz
system
▁Integ
▁Youth
raction
▁Taiwan
▁impart
▁lettuce
▁premium
▁Africans
▁diamonds
▁flourish
▁membrane
▁distorted
▁electoral
▁acquainted
▁articulate
▁ingredient
▁prevailing
ACT
tta
Shut
▁dum
▁Answ
abouts
inched
▁Eagle
▁buyer
anthrop
▁Carrie
▁banana
▁clumsy
▁stench
▁sobbing
▁upwards
▁yielded
▁hierarch
▁lifelong
▁stimulus
▁butterfly
▁routinely
▁dispatched
▁households
▁kilometres
▁instrumental
zh
beck
link
moil
ouver
ports
▁Sart
▁Zeus
holder
▁edged
idelity
isphere
▁aggreg
▁heaved
▁rubble
▁Strateg
▁wheeled
▁whirled
▁websites
▁patriarch
▁calculation
▁therapeutic
▁neighbourhood
▁personalities
Sy
▁Cf
Step
sign
▁MAN
adier
esity
▁Doct
▁fats
letter
▁stout
▁Junior
▁armour
▁Walking
▁explode
▁glucose
▁conceive
▁ensuring
▁unstable
▁Quarterly
▁Socialist
▁psychiatric
▁sentimental
▁geographical
▁interrogation
ATH
bee
gow
cycle
rague
▁Toby
ischer
▁Burns
▁Chapel
▁forged
▁entries
▁fertile
▁Columbus
▁pleasing
▁policemen
▁Operations
▁bewildered
.")
rob
ICAL
inny
otto
▁bog
▁Brus
▁Wade
▁reef
Indeed
ijuana
volent
▁Minor
hundred
▁Greene
▁grimly
▁Natalie
▁Popular
▁behaved
▁earthly
▁leaping
▁neurons
▁viewers
▁doubtful
▁grimaced
▁junction
▁sprinkle
▁suburban
▁thankful
▁calculate
▁imperative
▁spectators
▁negotiation
Acc
viol
▁Pos
heric
▁womb
esteem
ocious
▁Bella
▁Fifty
▁Cassie
▁lethal
▁bruised
▁relates
▁Oklahoma
▁fortunes
▁oblivious
▁aristocratic
ég
afé
▁McD
▁Osw
bones
emics
▁Bagh
▁Bass
▁Garc
▁upro
otting
▁Elvis
▁Hardy
▁hangs
▁stink
▁Juliet
▁Moving
▁Naples
▁rivals
▁stroll
▁obstacle
▁ruthless
▁operators
▁excellence
oat
Stay
rypt
▁rash
itives
thirds
▁emanc
▁ledge
eredith
▁Powers
▁memoir
▁pacing
▁Phoenix
▁discard
▁hovered
▁insulin
▁Shanghai
▁metallic
▁twitched
▁insisting
▁instructor
Gen
beh
llo
athy
▁Cer
duces
▁dice
estial
ourses
▁Peggy
▁tread
fortune
▁mortar
▁racist
▁strang
hibition
▁Baptist
▁blended
▁Beatrice
▁Portugal
▁reluctance
▁aspirations
▁cultivation
▁volunteered
ENCE
furt
liked
▁Bret
▁Voice
▁trait
▁presumed
▁vicinity
▁directing
▁fertility
▁---|---|---
abil
anti
ibal
▁Gus
▁Emil
▁flap
iberal
▁Paula
▁overh
▁Andrea
▁Davies
▁crises
▁infilt
▁microw
▁Colonial
▁tempting
▁inspector
▁municipal
▁dedication
▁detectives
iw
hee
nie
▁Fan
ritis
value
▁Hast
▁amph
▁Singh
▁steer
avender
▁termed
▁flavour
▁hardest
▁Clinical
▁attained
▁scraping
▁anxiously
▁hospitality
▁Publications
▁contributing
abby
▁CAR
ellar
ensen
▁Hume
▁mall
Excuse
public
▁Double
▁braced
▁shaved
▁Finding
▁excuses
▁glaring
▁realism
▁disposed
▁reckless
▁combining
▁concludes
▁extracted
▁southeast
▁adjustment
▁distinctions
▁Wu
achi
ardi
iddy
roke
Brien
dream
▁Sere
ocracy
▁anecd
▁Accord
▁Castro
▁dismay
▁grotes
▁stakes
▁unfolded
▁workplace
▁consulting
aha
IONS
anky
ongh
Inter
White
named
▁Herm
icates
ported
really
▁Bryan
▁Weber
lington
▁Virgil
▁artery
▁cooled
▁forens
▁juices
▁Squadron
▁fabulous
▁minimize
▁releases
▁delegates
▁dictators
▁penetrate
▁traumatic
▁microphone
▁prevention
yg
PER
Pat
Aust
etch
must
▁Mia
▁tac
Court
▁Morr
▁Muss
broken
linary
▁Fiona
▁Veget
▁bland
ritical
▁lament
▁loomed
▁Leaders
▁nucleus
▁princes
▁disabled
▁artifacts
▁preserving
▁Conservative
▁enlightenment
()
fed
east
gina
▁Fry
▁NEW
▁gru
areth
▁Reid
▁Below
▁Berry
▁Megan
▁bosom
▁uneas
▁wrigg
forming
landers
▁agrees
▁canyon
▁carrot
▁jagged
▁permits
▁damaging
▁sentenced
▁worthless
▁Experience
▁complement
▁determines
▁entertained
Ob
▁dé
Cons
▁ses
asket
until
▁begg
▁jour
▁powd
gerald
▁gauge
▁sorce
▁tails
▁Cancer
▁Wesley
▁contri
▁categor
▁coupled
▁inmates
▁Authority
▁Universal
▁crumbling
▁quotation
▁surprises
▁undertake
MAN
Rich
party
rings
▁fift
writer
▁plots
▁Genesis
▁McDonald
▁piercing
▁selecting
▁announcing
▁inflammation
▁manifestation
etz
mir
▁Wi
neum
stre
▁Ded
ochem
▁Glas
▁Hook
▁hates
▁nodes
▁sensor
▁platoon
▁updated
▁Progress
▁aluminum
▁modeling
▁template
▁validity
▁Hampshire
▁retrieval
▁businessman
▁meaningless
▁resurrection
▁Constantinople
TV
sin
agog
prov
chant
enter
▁Dani
▁Rabb
▁leak
▁poker
▁morale
▁Theater
▁abdomen
▁chaotic
▁dancers
▁suburbs
▁Randolph
San
▁ub
▁Aur
▁Marl
▁Pand
▁fuzz
▁Medic
▁Might
▁Round
▁Trent
▁beats
▁cater
▁shaky
▁Viking
▁clause
▁Disease
▁elastic
▁habitat
▁quicker
▁toasted
▁Thatcher
▁Training
▁prolifer
▁immensely
▁stiffened
▁successive
▁participated
rr
Wow
film
lich
tics
annie
ovsky
sofar
▁Pere
▁Maxim
▁renov
▁hurled
▁thumbs
▁yields
▁infants
▁alphabet
▁Questions
▁awkwardly
▁inclusion
▁northeast
▁partition
▁Birmingham
▁researcher
▁sacrificed
▁preoccupied
BO
▁q
ANG
eca
sac
oyer
phis
▁Rib
▁Tea
▁cot
▁Chad
▁Knox
Better
ingway
▁Guild
▁ivory
ocative
▁Travis
▁addict
▁buyers
▁climax
▁peanut
ablished
▁endorse
▁surveys
▁Campaign
▁relaxing
▁dissatisf
▁relevance
▁staggering
gre
▁EC
▁sug
holes
▁Iris
▁weed
▁weep
ivated
upiter
▁Scand
▁anten
▁https
▁manic
▁Ethiop
▁Priest
▁raging
▁runner
▁thrive
▁varies
▁arising
▁nursery
▁pillars
▁testify
▁whereby
▁maternal
▁sinister
▁flattened
▁furiously
▁thickness
▁landscapes
▁catastrophe
▁certificate
▁illustrations
QL
IDE
Lou
Say
▁MC
▁_—
stru
▁Rut
liter
▁aide
▁ants
▁calf
▁curl
▁volt
▁admon
▁protr
▁Teresa
▁futile
▁submer
▁empower
▁panting
hetically
▁gracious
▁grumbled
▁Economics
▁Kissinger
▁respectful
▁imprisonment
▁contradictions
NY
Luc
Nat
▁Gru
▁Mau
ocate
umbed
▁Capt
▁THAT
▁Used
▁Wals
ocular
▁Stern
▁chlor
▁cyber
healthy
▁Elaine
▁aliens
▁richer
▁subway
▁dietary
▁stadium
▁traitor
▁treason
▁turmoil
▁commemor
▁enabling
▁famously
▁garments
▁warnings
▁formations
▁credibility
▁reproductive
BR
VE
INT
News
▁coo
avier
otsky
▁Hait
▁Thai
▁akin
▁bugs
▁duct
▁memo
▁sund
ablish
▁eagle
▁hints
▁scall
loading
▁encirc
▁patrons
▁archives
▁synthetic
▁intriguing
▁existential
▁psychologist
Spe
aba
▁Dw
▁Yu
▁ts
Char
Hell
anya
olks
witz
▁SEC
▁nas
Grand
arers
▁Font
▁Sadd
▁heft
cartes
inians
▁Allah
▁Spani
▁hydro
▁maple
▁Mechan
▁Newman
▁orgasm
▁scraps
▁specially
▁occurrence
▁conjunction
▁countenance
▁superficial
▁reservations
▁demonstrations
▁understandable
opf
▁oo
Nice
adic
ocal
▁Gem
▁nan
▁sap
lived
Nobody
▁Brist
▁Kenny
▁docks
Another
▁dispro
▁indisc
▁cockpit
▁surpass
▁charcoal
▁strolled
▁tangible
▁tumbling
▁belongings
▁administered
▁manufacturer
anz
▁iP
alis
anza
▁quo
athom
igail
urbed
▁Diff
▁bats
atican
▁Prest
▁admin
▁Thames
▁grades
▁shrink
▁Melissa
▁barking
▁camping
▁valleys
represent
▁fastened
▁monopoly
▁Argentina
▁Hungarian
▁advocates
▁restraint
▁compliance
▁delegation
▁regulatory
▁commodities
▁inscription
▁investigated
▁outstretched
Mem
kef
izen
pace
▁Nam
▁Von
▁mah
▁anom
▁atom
▁glor
▁André
▁antis
▁effic
▁mates
holding
▁bypass
▁equals
▁tricky
▁Somebody
▁crystall
▁hillside
▁navigate
▁trusting
▁elephants
▁incomplete
▁recovering
vik
▁AG
▁AI
▁ah
aeda
arin
esch
etin
oeuv
▁McM
▁mul
urous
▁Feel
▁pulp
▁Jules
▁embry
▁fools
▁indec
▁brands
▁livest
▁athlete
▁flicker
▁careless
▁spilling
▁Descartes
▁Southeast
▁cooperate
▁platforms
▁scratching
▁celebrating
▁correlation
▁forthcoming
▁supervision
▁satisfactory
arp
jar
▁GM
ENTY
▁hey
andum
▁Cult
▁Nice
▁Nord
ologic
▁Belle
▁Image
▁chunk
▁rites
▁vodka
October
olithic
prehens
▁Irving
▁hiking
▁robbed
▁turbul
▁Luckily
▁generic
▁parting
▁worldly
ledgments
▁analyzed
▁mushroom
▁decreased
▁screening
▁wrestling
▁discretion
▁rhetorical
▁wheelchair
Sur
Publ
olan
▁dab
▁Unit
ATIONS
▁subdu
olitics
▁Gideon
▁riches
▁scrape
▁Leonardo
▁carriers
▁reckoned
▁shredded
▁Resources
▁displaced
▁worthwhile
▁accusations
▁Occasionally
▁Revolutionary
▁substantially
PD
det
Shit
eros
▁Jak
▁Mig
▁fel
▁Fast
▁glob
manuel
▁Judah
▁inert
ensable
idation
▁dotted
▁portal
▁buzzing
▁dubious
▁monkeys
▁symptom
▁Benedict
▁dazzling
▁fleeting
▁autonomous
▁enlightened
éd
Mod
_.,
nor
esse
ihad
sens
▁DAY
heses
▁undo
▁canoe
▁stung
meaning
▁Denver
▁feeble
▁metals
▁padded
▁Cynthia
▁Ukraine
▁baggage
▁ominous
▁scraped
▁Meredith
▁Montreal
▁weighing
▁southwest
▁undermine
▁individually
KS
oic
Arch
icol
main
ubby
ulas
▁Gir
check
▁Kier
▁ribb
▁salv
alytic
angles
minate
▁Dewey
▁mould
▁verte
▁Danish
▁prolet
▁appeals
September
▁Cardinal
▁Richards
▁athletic
▁dividing
▁forgiven
▁rotation
▁thirties
▁deployment
▁mathematic
▁sunglasses
ente
▁Sew
ibles
watch
gently
▁Nobel
present
▁Jasper
▁Simple
▁excurs
cultural
▁Whoever
▁blasted
▁brighter
▁spacious
▁disgusted
▁elevation
▁Ultimately
▁highlighted
▁psychiatrist
▁Environmental
Didn
anga
usch
▁Sty
▁Und
▁Zone
▁bung
▁dots
▁Joint
▁Mitch
▁Sheila
▁cables
▁Baghdad
▁Cornell
▁Hungary
▁chatter
▁cramped
▁giggled
▁Universe
▁exercised
▁curriculum
▁journalism
OUS
squ
esan
▁sly
▁Harl
▁Sans
▁Trou
▁Want
iminal
▁shark
ographs
▁serene
optional
▁Jenkins
▁boredom
▁listing
▁morally
▁persist
▁Johnston
▁monetary
▁unwanted
▁intrigued
▁liability
▁Fitzgerald
▁Wellington
▁distressed
▁enterprises
Rev
alus
fred
help
iere
otus
▁Luk
ocols
▁Gren
▁Iowa
▁Ming
▁hose
estine
▁Eliza
▁Sincl
inished
▁Beauty
▁circus
▁cupped
▁streak
▁runners
▁leverage
▁unbeliev
▁vampires
▁Stephanie
▁livestock
▁automobile
▁disappears
▁impatience
▁recollection
Ha
▁Syn
▁yer
▁Anim
▁Piet
▁gaunt
▁lease
▁metic
▁paved
▁Confuc
▁bursts
▁staged
▁tablet
▁whisky
▁Product
▁linking
▁markers
▁investor
▁expresses
▁grotesque
▁inhabited
▁purchases
▁theorists
▁allegiance
▁tenderness
▁accelerated
▁reminiscent
▁investigators
▁eb
boys
rift
▁Kau
▁MIT
▁Pul
▁lac
▁Pine
▁cone
▁utop
uctive
▁waits
balance
▁Quebec
▁liable
▁viewer
ilateral
▁Thunder
▁grilled
▁mastery
▁visibly
▁weaving
▁biscuits
▁seasonal
▁ambiguous
▁arrogance
▁catalogue
▁reproduce
▁extinction
▁Declaration
▁archaeological
Um
▁CN
▁PO
ideo
isal
leaf
opsy
▁neo
David
hurst
illas
odied
ooted
▁tbsp
culture
forcing
▁crumbs
▁caramel
▁margins
▁robbery
▁Henderson
▁reassured
▁fulfillment
Mac
odd
▁ps
jack
▁Aub
▁Dob
▁Ing
araoh
frame
▁Cogn
▁Narr
▁Sage
▁Save
▁pint
Father
▁Build
▁cured
▁scant
▁typed
▁Tucker
▁Yugosl
▁grease
▁hopped
▁midday
▁plunge
▁refere
▁shrewd
▁enforce
▁Tomorrow
▁landlord
▁poisoned
onstruction
▁Scientific
▁compromised
▁similarities
▁strengthened
▁concentrating
Bel
Par
omes
vice
▁Qur
onica
roups
▁Surv
▁owns
▁stip
▁Allow
▁frail
▁chiefs
▁emphat
▁franch
▁redeem
olutions
▁Picture
▁asshole
▁shadowy
▁weights
▁Orthodox
▁glimpsed
▁miracles
▁operates
▁segments
itarianism
▁unfinished
▁manufactured
▁developmental
Long
▁FDR
▁Gau
othel
▁Risk
▁THIS
▁Chang
▁Siber
▁Assess
▁Harlem
▁covert
▁viable
▁Derrida
▁creator
▁cursing
▁novelty
▁sensors
▁annoyance
▁squeezing
▁adolescent
▁transcript
▁Contemporary
AVE
imi
▁DVD
▁Sixt
▁TIME
▁maze
▁mute
▁penn
▁plag
▁Concl
▁bount
▁chast
▁messy
▁socio
Science
▁Choose
▁Online
▁abused
▁bumped
▁linger
▁vanity
official
▁Belgian
▁colleges
▁coughing
▁crystals
▁mutually
▁vitamins
▁maintains
▁underwater
Min
awl
gro
circ
▁**(
▁cum
▁Hipp
▁Huss
▁Nest
▁tidy
uclear
yrinth
▁Delta
▁eerie
▁groan
pically
▁muster
▁orphan
▁activist
▁launching
▁consultant
▁projection
▁communicated
▁uh
ABLE
Other
▁Monk
▁knob
utting
▁Brief
▁Wilde
▁deity
▁swirl
usually
▁nausea
▁posters
▁spoiled
▁MacArthur
▁economists
––
Big
leb
▁ii
beth
heus
▁ALL
▁Cos
▁Odd
▁Tat
Point
ceans
tails
these
vable
▁Aber
▁Beng
▁Elli
▁Giov
▁coax
▁pend
▁trek
▁Doyle
▁Pompe
▁disob
keepers
▁Ginger
▁kettle
▁Digital
▁audible
▁premise
▁clicking
▁hitherto
▁shortage
▁disguised
▁recognizes
SO
ANS
olyn
▁PhD
icans
▁Cosm
▁Howe
▁Rams
▁sulf
Anyway
figure
umbing
▁deton
▁salty
▁Ferdin
▁Norweg
▁applic
▁inexpl
▁shoots
▁soften
▁stalls
▁Abigail
▁Maxwell
▁rotting
▁assassin
everything
▁Hemingway
▁committing
▁conflicting
best
lass
▁PRE
horse
ishna
napped
▁Abbey
▁blush
▁ordin
▁plast
▁semin
alities
▁famine
▁lenses
▁muzzle
▁Shirley
▁Vatican
▁horrors
▁slowing
▁dinosaur
▁sketches
▁vitality
▁contented
▁unnatural
▁Commonwealth
▁Ri
oebe
▁Luis
▁laps
▁nond
ankind
fields
rified
▁Angus
▁Debor
▁lions
▁boxing
▁disemb
▁swayed
▁Freeman
▁bruises
▁estates
▁tasting
▁Crawford
▁Sinclair
▁covenant
▁credited
▁grasping
▁guessing
▁limiting
▁strapped
▁Generally
▁Nathaniel
▁activated
▁greatness
▁inspiring
▁orchestra
▁Resistance
▁identifies
▁missionary
▁repression
▁republican
Mal
mia
▁ja
etra
midt
▁Cox
uddle
▁Erik
▁Wine
▁misc
▁muff
berger
▁bolts
▁dizzy
▁drone
▁lacks
▁Territ
▁ascent
▁canned
Anything
▁Combine
▁cushion
▁outlook
▁ribbons
▁Creating
▁epidemic
▁eventual
▁consuming
▁synthesis
▁postmodern
▁Philippines
▁physiological
much
▁TWO
▁Tah
cedes
odies
rants
▁Exam
▁chew
▁mete
▁Block
▁naive
▁raped
▁Create
▁Pepper
▁ambush
▁attent
▁causal
▁innate
▁rugged
▁witches
political
▁disputes
▁flooding
▁comprised
▁declaring
▁contracted
▁mentioning
▁Chamberlain
FK
egu
lag
las
tal
▁ov
oufl
quire
space
▁Else
▁Gore
▁lure
ppings
▁Herod
▁Maure
▁Tracy
▁rumor
▁spicy
▁Adorno
▁Leader
▁bathed
▁demise
▁outbur
▁pearls
▁repent
Probably
▁Freddie
▁charism
▁impacts
▁pinched
▁Electric
▁Paradise
▁exploited
▁straining
▁victories
▁triumphant
▁handwriting
▁imaginative
Po
'?"
UTH
emer
eped
▁Mik
▁Tak
ifted
▁Same
▁Stev
▁caus
▁lush
▁vind
Jewish
ippers
▁Lynch
▁badge
▁clown
▁sciss
▁swive
entieth
▁Waters
▁stitch
▁sweaty
December
incerity
▁clarify
▁extingu
▁howling
▁legends
▁Planning
▁prevents
▁stitches
▁Cathedral
▁molecular
▁deficiency
▁marketplace
▁schizophren
pay
▁BM
onne
Neill
arine
▁Cann
▁ador
ishops
pering
rapped
▁Fanny
▁Gavin
ropolis
▁Sandra
▁coping
▁outset
▁salute
▁Chelsea
▁Kitchen
▁coaches
▁gasping
▁lesbian
▁Continue
▁fifteenth
▁breathless
▁Thanksgiving
Ter
eye
Nove
stri
▁Lux
Semit
iants
ucing
▁splin
▁banged
▁robots
▁sectors
▁sixties
▁Guardian
▁deposits
▁distrust
▁numbered
▁revolver
▁negotiating
▁prospective
idi
oire
thus
▁Bac
▁Tyr
▁ome
hetti
iatry
▁Hers
▁Malt
▁palp
outhed
▁Carne
▁amber
▁motel
between
▁Nearly
▁maiden
▁napkin
▁naught
▁Concept
▁Sheriff
▁almonds
▁centres
▁deficit
▁mundane
▁noodles
▁Morrison
▁virtuous
ordinarily
▁agreeable
▁reprinted
▁misfortune
▁disciplines
▁indignation
▁segregation
▁acknowledging
▁appropriately
ACH
orc
vre
etus
oker
▁Joey
▁weld
advert
▁Carly
▁Occup
▁rains
uttered
▁derive
▁poking
▁shrill
▁Gardner
▁Hillary
▁Memphis
▁Webster
▁imaging
▁swaying
▁villain
▁sanction
▁antiquity
▁blessings
▁dispersed
▁dysfunction
▁frustrating
▁nutritional
▁stimulation
▁irresistible
▁autobiography
True
chev
gall
llan
▁Din
▁mule
▁slot
▁Canad
▁Thorn
▁aroma
▁sings
▁Marina
▁sermon
▁spears
▁adviser
▁regimes
▁Industry
▁preacher
▁Northwest
▁endurance
▁fluttered
▁populated
▁saturated
▁devastated
▁trajectory
▁participating
FR
Ms
eek
sic
ucc
▁xv
bels
cies
James
armac
holic
women
▁Volt
Commun
ltered
▁Final
▁arsen
▁bluff
▁Gibson
▁pillar
▁Deborah
▁Gardens
▁dismant
▁expanse
▁sublime
▁Brussels
▁password
▁portable
▁realizes
▁Available
▁exhibited
▁preaching
▁unlimited
▁greenhouse
▁securities
▁inclination
International
umi
▁Ved
birth
▁Balk
▁fost
▁Dance
▁Manuel
▁engulf
▁galaxy
▁plasma
▁suprem
▁Airport
▁Mercury
▁Origins
▁aligned
▁benches
▁pathway
▁vibrant
▁barbecue
▁enlisted
▁infamous
▁accounted
▁predators
onnaissance
▁prescription
▁grandchildren
EG
uj
Stud
ados
does
isen
odor
zier
▁Milo
▁smug
istine
season
▁Smart
▁beers
▁riots
▁Elliot
▁Excell
▁naming
▁Holding
▁Summary
▁looming
▁revived
▁barefoot
▁Robertson
▁discrimin
▁peninsula
▁Aboriginal
▁transforming
SM
uen
yss
▁IR
miah
▁aux
apper
▁Darc
▁feas
▁turb
anking
aurant
ifiers
▁Caleb
▁onset
▁scout
▁tumor
▁Choice
▁allied
▁benign
▁infect
▁learns
▁swings
▁Negroes
▁remorse
▁specify
▁twelfth
▁Oriental
▁fragrant
▁prophets
▁Englishman
▁accidental
▁aesthetics
▁disgusting
▁corresponds
Hmm
▁Kai
▁lem
▁sho
Leave
aires
ocide
othes
speed
▁Fant
attery
▁Crane
▁Pedro
▁scold
atories
▁Helena
▁Herman
▁bamboo
▁finite
▁chiefly
▁memoirs
▁vintage
▁confided
▁regained
▁prestigious
▁reconciliation
hm
ISE
ité
Help
oody
▁PAR
inous
remes
▁Costa
▁Hutch
▁Sudan
▁setup
ilantro
▁Joanna
▁violin
ancouver
friendly
▁Carroll
▁Leaving
▁Lebanon
▁elusive
▁sensing
▁thicker
▁Griffith
▁childish
▁signaled
▁colonists
▁diplomacy
▁endlessly
▁impending
▁placement
▁Ambassador
saw
nery
shop
aines
grave
▁Male
▁hors
▁moth
▁surm
French
always
otions
umbles
▁Elder
▁Ernst
▁Whole
▁hooks
ampered
ethoven
lasting
▁Annual
▁Rockef
▁Trevor
▁martyr
▁myriad
▁Trinity
▁garment
▁spheres
▁awakening
▁intervene
▁resonance
▁displaying
▁sweetheart
Ev
PT
▁AW
hift
▁Ave
▁Jin
▁Yam
aphne
techn
▁Clem
▁Odys
▁Sabb
▁[...
kinson
▁meter
▁scept
▁Oswald
▁greasy
▁warmly
▁Andrews
▁Certain
▁blushed
▁dreaded
▁soaking
▁Athenian
▁cylinder
▁unreason
▁agitation
▁digestive
▁recognise
▁detachment
▁reservation
▁undertaking
▁Communication
rak
▁Ey
▁QU
Last
iffs
went
▁Vul
▁rags
▁smir
▁tipt
amburg
iciary
▁Drain
▁cling
▁wedge
article
skinned
▁affili
▁asylum
▁Tonight
▁cynical
▁indoors
▁killers
▁refrain
▁bastards
▁allegedly
▁sequences
▁playground
▁persecution
▁acquaintances
▁parliamentary
▁unconsciously
iao
anan
idly
imed
lord
oppy
▁Dum
track
▁Aren
▁eats
ickers
lantic
▁antit
▁cider
▁phoned
▁unhapp
heastern
▁Duchess
▁lighted
character
condition
▁observes
▁pathways
▁responds
▁windshield
▁communicating
▁contradictory
DER
make
▁Lena
▁Vent
▁tile
search
▁Carlo
▁trill
▁Fraser
▁Spread
▁nobles
opolitan
▁Machine
▁armored
▁dissent
▁disliked
▁dissolve
▁figuring
▁mustache
▁unsalted
▁Byzantine
▁adjusting
▁designing
▁enjoyable
▁resembles
▁switching
▁commitments
Dis
icc
yet
sein
tech
brook
▁Cock
▁Sent
▁pits
▁Sales
Century
▁chilly
▁devoid
▁errand
▁petals
▁Jupiter
▁Scandin
▁boasted
▁narciss
▁pyramid
▁sunrise
▁Marriage
▁Medieval
▁violated
▁Ferdinand
▁emissions
▁inflicted
▁makeshift
▁pointless
▁Pittsburgh
▁encourages
▁shimmering
nn
Feb
▁SL
Russ
afia
oled
ushi
▁jug
ebted
group
hardt
▁Easy
▁Wake
▁dizz
▁liar
▁atroc
▁boast
▁pupil
▁stalk
▁worms
▁Therap
▁spends
▁adverse
▁packets
▁platter
▁rehabil
ellectual
ographies
▁Romantic
▁flinched
▁Transport
▁Correspond
▁exceedingly
▁financially
▁Rd
eway
hael
▁Kur
▁bip
cents
▁Gest
▁Hiro
▁diox
▁ranc
▁spac
igraph
mighty
placed
▁probe
▁slips
▁Morton
▁Pierce
▁barric
▁hypnot
▁nudged
▁resign
▁Goddess
▁dictated
▁regulate
▁computing
▁organised
▁troubling
▁purchasing
▁incomprehens
pie
▁IX
▁PD
Note
dark
hops
▁Tao
▁Coke
▁claw
▁duel
▁trio
inkles
rophic
▁Randy
▁merry
▁scoop
oughton
reating
▁aerial
▁evolve
▁pastor
▁vector
▁baskets
▁bombard
▁chuckle
▁tracing
▁advisers
▁cheering
▁conceded
▁renowned
▁horseback
▁negotiated
▁prosecutor
▁starvation
▁tournament
▁unbearable
▁innovations
Mer
dal
weh
Were
▁Boo
▁Dat
▁Dro
▁Eur
▁MAK
▁lag
aceut
▁Pall
▁Pure
▁pens
ensing
▁Britt
▁patio
▁vigil
▁Archer
▁builds
▁gaping
▁Crystal
▁chimney
▁tremble
▁incoming
▁nowadays
▁obedient
▁reasoned
▁indirectly
▁miraculous
▁progression
▁congressional
▁indispensable
Six
lore
▁***
Women
▁carp
▁lull
▁sums
▁Monte
▁Quint
▁clash
▁repay
▁unfor
▁Flight
▁barred
▁dissip
▁tactic
▁Pearson
▁drought
▁exhilar
▁rabbits
▁substit
▁Americas
▁armchair
▁securing
▁cultivate
▁cooperative
▁wonderfully
Conf
▁Abe
thren
▁Nile
▁Tara
▁deme
degree
▁ABOUT
▁deple
▁Beside
▁Magnus
▁Nevada
▁Puerto
▁Keeping
▁banquet
▁drafted
▁jackets
▁presupp
▁tablets
▁Pentagon
▁alarming
▁recipient
▁dictionary
▁invaluable
▁retreating
▁predictions
▁Pi
gets
▁Bin
▁Kos
▁Ske
▁coh
built
ogram
▁Café
▁Fill
▁Pole
▁arth
▁lick
▁Worse
▁annih
▁exter
▁macro
▁pouch
▁resur
▁vener
English
undered
▁Sports
▁melody
historic
▁Meeting
▁Writers
▁reassure
▁slamming
▁stroking
▁Regardless
▁generating
▁inherently
Ag
Cr
___
haus
infl
▁Jem
▁Kee
▁las
Phone
ascal
onnet
▁Bois
▁chir
▁Nigel
▁Stars
▁perme
▁tapes
▁unatt
uncture
▁Audrey
genstein
▁Montana
▁Taliban
▁updates
▁captains
▁finances
▁revision
▁Treatment
▁balancing
▁marvelous
▁poisoning
▁sheltered
▁manipulate
▁similarity
Dad
Mat
tis
▁ARE
▁Ava
▁Ike
▁Kas
▁Pai
▁gem
▁liz
block
ccoli
essim
▁Isle
almost
turned
▁Spect
▁chili
▁cocoa
▁curly
▁poses
▁Rupert
▁broker
▁shovel
iquitous
▁charter
▁refugee
▁obscured
▁uprising
▁recognizable
▁extraordinarily
/>
GR
Sil
obil
▁Bit
▁pas
▁tid
asian
grims
ioxid
amorph
▁Flynn
▁Fritz
▁Levin
▁daddy
▁figur
▁mused
▁seals
▁Alison
▁Austen
▁Ethics
▁Indies
▁dancer
▁glossy
▁speeds
▁Capitol
▁Vermont
▁analyst
▁reorgan
atization
▁Exercise
▁bedrooms
▁retorted
▁countered
▁obtaining
▁powerless
▁assistants
▁credentials
▁apprehension
▁insignificant
abi
dead
▁Liu
▁Nak
▁Tip
▁ape
assed
▁holl
arency
igible
▁Twain
▁Value
▁slate
atement
▁Archie
▁coldly
▁Elliott
▁credits
▁garnish
▁relying
intendent
▁Mercedes
▁decidedly
▁deposited
▁liberated
▁specialty
▁complexion
▁assignments
▁extensively
Men
Sam
▁IC
Lady
pole
umen
▁Maz
▁Soup
UCTION
agonal
inters
▁Alpha
▁Cecil
▁Kathy
▁slung
▁smash
▁traps
▁Dakota
▁Ronnie
▁Saddam
▁culmin
▁fusion
▁module
▁vanish
▁Article
▁Donovan
▁debated
▁ensured
▁pasture
▁surreal
▁anchored
▁constell
▁Christina
▁Egyptians
▁disregard
▁intensive
▁oppressed
▁stimulate
▁proceeding
▁convictions
▁seriousness
▁susceptible
"**
INS
ahu
oko
Alex
OUND
helor
▁hege
▁pets
▁soak
atered
cester
skirts
▁Mills
▁Wolfe
▁chord
▁grove
▁mixer
▁TWENTY
▁domest
▁elites
▁Melanie
▁handles
▁rainbow
▁servers
▁strains
▁Cromwell
▁connects
▁rattling
▁Biography
▁untouched
▁penetrated
▁prohibited
▁aristocracy
▁articulated
▁temperament
FA
Sl
WH
lda
give
rows
▁nib
death
flict
rowed
▁suic
▁wits
ieving
oppers
▁notor
▁sperm
▁stale
general
▁Cicero
ivalence
▁chooses
▁lateral
▁Normally
▁incompet
▁Character
▁attentive
▁bartender
▁headlines
▁inscribed
▁regulated
▁redemption
▁restrained
▁dangerously
▁rectangular
Pre
arf
fts
zel
enez
iste
oshi
▁coy
Henry
anson
backed
ellers
esters
vasive
▁Clyde
▁Hazel
▁dolph
▁franc
▁spoil
Captain
atorial
hetical
▁Colomb
▁Wisdom
▁Bristol
▁anytime
▁mammals
▁newborn
▁onstage
▁seafood
▁tenants
▁expelled
▁indebted
▁unspoken
▁Chronicle
▁Indonesia
▁Mussolini
▁prevailed
▁sprawling
▁Protection
▁anticipate
▁appointments
▁subjectivity
dar
hey
▁DA
aise
▁Zoe
▁loo
▁tam
ichte
▁Fact
Sounds
ianism
rieved
▁Birds
▁Johns
▁Rocky
▁Smoke
▁undes
▁ostens
▁strive
language
▁Iceland
▁Members
▁Trotsky
▁banging
▁scenery
▁subdued
▁hurrying
▁servings
▁sprawled
▁momentary
▁heightened
▁performers
▁bureaucracy
Ori
tel
auld
avor
▁Cod
▁Kaf
South
▁Mine
▁WHAT
▁hiss
▁paws
▁Darcy
▁Hayes
▁chore
▁clich
▁dimly
winning
▁Louisa
▁Reader
▁grants
▁modify
▁fearing
▁locking
▁admiring
▁recounted
▁accusation
▁initiatives
▁authenticity
▁correspondent
'?
HD
▁Dy
Free
ilis
elect
▁Adri
▁Gabe
▁Repr
▁WILL
▁chak
▁pawn
▁summ
▁Lucky
▁appra
▁choir
▁disse
▁livel
▁moust
▁muted
▁pearl
another
▁merits
▁onward
European
neapolis
▁bounded
▁Clarence
▁lipstick
▁recordings
▁Rockefeller
▁documentation
▁–'
Read
▁Nim
▁Dame
▁Swan
▁nois
▁Happy
lesiast
▁funded
▁plaint
▁puffed
▁Masters
▁admiral
▁incentive
▁patriotic
▁adequately
▁generously
▁metabolism
erd
ATER
Hard
ipse
▁Led
▁fry
dding
▁Anto
▁Dial
▁Hass
▁Laws
▁mare
▁rupt
lysses
odynam
▁Alban
▁Lives
▁Write
▁eaves
process
▁Visual
▁sorted
andering
▁Convers
▁Support
▁cruiser
▁stature
▁Attorney
▁Ferguson
government
▁admirable
▁arranging
▁listeners
▁outskirts
▁abandoning
▁apprentices
▁disturbance
▁intensified
▁misunderstanding
nae
▁Cu
gold
ooth
▁Aqu
▁HOW
▁duc
▁foe
ipers
ithms
strom
▁Host
▁Palm
▁Femin
▁fianc
▁quilt
thinking
▁stalked
▁culinary
▁friction
▁murderous
▁circulated
▁prosperous
▁Accordingly
▁specialists
lot
owl
oya
NING
▁Eat
▁Kun
▁Shi
▁Bram
▁Coal
▁Task
▁flirt
▁irrig
▁plung
January
▁Daphne
▁indist
▁rating
▁roller
▁browned
▁framing
▁repairs
▁stables
▁Jeremiah
▁Starting
▁magician
▁outsider
▁Beethoven
▁Stevenson
▁directory
▁microwave
▁decorative
▁enormously
▁protagonist
▁demonstrating
Mil
oba
brev
▁Riv
▁gor
achev
▁Hear
▁noun
isance
▁Impro
▁rusty
stanbul
▁Jerome
▁Phoebe
▁Toward
▁greedy
▁oceans
▁Manager
▁bearded
▁bidding
sometimes
▁Communism
▁acquiring
▁reverence
▁activation
▁scattering
▁formulation
▁supermarket
▁affectionate
FOR
tale
▁Dex
▁Ful
▁GRE
▁Rue
▁Sri
▁Tate
▁neon
▁slab
finger
inders
rament
▁Booth
▁Names
▁Range
▁slain
▁Cotton
▁Lester
▁Weekly
▁filing
▁vendors
▁assemble
▁costumes
▁applicable
▁simulation
▁contemplate
ANCE
ietal
▁accl
▁anew
around
▁burgl
▁hazel
▁lyric
▁brakes
▁risked
▁Running
▁ecstasy
▁Vancouver
▁illusions
▁adrenaline
▁conspicuous
▁subordinate
▁contemplated
Aut
Los
Met
▁Pé
ango
▁Maid
▁Pell
▁Rust
▁lads
▁logo
gender
ittees
mental
▁Denis
▁Wyatt
▁dwind
▁gangs
▁mustn
Welcome
taining
▁dances
▁Coleman
▁Perfect
▁carving
▁lineage
▁blinding
▁Religious
▁poisonous
▁misleading
▁coordination
ASE
_.'
avis
loss
▁Hed
▁Ibn
▁Rid
birds
often
super
▁Trip
▁dick
manent
▁Blues
▁insol
▁lymph
product
▁Yankee
▁decree
▁stalks
▁camoufl
▁manages
▁Physical
▁distaste
▁mouthful
▁reversal
▁upcoming
▁intermitt
▁occupying
▁fulfilling
▁vegetarian
▁Performance
▁fingernails
▁persistence
san
▁DJ
▁Egg
▁Pit
▁WAR
algia
antha
idious
ienced
▁Boris
▁Bread
▁Clean
▁Warri
▁curry
▁necks
▁retal
▁unnot
▁adored
▁frenzy
▁screec
▁Phillip
▁clamped
▁confisc
▁presume
▁Specific
▁analysts
▁attacker
▁believer
▁billions
▁revenues
▁splashed
▁fishermen
▁interconn
▁critically
▁Constantine
▁sensibility
▁systematically
FO
ICH
akov
▁---
▁Aly
▁GDP
▁Opt
▁Poe
inski
ribed
▁Evil
▁pian
celona
hammed
▁Sonny
▁diets
▁gleam
▁medal
▁Effect
▁chores
▁fiscal
▁hanged
▁plight
▁blurted
▁cleaner
▁lurched
▁rubbish
▁torrent
▁tourism
▁Computer
▁Davidson
▁astrolog
▁cellular
▁enforced
▁scissors
controlled
▁Norwegian
▁Yorkshire
▁imperfect
▁specimens
▁recruiting
▁supervisor
▁visibility
▁discouraged
▁speculative
▁conditioning
FT
▁FE
▁—"
mith
▁Tig
▁fir
▁imb
▁muc
▁pix
alian
▁Cinc
▁Frey
▁Winc
▁nuns
iander
▁pneum
▁sleek
▁Mister
▁beamed
▁spinal
▁turret
▁Beneath
▁Glasgow
▁adorned
▁crammed
▁grazing
▁prisons
▁raining
▁literacy
▁workings
▁Beginning
▁unfolding
Reg
bas
mie
game
▁COL
▁nun
scill
▁Chal
▁Gott
▁buoy
▁null
▁Avery
▁bleed
▁intra
bearing
ermined
▁Laurie
▁Server
▁paddle
▁pauses
▁rattle
▁selves
▁stacks
▁Fifteen
▁Fortune
▁clipped
▁inflict
▁pumping
▁Heritage
▁Normandy
▁repaired
▁solemnly
▁Classical
▁defendant
▁hurriedly
▁luxurious
▁outsiders
▁sincerity
▁housekeeper
▁intermediate
▁contemplating
▁intentionally
SW
ées
▁rh
OUGH
ovie
role
▁CAN
▁Due
▁Lag
▁Urs
▁Wyn
umann
vings
▁Utah
▁mend
enburg
little
udence
▁Gould
▁Teleg
▁sighs
▁Gentle
▁Isaiah
▁Murder
▁tangle
▁trader
▁Evening
▁differs
▁notices
▁endeavor
▁paranoid
▁synchron
▁gardening
▁Translated
▁emphasizes
▁entrepreneurs
dev
▁SN
rude
▁POW
scape
▁Sach
▁Warm
▁harb
▁punk
direct
osures
▁brute
▁footh
▁sells
riction
▁Animal
▁ballet
▁coated
▁requis
Courtesy
educated
▁filming
▁indulge
▁Giovanni
▁Vladimir
▁rigorous
▁spelling
▁survivor
▁volatile
▁Initially
▁fortified
▁posterior
▁adjustments
▁extravagant
Ben
ONG
iya
▁FA
▁HT
akin
clad
seus
▁bir
▁Hero
▁Maud
▁NATO
▁Thir
▁peac
ailand
ainable
rescent
▁Fields
▁Prague
▁Stevie
▁snacks
umerable
▁rhythms
▁steamer
▁tyranny
▁Kathleen
▁muttering
▁readiness
▁undergrad
▁absorption
▁compensate
▁translator
VA
vic
zza
▁NC
▁DIS
▁vet
alyst
olson
pires
▁Duck
▁Kids
▁amen
▁culp
lavery
▁peach
▁pious
concept
joining
pitched
▁Celtic
▁defect
▁enjoys
▁kosher
▁wisely
▁Beckett
▁Effects
▁blinded
▁footing
▁imprint
▁mingled
▁scooped
▁filtered
▁guarding
▁oriented
▁smoothed
interested
▁sincerely
▁analytical
▁courageous
▁decoration
▁skepticism
▁universally
▁accomplishment
▁accomplishments
ovo
▁Gw
ffer
itic
▁wig
Charl
▁Prem
▁cass
acting
iators
shirts
▁Lemon
▁Noble
▁Plaza
▁Shane
▁lanes
▁spawn
▁stagn
▁typew
▁Yorker
▁booked
▁calmed
probably
▁Beverly
▁curling
▁fumbled
▁invoked
▁renewal
imination
▁annually
▁anterior
▁declares
▁resented
▁denounced
▁unmistakable
uze
wid
Vict
alsa
kees
ocado
ussed
▁Hyde
▁Mara
▁clad
▁rais
▁sane
agogue
ocused
▁Lords
▁Rules
▁Sammy
fitting
▁Branch
▁Orwell
▁hockey
▁softer
▁whales
▁lending
▁printer
▁sparked
▁agreeing
▁appalled
▁blackened
▁Ironically
▁metaphysics
▁disagreement
▁registration
Abs
Sit
zig
▁Og
felt
worm
▁Sax
Child
Looks
▁Disp
▁ding
▁fidd
▁wigg
castle
venile
▁Brock
▁brink
▁grabs
▁plank
▁rainy
idering
▁Cambod
▁Flying
▁Greens
▁breadth
▁gravely
▁skipped
▁Identity
▁outraged
cyclopedia
▁assessing
▁recalling
▁reconcile
▁introduces
▁peripheral
▁pleasantly
▁standpoint
▁methodology
▁economically
▁missionaries
'—
cs
LES
map
fund
▁Aer
▁viv
osion
ramer
ullah
▁Arms
▁Ober
▁Yard
▁bony
▁leng
▁pomp
▁ramb
▁vase
▁wist
eating
▁Naomi
▁Witch
▁allev
▁sabot
▁Anders
▁Cheese
▁Mental
▁Potter
▁neglig
▁throng
▁ghostly
▁pottery
▁provoke
▁rations
▁adopting
▁concerts
▁mischief
▁recruits
▁Constance
▁attackers
▁tentative
▁anthropology
▁reinforcements
—_
dle
▁Bag
▁rud
opold
▁Boyd
▁Carn
▁Mild
▁kern
▁aster
▁joked
avilion
oulders
▁impair
▁Charley
▁convent
▁strides
▁torches
▁undergo
pretation
▁afforded
▁humility
revolution
▁Depending
▁injection
▁marijuana
▁overthrow
▁protocols
▁capacities
▁networking
▁outrageous
▁Continental
▁confidently
▁Palestinians
▁bureaucratic
▁manifestations
▁Acknowledgments
Pol
cit
▁'"
▁fid
ilded
▁Cruz
▁Lith
▁Nova
▁oval
illion
recogn
▁Chart
▁Defin
▁Jared
▁Sasha
▁Vaugh
▁Weiss
▁annex
▁bounds
▁holder
ecessors
ientific
▁Vanessa
▁orchard
▁popping
▁sensual
▁severity
▁Originally
▁architects
▁conferences
aja
ndt
horn
ithe
prop
umbo
▁Ida
Shall
hrush
ifest
river
ucent
▁Cait
▁Avoid
▁Becky
▁ducks
▁meats
▁yacht
brother
zheimer
▁Scotch
▁Welles
▁awards
▁lashed
▁legion
▁menace
▁safegu
▁salted
▁sparse
▁Hunting
▁dioxide
▁mapping
▁assessed
▁allowance
▁preferably
▁notwithstanding
ea
arly
ijah
▁Tas
▁Wash
▁hawk
▁outn
▁stam
▁Brett
▁Cinem
▁moods
▁query
▁gladly
▁heroin
▁lunged
▁perenn
▁Marxism
▁Reality
▁Whitman
▁thermal
▁kidnapped
▁testified
▁calculating
▁mindfulness
▁conservatives
Ty
Sal
fal
mic
▁--
gang
phal
▁Bun
early
▁Grim
▁Than
▁dele
▁poul
▁Antar
▁blaze
▁coral
▁tasty
▁unden
▁weave
portion
▁Bulgar
▁comics
▁hosted
▁indict
▁sodium
▁suburb
▁uncond
▁Meaning
▁anatomy
▁presses
▁theolog
▁thyroid
▁voltage
icultural
▁Marianne
▁Venetian
▁backseat
▁laborers
▁smelling
▁striving
▁Peninsula
▁dignified
▁References
▁headlights
▁progressed
▁spectacles
▁disapproval
▁homosexuality
▁predominantly
▁?
ITE
Try
cra
eer
opot
▁Kol
▁cos
▁ray
gaard
▁Dele
▁Grac
▁Pros
▁extr
aiming
ezvous
rategy
▁Fidel
▁counc
▁folly
▁inexp
▁rails
▁Gender
▁Miguel
▁Pretty
▁Simply
▁antiqu
▁basics
▁hooves
▁pumped
▁relish
▁Reflect
▁dinners
▁playful
▁travers
▁Speaking
▁bubbling
▁genealog
▁appalling
▁embracing
▁festivals
▁insistent
▁Psychiatry
▁explosions
▁suspension
▁victorious
▁commonplace
▁friendships
▁Wittgenstein
▁disadvantage
Ir
RL
iji
isi
aird
▁Boe
▁Cay
times
▁erad
▁zoom
alions
rators
▁Blanc
▁Essex
▁Flint
▁await
▁niche
▁wanna
▁Credit
▁Simone
▁Yahweh
▁banker
▁handic
▁olives
▁buffalo
▁Writings
▁coaching
▁neurolog
▁Gradually
▁capturing
▁depressing
▁legislature
▁Alternatively
SH
Dem
fur
hma
anka
shaw
▁OUT
doing
icent
▁Parr
▁Role
▁harp
▁ting
United
ancies
ighted
▁Hitch
▁Lakes
▁marin
▁stump
married
▁Bonnie
▁Estate
▁Histor
▁Serves
▁bomber
▁impass
▁overfl
▁pessim
▁flaming
▁insofar
▁reproach
▁shepherd
▁slippers
▁Patterson
▁admitting
▁ancestral
▁someplace
established
▁graduation
▁supplements
▁predecessors
▁RG
▁Vo
▁ft
High
_...
bred
ecca
omot
▁aus
▁vex
Roman
index
▁vows
▁Legal
▁Poems
▁foyer
▁grapp
▁revis
▁valve
paragus
▁Senior
▁Trying
▁endors
November
iterated
restrial
▁Claudia
▁fifties
▁impover
▁ushered
▁backdrop
▁blossoms
▁efficacy
▁journeys
▁mastered
▁briefcase
▁continual
▁trademark
▁ceremonial
▁controller
▁manifested
▁shareholders
▁unsuccessful
ISS
god
tte
uez
atar
oids
wald
▁Kab
▁Nas
▁Rex
▁eve
entia
start
▁Ezra
▁Into
▁Vine
▁bait
▁carb
▁duly
ischen
▁growl
▁Barney
▁Dawson
▁Hispan
▁Kaiser
▁Syrian
▁dubbed
▁ghetto
▁incent
▁lavish
▁pledge
isations
▁pausing
▁pumpkin
▁refresh
▁shoving
▁spreads
▁transit
▁briefing
▁incompat
▁listener
▁reverber
▁seasoned
▁spitting
▁ascertain
▁indicator
▁mentality
▁intimately
▁ubiquitous
Us
opa
orp
issy
laus
uble
▁Tac
▁tet
Queen
inoza
▁Mell
▁dans
▁hail
▁moan
▁hairy
▁hides
▁newer
▁vapor
▁Eating
▁climbs
▁embark
▁faults
▁photoc
▁Earlier
▁Weather
▁bankers
▁defects
▁lobster
▁prevail
▁ratings
▁stumble
▁Thailand
▁Watching
▁exhibits
▁speeding
▁possesses
▁stressful
▁hysterical
▁minorities
▁quotations
▁thirteenth
MP
Bre
nas
▁EL
Disc
Pres
ayan
ichi
▁qui
Smith
▁Folk
▁McCl
▁phon
asmine
celain
family
▁[...]
▁calam
▁dazed
▁feeds
▁loops
▁waver
▁hailed
▁Allison
▁Grandpa
▁Suzanne
▁apocaly
▁hostess
▁stealth
▁vividly
▁downhill
▁urgently
▁labyrinth
▁competence
▁envisioned
▁uncontroll
▁righteousness
aku
Down
chin
imus
krit
wolf
▁Era
▁Ost
since
▁Gaul
▁USSR
▁Wise
▁terr
irting
▁Adolf
▁Cherry
▁Hellen
▁Vernon
▁admits
▁clutch
▁incess
▁ordeal
▁salads
▁Buffalo
▁conject
▁Carnegie
▁Springer
▁banished
▁shrieked
▁uniquely
▁Agreement
▁advocated
▁benefited
▁normative
▁superiors
▁telegraph
▁telescope
▁distribute
▁treacherous
OCK
stit
▁Dud
▁yel
chini
ecker
ophon
ptive
▁harv
guided
strate
▁Brent
▁Celia
▁Jenna
▁THREE
▁comed
▁flare
▁unner
ference
▁Agatha
▁Growth
▁dramat
▁vastly
▁Classic
▁briskly
▁stiffly
▁stormed
▁workout
▁wrecked
dependent
hrushchev
▁Academic
▁deepened
▁stresses
▁declining
▁submerged
▁simultaneous
AME
Mag
sha
Open
▁HER
▁gag
image
lated
uling
▁Send
▁Gerry
▁Revel
▁belts
▁venue
content
inently
▁Safety
▁acoust
▁cosmos
▁fringe
▁typing
coloured
▁Morocco
▁Strauss
▁hugging
▁inhaled
▁persona
▁plateau
▁stripes
▁trotted
▁forensic
▁inadvert
▁insanity
▁collision
▁Liberation
▁questionable
▁accountability
lov
▁ff
Poor
chal
uela
▁Dru
▁Toy
bable
estry
▁Erin
▁asym
▁lobb
▁mesh
ickets
▁Plate
▁Visit
▁flats
▁parap
▁scoff
▁versa
mission
▁Compar
▁Darius
▁indoor
▁perish
▁recons
▁zombie
▁Journey
▁Sources
▁Thomson
▁jeopard
▁ripping
▁spelled
▁Document
▁embarked
▁switches
▁whipping
▁Boulevard
▁generates
▁monuments
▁Production
▁butterflies
▁disciplined
▁comprehension
'),
Ham
icz
meg
sil
Post
Tube
ibus
▁Coo
Death
aston
cheon
▁Lars
▁Morm
▁Pound
▁abyss
▁afore
▁epoch
▁Keynes
▁buzzed
▁giants
▁Archive
▁futures
▁stimuli
▁swirled
ographers
prisingly
▁boulders
▁doorstep
▁nitrogen
▁powdered
▁remedies
▁Frankfurt
▁precarious
▁resembling
ME
aan
chy
▁EP
▁GL
▁Mi
▁OS
Fore
aryn
holm
oras
▁ABC
▁Apr
▁Ard
elius
herry
onson
▁Away
▁Yoga
▁kale
▁mosa
▁Getty
▁coerc
▁conco
▁doses
jection
▁Cities
▁Pamela
▁Sevent
▁Sultan
▁amidst
▁edible
▁fluids
▁rumble
▁caravan
▁fastest
▁founders
▁painters
▁specimen
▁celestial
▁cherished
▁resisting
▁Agriculture
▁abstraction
▁participant
▁exceptionally
▁reconnaissance
Ten
▁GU
atem
meas
udic
▁cac
▁paw
▁Bowl
▁Peru
ersion
indust
romagn
▁McCle
▁Opera
▁Woolf
▁handc
altered
▁Angels
▁Legion
▁bounce
▁cereal
▁toothp
business
idential
▁Goldman
▁coating
▁slaught
▁Istanbul
▁pamphlet
▁parental
▁remotely
▁stricken
▁favorites
▁unnoticed
▁brightness
▁fourteenth
▁Metropolitan
▁investigator
Mary
last
North
astly
uably
▁CONT
▁Mona
▁chal
▁huts
▁Jonas
▁Style
▁bikes
▁quasi
stained
▁Hammer
▁offset
▁realms
▁Shannon
▁crowned
▁dresser
▁epistem
▁extinct
▁hostage
▁qualify
▁repeats
▁thinner
gradation
▁Countess
▁Heinrich
▁galleries
▁splitting
▁culturally
▁millennium
▁motorcycle
▁consolation
▁coordinates
▁productions
▁carbohydrates
Der
Far
THER
fing
otein
▁Gonz
▁Mant
▁Webb
▁degr
▁lame
▁rins
▁tuna
▁wink
Nature
eridge
▁Cindy
▁Devon
▁Doesn
▁Flora
▁Influ
▁Moral
▁adept
▁camel
▁forge
▁impot
▁liken
▁satin
entious
▁lashes
▁offence
▁wearily
▁Melville
▁evolving
▁initiate
▁Barcelona
▁Canadians
▁cognition
▁precedent
▁correction
▁foreground
▁oppressive
Dou
cod
nan
abad
frey
▁Ler
▁Sou
▁bak
lette
uties
▁Cain
▁chau
▁jugg
▁ridd
George
▁Sixth
▁anyhow
▁colder
▁runway
▁shrubs
▁straps
▁turtle
colonial
▁Knights
▁gateway
▁powered
▁torpedo
▁antioxid
▁arguably
▁diplomat
▁treatise
acceptable
▁alignment
▁alliances
▁conductor
▁parallels
▁penetrating
sci
Aren
dist
lest
mere
▁Fri
▁RES
▁aft
▁pew
brain
woods
▁Cell
▁Gunn
▁Jade
▁Push
▁bred
▁mage
braska
lation
▁Adela
▁Coach
▁Stage
▁kicks
▁strat
▁barley
▁boldly
▁superv
changing
▁Lindsay
▁Sabbath
▁peeling
▁sipping
▁smarter
▁Accessed
▁diminish
▁pastoral
▁Lancaster
▁collector
▁fireworks
▁firsthand
▁Wordsworth
▁noticeable
▁enthusiastically
Add
ruc
erpt
gated
▁Abel
▁Bend
▁Bren
▁Ches
▁Dane
▁nons
▁Ahmed
▁baron
▁hitch
▁leash
▁Edited
▁Speech
▁bosses
▁exempt
▁favors
▁hearty
▁strung
▁surged
▁Example
▁Maureen
▁Norfolk
▁cafeter
▁chariot
▁derives
▁exclude
▁lurking
▁relinqu
▁reunion
▁trickle
▁Samantha
▁Violence
▁dealings
▁merchand
▁Afterward
▁generator
▁stairwell
▁worldview
▁compatible
Fe
dc
/>.
iza
mem
zac
arck
igon
lder
site
▁Thy
▁lia
Japan
onomy
sburg
▁Jazz
secret
▁Leigh
▁Stark
▁haunt
▁moons
▁perse
▁prett
ortment
▁Carole
▁Stones
▁incarc
▁overst
▁unison
ogeneous
▁Garrett
▁Quentin
▁excerpt
▁Problems
▁lavender
▁Blackwell
▁doctrines
▁practised
▁administer
▁developers
▁playwright
▁comparatively
IFE
pox
icht
▁zoo
build
fight
gebra
olley
▁cran
▁hilt
orneys
▁rearr
▁tuber
▁vowed
▁Ranger
▁binary
▁fuckin
▁Hussein
▁Jamaica
▁Leopold
▁enzymes
▁gleamed
▁obesity
▁sandals
▁draining
▁lengthen
▁tattered
▁abdominal
▁financing
▁inquiries
▁apprentice
▁translucent
▁collectively
hoe
kan
▁DI
▁Iv
TEEN
cked
▁GPS
▁Kip
▁Lak
▁Myr
▁bun
riety
toire
▁Cros
▁Edge
▁Khal
▁WHEN
▁goin
Philos
cliffe
opened
▁Carth
▁Cathy
▁Zhang
▁grunt
ecessor
umption
▁halves
▁iPhone
▁merged
▁trance
▁compuls
▁proverb
▁Chairman
▁Soldiers
▁cilantro
▁desolate
▁download
▁enlarged
▁hammered
▁littered
▁alcoholic
▁ferocious
▁targeting
▁disruption
▁contributes
▁innumerable
▁terminology
UG
LED
apo
cks
mot
web
▁Nab
lando
ommel
▁Corp
▁Peak
▁lass
▁mama
▁nets
innati
ologne
▁Forum
▁Inner
▁finer
▁miser
▁perch
▁Hollow
▁Mostly
▁inquis
▁ridden
▁tenure
▁Finland
▁Marcell
▁richest
▁scrutin
▁Commerce
▁Alzheimer
▁Beautiful
▁disasters
▁diversion
▁evaluated
▁honorable
▁viewpoint
▁diagnostic
▁expressive
▁unquestion
▁differentiation
OSE
PLE
amo
▁Zo
oren
▁Tap
▁owl
wartz
▁Evie
▁herm
▁Bohem
▁Route
▁unite
▁parach
▁slogan
▁Messiah
▁Picasso
▁Randall
▁Yankees
▁singers
▁Friedman
▁provider
▁brutality
▁throbbing
▁continental
▁slaughtered
DAY
RED
hom
▁Sr
Such
Wall
gano
wait
▁Ary
▁Ruf
Notes
▁Cork
▁Glad
▁Rory
▁Tina
▁pane
button
▁Share
▁aback
▁decks
▁focal
▁tying
▁Dillon
▁Fellow
▁Persia
▁gravey
▁quarry
▁rained
▁sesame
▁souven
▁Defence
▁advisor
▁awfully
▁rebuild
▁suffers
▁thinker
▁trumpet
mentioned
▁Arkansas
▁favoured
▁plotting
▁whistled
▁adulthood
▁gesturing
▁whistling
▁Charleston
▁guarantees
▁silhouette
▁prostitutes
▁stimulating
▁constructing
si
').
Bes
▁yo
Home
Many
expl
nton
ppel
fruit
uters
▁Hull
▁Shay
▁Vand
▁knit
▁vile
▁Ahead
▁Mouse
▁chant
anguard
▁Dreams
▁tensed
▁Mohammed
▁landmark
▁guerrilla
▁medicines
▁withstand
▁workshops
▁classmates
▁delicately
▁discharged
▁glistening
▁liberalism
▁pilgrimage
▁interpreter
▁subconscious
▁transparency
▁globalization
▁_________________
VI
yd
Rom
▁si
emis
uria
▁Kum
▁Pav
Being
Today
later
▁Tenn
▁Wein
▁barb
▁cube
▁dude
▁grop
▁rall
▁Barth
▁infur
istered
▁Coffee
▁cradle
▁fences
▁iconic
▁Measure
▁accepts
▁archive
▁brittle
▁heroine
▁hissing
▁marshal
▁mindful
Certainly
▁Rosemary
▁cabinets
▁longtime
▁Brazilian
▁binocular
▁depicting
▁discusses
▁regiments
▁spectator
▁alienation
▁explosives
▁Catholicism
▁businessmen
▁rationality
▁spontaneously
Jac
tem
hile
talk
▁Rin
▁Wid
icers
ignon
▁Thur
▁edit
contin
rather
▁Alone
▁Doris
▁Nikol
▁crate
▁hunch
▁raged
▁wired
▁Dionys
▁Stefan
▁Warsaw
▁autism
▁oscill
▁psyche
▁sprung
illusion
▁Pattern
▁overlap
▁Highness
▁Laurence
▁Philippe
▁activism
▁lifeless
▁ambiguity
▁farmhouse
▁selective
▁sociology
▁Khrushchev
▁Principles
▁bankruptcy
▁predecessor
DC
ENS
ICS
Sex
afe
▁Ox
imar
▁IRA
▁eru
▁lev
notes
rored
utted
▁Belt
▁Bets
▁Kash
▁Wasn
▁rept
▁secl
Indian
Master
rities
▁alpha
▁opium
iterate
▁Enough
▁Forget
▁Object
▁avenue
▁verify
aciously
▁Raphael
▁Whitney
▁congreg
▁thirsty
▁toddler
▁tripped
▁Penelope
▁outlines
▁sampling
▁illnesses
▁lucrative
▁parameter
▁quivering
▁receptors
▁rejecting
▁sponsored
▁Chancellor
▁apologized
▁beforehand
▁exercising
▁underworld
▁unemployed
▁attractions
▁compassionate
▁uncomfortably
PM
Port
atri
▁Rif
Again
aurus
istle
▁Kris
▁Zero
▁doom
▁inse
emaker
oncert
▁botan
▁rogue
▁satir
▁vomit
idental
▁Rising
▁contag
▁flawed
▁masked
▁Chapman
▁Clayton
▁academy
▁bishops
▁incense
▁tending
▁Courtesy
▁Function
▁Original
▁elegance
▁extremes
▁liberals
▁roasting
▁composure
▁stupidity
▁Dictionary
HY
_!
OSS
aden
bler
unky
▁Bom
▁Esp
▁gob
cases
ilted
nosis
▁Drag
▁cues
▁Laden
▁Piper
▁Slave
▁baths
▁hered
osphere
▁comply
▁emails
▁hinges
▁hushed
▁seller
▁teleph
▁tumult
▁Believe
▁Schmidt
▁comrade
▁drizzle
▁onwards
▁optical
▁Johannes
▁luminous
▁narrowly
▁senators
▁stuffing
▁Conscious
▁Rochester
▁headaches
▁rehearsal
▁disconcert
▁indicators
▁Engineering
Gr
▁MR
ifix
late
lean
▁Pie
While
rance
retch
▁Bone
▁Lots
▁lids
▁pies
ounter
▁Gabri
▁Tools
▁carts
▁lasts
▁lofty
▁plead
▁tacit
▁tuned
angered
▁dawned
▁outlet
▁strewn
▁watery
▁Valerie
▁bananas
▁buckets
▁heaving
▁mandate
▁pioneer
▁scarred
▁steamed
▁Sprinkle
▁bellowed
▁classics
▁criterion
▁enclosure
▁healthier
▁differential
——
vil
▁Aj
▁GE
▁kh
ishi
ruce
umat
▁Bav
▁Bax
▁Lit
▁Pep
▁Rig
acerb
oiled
pract
▁Boss
▁Spin
▁flux
sexual
▁Dixon
▁Hyper
▁McKin
▁disqu
induced
isively
▁Graves
▁Gustav
▁Sartre
▁neared
▁sullen
▁undist
distance
▁auditor
▁closure
ationally
▁Darkness
▁Veronica
▁circuits
▁feminism
▁gardener
▁militant
▁watering
▁apologies
▁porcelain
▁resistant
▁formulated
Introduction
▁Commissioner
TC
ISM
▁LI
▁Sz
▁dre
ITION
Watch
cohol
color
noons
ogged
uckle
▁Drum
▁Kurd
▁Tong
street
▁Clive
▁aided
▁laden
▁mitig
▁nonex
▁salon
▁Robbie
▁deduct
▁polish
▁roused
▁Georges
▁Stanton
▁Various
▁regrets
▁thereof
▁Savannah
▁bracelet
▁enrolled
▁paternal
▁paralyzed
▁rewarding
▁algorithms
▁attracting
▁unsettling
▁degradation
▁administrators
Pal
arb
OLOG
Spec
▁Pig
eming
▁Cauc
▁Slav
▁Tory
▁migr
▁tags
▁turf
▁Bowie
▁Motor
▁Putin
▁Tunis
perfect
▁Albany
▁Brenda
▁albums
▁crater
▁mosque
▁prized
▁sheath
▁thrott
▁Tristan
▁dearest
▁exhaled
▁modesty
▁cheating
▁confines
▁migrants
▁molecule
▁shutters
▁counselor
▁expansive
▁inspected
▁spotlight
▁Statistics
▁concluding
▁evacuation
▁limitation
Id
PO
Had
Tor
Nope
once
▁Kem
China
entry
▁Lomb
▁Raff
▁snug
▁sobs
Connor
Robert
itates
▁Brady
▁Libby
▁avant
▁broom
▁negro
▁vegan
imation
▁bungal
▁butler
▁donkey
▁hypocr
▁predic
piration
▁Hearing
▁barrage
▁furnace
▁quoting
▁radiant
▁rivalry
▁showers
▁touring
▁Humphrey
▁chanting
▁crippled
▁enslaved
▁commenced
▁coriander
▁stockings
▁workforce
▁initiation
▁reflective
▁masterpiece
▁philanthrop
▁photographed
▁impossibility
▁photographers
▁acknowledgment
Kn
Att
cur
erk
ablo
asms
quez
shad
uned
▁Diss
▁Koch
▁bead
▁foll
▁pent
Israel
antage
worked
▁Analy
▁Brill
▁Templ
▁Villa
▁loung
▁thorn
▁trout
idently
morning
ometown
oslovak
▁Goethe
▁grocer
▁kinder
aminated
esthetic
▁Preston
▁YouTube
▁outpost
▁Changing
▁Christie
▁affinity
▁immunity
▁mirrored
▁rotating
▁shutting
▁streamed
▁yearning
▁Spiritual
▁employing
▁intending
▁criticisms
▁photographic
▁practitioner
sn
raz
utz
cost
ifax
▁Emm
oreau
otics
▁Dent
▁Gang
▁euro
▁oste
aution
things
▁caste
▁Hamlet
▁itiner
▁lodged
▁Gazette
▁brewing
▁browser
▁clothed
▁prudent
▁slashed
▁Investig
▁Peterson
▁Strategy
▁discrete
▁maritime
▁openness
▁radicals
▁Carpenter
▁malicious
▁supremacy
▁furnishing
▁monumental
▁refreshing
▁summarized
▁embroidered
▁contemplation
aci
milk
true
▁SUV
▁Arri
▁Chip
▁Loss
▁mell
▁rumm
moving
velled
▁Thing
▁bulbs
▁caffe
▁corro
▁soils
aghetti
ivation
▁Saturn
▁Ukrain
▁awhile
▁grassy
▁hugely
▁ranged
▁somber
▁Mallory
▁Sanders
▁blindly
▁boulder
▁pistols
▁Citizens
▁churning
▁exasperated
▁Additionally
▁strawberries
ICT
▁PS
feit
otti
thin
▁Lob
▁Zar
alter
▁Cody
▁enig
guards
▁Angie
▁hilar
ignment
▁Edison
▁Marlow
▁hinted
▁shabby
▁Respons
▁craving
▁glimmer
▁manoeuv
▁sorting
▁combines
▁credible
▁dispatch
▁kingdoms
▁adjoining
▁afflicted
▁anxieties
▁earnestly
▁ingenious
▁limestone
▁incentives
▁rendezvous
▁disappointing
LS
dan
▁Eph
elles
oling
▁Gorb
▁Ling
▁Pose
▁Shit
▁Tiff
▁sard
▁Parks
▁antip
station
▁Sharpe
▁ardent
▁casino
▁deceit
▁wrench
imentary
▁confuse
▁grasses
▁issuing
▁swelled
▁cardinal
▁crumbled
▁exceeded
▁grandeur
▁offshore
▁routines
▁silenced
▁animation
▁obsessive
▁recession
▁starboard
▁unhealthy
▁Israelites
▁collapsing
▁reportedly
▁adolescence
▁dictatorship
▁propositions
Ac
Ep
Sub
ahr
▁Eb
▁ba
▁il
▁Dag
▁Por
small
▁Bere
▁Bian
▁Dart
▁chis
▁whee
▁choke
▁siren
Letters
▁Engels
▁Mozart
▁Sacred
▁Willis
▁Wouldn
▁charms
▁parcel
▁ridges
▁violet
▁Reports
▁compose
▁educate
▁filters
▁kinship
▁moaning
▁striped
▁compiled
▁counties
▁decreases
▁patronage
▁tolerated
▁Providence
▁battalions
▁Traditional
▁eliminating
▁immortality
▁reassurance
▁Interestingly
Tis
▁WW
Turn
otel
ouve
sold
unes
▁Lap
▁Mit
▁paj
Afric
adesh
erver
ocket
opper
▁Brut
▁Stee
Unless
opular
▁Hands
▁Tolst
▁dehyd
▁guild
▁herds
▁joins
▁Gerard
▁healer
▁sponge
▁weakly
▁emerald
▁tedious
▁Chambers
▁Spaniards
▁electrons
▁providers
▁inexpensive
OLD
aho
igi
▁IF
▁Nu
▁SF
pend
▁Dre
▁IND
▁_._
▁arou
▁cozy
omorph
▁Burma
▁Crisp
▁Cyrus
▁Giles
▁Kenya
▁Vince
▁Walsh
▁freck
▁pines
▁tutor
ichever
▁Gently
▁Havana
▁Laurel
▁Matter
▁carcin
▁opaque
▁subtly
utations
▁Fleming
▁Pauline
▁rumbled
▁steered
▁Prussian
▁cerebral
▁haunting
▁tranquil
▁fashioned
▁pragmatic
▁unleashed
▁afternoons
▁persuasion
▁presidents
▁Proceedings
▁Czechoslovak
▁misunderstood
▁psychologists
Ang
Son
warm
▁FIR
▁WHO
grass
▁Dash
▁Marj
▁Serb
▁Synd
ikhail
▁Dover
▁Faber
▁china
▁fuzzy
▁hasty
▁needn
▁pumps
▁queue
▁traff
▁woken
▁barbed
▁dialed
▁fooled
▁invade
▁puppet
▁reared
▁bladder
▁invalid
umberland
▁amounted
▁ancestor
▁deceived
▁factions
▁fairness
▁stairway
▁swearing
▁Alexandra
▁discontin
▁brilliance
▁magistrate
consciousness
▁interpreting
yo
▁Qi
city
club
guer
miss
▁Gur
▁Zed
ikers
leigh
owner
▁Amos
▁FOUR
▁THIR
▁bere
▁prod
ceived
riters
threat
▁Plain
▁spike
▁vicar
ometric
▁Antony
▁Deputy
▁cavity
▁devout
▁Phyllis
▁enacted
▁ensuing
▁exacerb
▁expects
▁oranges
▁patrols
▁silvery
▁suffice
operative
▁Sheridan
▁confirms
▁ecstatic
▁invaders
▁Tradition
▁cafeteria
▁captivity
▁franchise
▁travellers
▁expenditure
▁instability
▁continuation
RO
Del
Huh
yll
▁//
alla
arag
arty
ucci
antes
avers
exper
rette
▁Went
▁hash
▁oars
▁unsh
thorne
▁Craft
▁Kafka
▁Rabbi
▁Sword
▁amino
▁cumin
▁speck
▁Marvin
▁enrich
▁filmed
▁overhe
▁scouts
▁shaded
---|---|
▁Krishna
▁booming
▁inquire
▁licking
▁rockets
▁studios
▁tugging
▁beckoned
▁flipping
▁periodic
▁slapping
▁theaters
▁attorneys
▁prevalent
▁extraction
▁fluttering
▁elimination
▁illuminating
edo
oro
▁Gn
Mind
arel
cold
uben
amics
iency
oward
▁Bean
▁Plot
▁info
itored
opotam
▁Ethel
▁Lucia
▁Spock
ocating
pecting
▁Divide
▁bunker
▁eyeing
▁fennel
gressive
▁tractor
▁Voltaire
▁seasoning
▁Restaurant
▁committees
▁periodically
uka
▁AK
▁Ki
Fort
Gold
itte
thro
▁Ada
▁Laf
click
irted
▁adam
▁deft
▁gour
▁malt
stract
▁Train
▁afflu
▁cheat
▁hoard
▁hobby
▁laced
playing
ucchini
▁Humans
▁Keller
▁SERVES
▁fulfil
▁infirm
▁insens
▁kitten
▁occult
▁ornate
▁pursed
▁sweets
ensation
▁Barrett
▁Counter
▁Prussia
▁artwork
▁burdens
▁hauling
▁marital
▁outlets
▁variant
▁Railroad
▁loosened
▁stinging
▁fortnight
▁moustache
▁coordinate
▁positioning
▁heterosexual
▁unacceptable
▁authoritative
AKE
Yep
▁Dj
iago
orum
▁Hes
▁cla
Class
Saxon
esian
leine
▁Flat
▁Leaf
▁Omar
▁Priv
▁Tart
▁sizz
▁yarn
amount
attack
discip
seller
▁Fruit
▁Paige
▁graft
▁motto
▁trays
▁wiser
fiction
activity
bringing
▁Animals
▁Finance
▁Quickly
▁charred
▁freight
▁palpable
▁geometric
▁metabolic
▁restoring
▁vibration
▁hemisphere
▁programmes
▁transplant
▁Institution
▁granddaughter
cop
Show
atio
fair
iend
inas
upid
▁XXX
▁dew
▁dye
▁hex
▁ion
Thing
anoia
effic
estly
▁Colt
▁Fell
▁Hack
▁Helm
▁Skin
▁meta
▁pads
brance
esting
▁**.**
▁Mercy
▁brake
Austral
▁Carmen
▁Recogn
▁deport
▁meteor
February
affected
▁Everett
▁Hoffman
▁Limited
▁Mystery
▁Rangers
▁Seventh
▁domains
▁flanked
▁insults
▁soaring
▁vantage
▁Pictures
▁Schwartz
▁adaptive
▁feasible
▁hesitant
▁streaked
▁unsatisf
▁westward
▁Clarendon
▁blindness
▁disagreed
▁honeymoon
▁sanctions
▁sharpened
▁Indigenous
▁attendants
▁binoculars
▁disrespect
▁implicitly
▁intentional
PC
awk
lio
:_**
TING
doch
▁Gle
▁Tes
▁blu
blown
▁Cade
▁Dahl
states
▁Beast
▁Cause
▁barge
▁della
▁digit
▁latch
▁sprig
▁Female
▁Freddy
▁Studio
▁angled
▁dental
▁leaked
▁morals
▁morbid
▁summed
▁twists
ithmetic
▁bravery
▁cardiac
▁curving
▁Gertrude
▁cucumber
▁gasoline
▁mythical
▁triggers
▁commotion
▁communion
▁shrinking
▁swallowing
▁Brotherhood
▁authoritarian
Val
bags
urai
Doesn
adors
ascus
cream
pared
▁Milk
▁Shen
▁waft
estead
unless
▁Kerry
▁Trial
▁blasp
Besides
autions
▁Dwight
▁ransom
▁relies
▁Bridget
▁excused
▁scripts
▁homicide
▁nutrient
▁profiles
▁scramble
▁thriving
ordination
▁integrate
▁flourished
▁repertoire
▁Australians
▁atmospheric
▁whereabouts
DE
Law
ecc
Supp
ldon
▁Lav
▁hij
large
ongru
▁Rasp
▁apps
angelo
ologie
▁Flash
▁Shawn
America
▁Barack
▁fluffy
▁posing
itiously
▁baptism
▁ceramic
▁cycling
▁legions
▁volcano
▁Achilles
▁Conflict
▁behaving
▁rhythmic
▁subsided
▁volcanic
▁whirling
▁astronaut
▁blackmail
▁composite
▁Personality
▁descriptive
▁cosmopolitan
▁illumination
▁incomprehensible
Ol
nob
▁._
▁CC
▁CS
▁Hi
enza
ngth
rals
send
▁Rip
▁Tot
Islam
omers
oviet
▁Cull
▁Link
▁Mord
▁Nort
▁font
▁peek
▁usur
amping
income
ophone
▁Doing
▁Josef
▁Sadie
▁Titus
▁diner
▁icons
▁exuber
▁soared
▁Creator
▁Spinoza
▁Windsor
▁daytime
▁exports
▁faction
▁gunfire
▁seizure
▁spatula
valuation
▁Houghton
▁Nebraska
▁disciple
▁residual
▁adversary
▁digestion
▁signaling
consciously
▁discourage
▁rebellious
▁waterfront
▁concessions
▁coordinated
▁imperialism
Ask
▁Va
▁lb
oque
viks
Enter
along
fters
▁Cott
▁Dull
▁Fuck
▁Moor
▁jolt
Though
overty
▁Lacan
▁evils
▁forum
▁rhyme
▁swarm
ainting
▁Answer
▁Flower
▁Hobbes
▁Marcel
▁forbid
▁pained
▁shaman
▁tailor
▁Carolyn
▁Embassy
▁Fischer
▁defiant
▁gallons
▁imports
▁rebuilt
▁reddish
▁wherein
▁Salvador
▁licensed
▁preached
▁randomly
▁scrubbed
▁smashing
▁symmetry
▁traveler
▁rationale
▁supporter
▁unchanged
▁Enterprise
▁nomination
▁overweight
▁Independent
▁brilliantly
▁helicopters
▁refrigerate
▁respiratory
▁interpersonal
GA
End
sat
ycl
▁dh
▁eg
bane
enes
onso
root
▁Cul
▁Peg
▁Spl
Guard
orate
ovies
staff
▁Chau
▁Lect
▁coex
▁oats
Enough
ailles
ampton
engine
oliday
olling
plings
umably
▁Anita
▁Exped
▁Focus
▁INTER
▁MAKES
▁Rowan
▁Torah
▁Venez
▁coals
▁mason
▁plent
▁sidel
enhagen
▁Forbes
▁Hallow
▁Inquis
▁fueled
▁Camille
▁Climate
▁Galileo
▁nipples
▁shepher
▁Examples
▁Interior
▁Television
▁helplessly
▁irritating
▁deprivation
▁interchange
▁emancipation
Def
Pri
gio
heon
▁Sod
▁Sul
▁Tud
Green
arely
▁Cham
▁Chop
▁Noel
▁orth
▁Faust
▁Ideas
▁aloft
▁thump
Richard
feeding
growing
▁Granny
▁Lionel
▁Single
▁Somers
▁accuse
▁loosen
ithering
▁Thoreau
▁prefers
▁Internal
▁accusing
▁bestowed
▁brethren
▁eleventh
▁horrific
▁knitting
▁searches
▁sneaking
▁squatted
▁textbook
▁Carefully
▁Frenchman
▁exploding
▁hurricane
▁parenting
▁persuasive
▁tightening
▁interactive
▁prohibition
▁reliability
▁administrator
Off
pty
Fire
abis
each
oran
said
▁JFK
▁Koh
▁Laz
▁Pia
shots
ungen
▁Herb
▁Zack
▁howl
▁meth
▁Floyd
▁Novel
▁Quant
▁icing
▁slugg
▁smoky
Michael
▁starve
▁Mikhail
▁rumours
▁Hastings
▁Mistress
▁Regional
▁eligible
▁hometown
▁securely
▁Coleridge
▁analyzing
▁bodyguard
▁nostalgia
▁prophetic
▁Cincinnati
▁picturesque
▁characterize
▁unreasonable
▁distinguishing
Av
▁CM
gled
ikov
imet
earth
giene
▁Beer
▁Doll
▁Hatt
▁Lark
▁Symb
▁sled
rusted
▁Anger
▁Chick
▁Mario
▁fumes
▁piety
▁wakes
workers
▁Prayer
▁arches
▁erased
▁nailed
▁primal
▁unanim
▁Rolling
▁Therapy
▁diaries
▁ghastly
▁harshly
▁marvell
▁oysters
▁prairie
▁recited
▁textual
▁viruses
▁Israelis
▁rosemary
▁salesman
confidence
▁clustered
▁databases
▁metaphors
▁bargaining
▁compressed
▁exhausting
▁prostitute
▁witnessing
ANC
TON
zzy
Bill
mort
▁REC
▁bum
Bring
ileen
overe
plain
▁Anch
▁Angl
▁Assy
▁Gone
▁elic
▁vern
▁wast
places
▁McCoy
▁Ricky
▁diarr
▁Lucius
▁Mirror
▁Singer
▁calves
▁citing
▁Setting
▁unravel
lebrities
▁bachelor
▁shelters
▁Assistant
▁flowering
▁internally
▁backgrounds
▁demographic
Fi
fs
Jim
epr
blog
heng
inee
▁Xen
▁oat
▁Aure
▁drip
Soviet
ennial
virgin
▁Brenn
▁Extra
▁Rhine
▁impen
ambered
itimate
▁Baltic
▁Planet
▁coloss
▁corpus
▁homage
▁indign
▁ranked
▁Dominic
▁ferment
▁inexper
▁unthink
▁Cornwall
▁Creative
▁broccoli
▁captures
▁conscient
▁monitored
▁reviewing
▁twitching
▁pharmaceut
▁comparisons
▁celebrations
▁suspiciously
Mel
Holy
▁Num
▁Cran
▁Wave
▁cape
▁fern
▁forc
energy
recise
▁Betsy
▁Schne
▁Speed
▁antid
▁lousy
▁Adding
▁Impact
▁bombed
▁drafts
▁fished
▁mocked
▁sirens
▁willow
▁Heights
▁Martine
▁Nigeria
▁Opening
▁degener
▁dipping
▁royalty
▁Democrat
▁cherries
▁insulted
▁kitchens
▁semantic
▁contrasts
▁excitedly
▁fragrance
▁numerical
lesiastical
▁charitable
▁kidnapping
▁ostensibly
▁Translation
▁compression
.''
Jer
▁HQ
onde
▁MAP
wheel
▁Tale
▁Vari
▁blat
▁seet
▁Nikki
▁caric
onnaise
▁Rodrig
▁bounty
▁consul
▁newest
▁pigeon
▁relics
▁archaic
▁arousal
▁dripped
▁forties
▁menstru
▁slicing
▁tattoos
▁Parmesan
▁ballroom
▁wreckage
▁Mesopotam
▁seventies
▁symbolism
▁powerfully
▁passionately
▁Correspondence
oki
urm
▁HR
cker
orrh
UTHOR
fires
itsch
▁gogg
▁rick
▁tilt
iality
living
▁Marin
▁cords
▁delir
▁gruff
▁inacc
defense
▁Higher
▁Shield
▁dearly
▁joyful
▁mashed
▁minded
▁vendor
ositions
▁Student
▁Victory
▁calming
▁darkest
▁eminent
▁enraged
▁fabrics
▁Official
▁hearings
▁menacing
▁Gorbachev
▁abandonment
▁revolutions
▁consultation
▁spirituality
fo
."[
OWN
Sim
aru
eez
hun
hyl
loo
teau
unal
▁Das
▁Sof
▁Tag
▁dos
Eight
ierre
▁Cake
▁Prou
ochond
ptuous
▁Glory
▁Learn
▁Schol
▁gland
▁humid
immered
ository
▁Guinea
▁anonym
▁peeked
▁sanity
▁screws
▁shards
▁versat
ODUCTION
▁ascetic
▁throats
▁uncanny
▁chilling
▁cushions
▁hysteria
▁predator
▁roadside
iovascular
▁Companion
▁Typically
▁planetary
▁advertised
▁counseling
▁engineered
▁Minneapolis
▁constrained
▁contrasting
▁Bibliography
▁aggressively
▁disconnected
▁disproportion
▁Ya
Hand
gran
show
▁Gan
▁Pow
▁Smy
▁Dogs
▁Hild
▁Loch
▁Mage
▁Pike
▁Tsar
▁flor
▁tofu
stered
▁Bates
▁cland
▁freel
▁gases
▁shawl
▁tidal
▁Compet
▁Danger
▁stains
orescent
▁Lorenzo
▁Perkins
▁Wheeler
▁baffled
▁bandage
▁knotted
▁stooped
▁summons
▁captives
▁giggling
▁sniffing
▁warships
historical
▁Population
▁confirming
▁Architecture
▁qualifications
Ap
Ret
bud
▁AA
▁Mt
base
risk
▁Bub
▁Buy
▁Sak
Peter
media
whose
▁Hern
▁dais
▁fors
achine
▁Grass
▁Worth
▁skirm
▁smack
▁snarl
service
▁Eleven
▁Vander
▁Vision
▁cabins
▁cancel
▁cloudy
▁genres
▁tumors
▁unexpl
▁Changes
▁Goodman
▁Monthly
▁inhuman
▁intoler
▁mischie
▁smacked
▁staging
▁sterile
identally
▁deadline
▁dementia
▁forwards
▁marathon
▁Nashville
▁Southwest
▁apprehend
▁borrowing
▁graveyard
▁incidence
▁Associated
▁patriotism
▁confinement
▁displacement
▁governmental
▁inexplicable
▁concentrations
/.
OVE
▁Alma
▁Lara
▁dine
Second
atical
common
▁desks
▁dolls
▁rated
▁tombs
alation
clothes
▁mantra
▁snatch
▁subter
ertation
▁Minutes
▁airline
▁clatter
▁insides
▁scatter
▁exploits
▁idealism
▁impaired
▁multiply
▁cleansing
▁differing
▁fisherman
▁pervasive
▁communists
▁psychopath
▁reappeared
▁frequencies
▁overlapping
▁commissioner
▁interrupting
Aw
Bus
pse
▁SY
sten
▁Nem
▁Pod
▁STR
quiry
verbs
ymour
▁caul
▁neol
▁phen
▁uter
▁Globe
▁Payne
▁aides
▁stony
▁ultra
▁Eighth
▁Mobile
▁breeds
▁feudal
▁ripple
▁staple
▁unused
▁endowed
▁implant
▁strongh
▁trainer
▁Courtney
▁Parisian
▁skeletal
▁surfaced
▁watchful
▁schooling
▁steadfast
▁suppliers
▁concession
▁regression
▁celebrities
▁electromagn
▁predicament
▁unbelievable
▁strengthening
ARE
Rob
▁-,
▁Ek
▁XI
Comp
borg
idad
itle
itud
▁Eze
▁Lun
▁Poo
▁Via
andro
arton
breed
garde
naire
uttle
▁Hess
▁Them
▁heck
addled
▁Print
▁Straw
▁apric
▁booze
▁scowl
lymouth
▁Barton
▁Berger
▁Elijah
▁bowing
▁clerks
▁floral
▁mantle
▁messed
▁sharks
▁Quality
▁contend
▁Buchanan
▁Sanskrit
▁infinity
▁killings
▁mutation
▁recorder
▁eagerness
▁entrusted
▁succumbed
▁courthouse
▁geographic
▁hopelessly
▁prejudices
▁adolescents
▁modification
▁Psychological
Ur
Cla
Doc
ogy
tec
yth
azer
opus
▁CBS
▁PER
▁Rey
▁hue
Stand
cutta
inker
ooter
▁Farr
▁Tort
▁hagg
▁olig
ateful
oscope
▁Breat
▁Elias
▁intox
▁wards
▁Strugg
▁caller
▁flanks
▁inters
▁mating
▁plaque
▁yawned
▁Harding
▁acutely
▁brothel
▁copying
▁damages
▁infring
▁pricing
▁Cemetery
▁Admiralty
▁avoidance
▁depiction
▁mandatory
▁performer
▁contention
▁downstream
▁harassment
▁relational
▁condemnation
▁implementing
▁prostitution
Ess
Jul
Tra
yla
athe
cled
gings
▁Cora
▁Peel
▁slog
bleday
inette
perors
▁lunar
▁Harley
▁Lowell
▁Ludwig
▁coiled
▁floods
▁Orlando
▁chained
▁cheated
▁lookout
▁walnuts
▁Advanced
▁humidity
▁incongru
▁shameful
▁shuffling
▁Assessment
▁brightened
▁footprints
▁irrigation
▁programmed
▁conceptions
▁intolerable
▁manipulated
▁acceleration
▁characterization
BT
.'_
ARA
ILE
aji
rio
▁SD
Forg
aeus
eced
incy
past
▁Byr
▁Rah
▁SIX
▁fax
▁sib
...?"
agles
ocent
▁Pill
▁mole
▁poke
aparte
pieces
remlin
▁Demon
▁Jacqu
▁fangs
▁knead
▁opted
current
▁Advert
▁Baxter
▁Guatem
▁Orient
▁Recent
▁Screen
▁genome
▁howled
▁sobbed
athering
▁Hamburg
▁Nichols
▁Sisters
▁hoisted
▁ideally
▁intertw
▁meadows
▁Mathemat
▁blending
▁doorbell
▁woodland
▁Structure
▁aggregate
▁arthritis
▁prototype
▁vanishing
▁continents
▁overcoming
▁merchandise
▁interruption
▁superstition
▁schizophrenia
▁psychoanalysis
-,
▁NG
fell
heid
hman
phin
▁Hof
▁Hut
▁Kne
▁Kre
▁TIP
▁axi
▁ell
▁lyn
EMBER
chemy
erate
itoes
oleum
ouded
walks
▁Astr
▁Sick
▁Advis
▁Taste
▁minus
▁Bryant
▁Dudley
▁Merlin
▁Rudolf
▁poorer
▁resear
▁tumble
--------
▁Empress
▁Himself
▁Lillian
▁Seymour
▁Tolstoy
▁deities
▁fancied
▁seating
▁Clifford
▁hastened
▁immersed
▁plunging
▁pondered
▁hammering
▁intersect
▁intrusion
▁pneumonia
▁advertisement
Sw
UB
bek
blo
cup
inv
rue
▁DM
Next
atta
ilot
nick
vine
▁KGB
byter
ensch
ibniz
loads
ottie
▁Gina
▁Glou
▁Shop
▁Congo
▁Himal
▁mills
▁racks
▁tease
▁unres
ryption
▁Alicia
▁Fuller
▁Ladies
▁Picard
▁Werner
▁congen
▁herald
▁blaming
▁desktop
▁premier
▁tighten
▁zombies
▁demeanor
▁genetics
▁juvenile
▁photocop
▁vomiting
▁comforted
▁suggestive
▁worshipped
▁dissolution
▁sensational
▁voluntarily
▁constructive
▁quantitative
toc
▁MO
Want
gown
▁Gut
▁Lys
▁Sci
▁gad
▁jol
▁obe
xhtml
▁Thou
▁nude
assium
iddish
ithing
▁Poles
▁Quiet
▁Sunny
▁Yemen
▁cohes
▁mater
▁seams
▁Cinema
▁Malays
▁Plains
▁delays
▁etched
▁gamble
▁inputs
▁ratios
▁twitch
▁undone
▁wedges
▁Flowers
▁Madonna
▁Subject
▁saluted
▁Damascus
▁airborne
▁earrings
▁hardship
▁inventor
▁openings
▁shadowed
identified
▁Bernstein
▁destroyer
▁informing
▁rectangle
▁chattering
▁precaution
▁submarines
▁clandestine
▁conditioned
▁constituents
▁impoverished
▁transformations
▁".
▁ET
Pret
hawk
suff
▁Bil
▁Hub
oodle
▁Wide
▁fals
▁jost
▁mull
▁FIRST
▁Tiber
▁soles
etrable
▁clawed
▁indent
▁marrow
▁redund
ewitness
thousand
▁Artists
▁Hermann
▁consort
▁hosting
▁peaches
▁starter
▁Creation
▁Douglass
▁bandages
▁outburst
▁Hitchcock
▁Telegraph
▁censorship
▁embodiment
▁Corinthians
▁bourgeoisie
▁qualitative
▁humanitarian
FS
Det
Mur
▁Bj
uces
▁Gol
▁LLC
▁ups
oored
▁COMM
▁Chet
▁Meat
▁René
▁gurg
▁hazy
FIGURE
elfare
▁Giant
▁Tales
▁abide
▁dunes
▁kinda
▁nomin
▁rabbi
▁witty
eworthy
visible
▁Durham
▁Gregor
▁Jacobs
▁fronts
▁sugars
▁tyrant
▁uphill
▁Context
▁Hammond
▁Lithuan
▁ecology
▁exalted
▁frontal
▁nominal
▁pharmac
▁posting
▁Delaware
▁caffeine
▁flapping
▁monitors
▁ornament
▁pilgrims
▁widening
▁criticize
▁periphery
▁waterfall
▁discourses
▁straighten
particularly
▁functionality
":_
NER
▁LC
abol
enta
sure
▁DES
▁Jur
Quite
dling
idded
▁Amen
▁Belf
▁Calc
▁Jedi
▁Pend
▁lava
▁uncl
Surely
ailure
iavell
illary
istani
▁Sharp
▁decad
▁precl
▁shave
▁stamm
▁Border
▁Houses
▁Jeanne
▁Panama
▁abbrev
▁saloon
▁unease
▁Cunning
▁Pharaoh
▁archety
▁betting
▁palaces
▁sprouts
▁Constable
▁Reprinted
▁astronomy
▁humankind
▁medicinal
▁newcomers
▁threatens
▁Commercial
▁Everywhere
▁allegations
▁electronics
▁unpublished
▁inadvertently
Di
Il
PH
uni
eary
▁IBM
▁Yas
inals
▁Cato
▁Hald
▁sham
ionage
ospels
posium
string
▁Armed
▁Ranch
▁lurch
▁stren
ranking
special
▁Benson
▁Denise
▁Giving
▁bakery
▁cheers
▁shrank
▁youths
▁Complex
▁Parents
▁alerted
▁bouquet
▁depicts
▁solicit
▁sprayed
▁ticking
▁faltered
▁fugitive
▁perverse
▁academics
▁bathrooms
▁faculties
▁indignant
▁collectors
▁scrambling
▁translates
▁adventurous
▁decorations
▁genetically
▁revelations
▁catastrophic
▁commentators
▁complementary
▁Communications
xi
ONS
▁?"
▁_[
Cong
aims
bbie
inst
inyl
▁Sut
▁Thr
▁edn
Click
Young
▁Cara
▁Faul
▁Ferr
▁Luft
▁Mush
▁Root
▁tame
ilogue
vement
▁Compl
▁maids
oiselle
▁Hansen
▁crates
▁exiled
▁podium
▁radius
anything
unctions
▁Railway
▁algebra
▁crafted
▁poultry
▁pretext
▁procure
consuming
▁blockade
▁puzzling
▁utilized
▁Cassandra
▁Greenwich
▁_________
▁analogous
▁clearance
▁crackling
▁liberties
▁millennia
▁modernist
▁atrocities
▁ironically
▁prominence
▁Protestants
▁involuntary
▁neighbouring
Bob
rea
Must
aith
atsu
edip
gray
lost
orer
▁Cav
▁Gos
▁Lot
▁SHE
▁fec
▁lig
photo
plend
▁Epic
▁Feld
▁Nurs
▁Sear
▁Trin
▁Hanna
▁Separ
▁manor
▁sling
▁smirk
ossible
▁Abbott
▁Arendt
▁discer
▁humane
▁preach
▁tenant
▁Blessed
▁Witness
▁asserts
▁bundles
▁combust
▁invites
▁listens
▁smeared
▁Hundreds
▁Manufact
▁Patients
▁carnival
▁crackers
▁erection
▁performs
▁rumbling
▁rustling
▁affective
▁assaulted
▁lunchtime
▁nonprofit
▁resurrect
▁infectious
▁outnumbered
▁penetration
▁indefinitely
▁storytelling
ws
OGR
sal
aius
bins
chat
iani
ihil
neck
ylie
▁ACT
▁Els
▁MIN
▁Pto
▁thw
▁axes
▁beak
▁pods
iliary
▁Apost
▁Shore
▁flaws
▁frogs
▁papal
▁posit
▁scraw
▁spind
▁viral
icially
natured
▁Accept
▁Becker
▁Garcia
▁bitten
▁chests
▁curses
▁darkly
▁embell
▁honors
▁paints
▁sniper
▁Drawing
▁Growing
▁Halifax
▁Oakland
▁removes
▁sarcasm
▁Plymouth
▁horsemen
▁partisan
▁taxation
▁unimagin
▁amendment
▁exemplary
▁faithfully
▁humiliated
▁humiliating
▁incompatible
▁inconsistent
.–
Unt
zon
▁Eh
▁_,
ania
anus
feel
▁Coy
▁Dix
Human
combe
ielle
swick
▁Fate
▁clap
▁gait
▁quir
Except
izards
udding
ursive
▁Catal
▁Crist
▁Knopf
▁cuffs
▁foreb
▁glint
▁heirs
▁heres
iflower
ixtures
ussions
▁Former
▁enlist
▁exited
▁francs
▁giggle
▁richly
▁Passion
▁bulging
▁cheeses
▁gritted
▁imitate
▁omitted
▁pigeons
▁pitiful
▁storing
▁stylish
▁decipher
▁genocide
▁improper
▁nuisance
▁economist
▁operative
▁oversized
▁plentiful
▁schedules
▁evaluating
▁gracefully
▁intervened
▁peacefully
▁Perspective
▁disillusion
▁acknowledges
▁anticipating
▁collaborative
gat
._**
Land
Sund
lorn
▁Ely
▁HMS
▁Hak
▁Mob
▁alk
▁dop
▁zig
rokee
truth
write
▁Dunn
▁Herc
▁Quar
▁chic
▁latt
▁perv
▁AFTER
▁Blind
▁hover
▁imped
▁pussy
▁seren
flowers
▁AUTHOR
▁autobi
▁confer
▁mounds
▁nutmeg
▁quaint
▁skulls
iography
▁Deleuze
▁Murdoch
▁Siberia
▁Volunte
▁bipolar
▁shutter
iciencies
itational
▁Sherlock
▁chestnut
▁richness
▁squarely
▁Yesterday
▁carpenter
▁departing
▁physicist
▁impersonal
▁insecurity
▁sculptures
▁undermined
▁expeditions
▁precautions
▁fermentation
▁intimidating
▁civilizations
▁theoretically
▁Reconstruction
lob
mud
won
anca
ieri
want
▁>>>
▁PRO
ihood
quite
▁Cald
▁Dora
▁Skye
▁babe
▁hymn
▁meek
Twenty
bright
orkers
▁Aside
▁Candy
▁Nepal
▁clips
▁crook
▁dryly
▁tonic
versive
▁Steele
▁connot
▁creepy
▁misses
▁parody
▁shrugs
▁Radical
▁Schools
▁avocado
▁buddies
▁erosion
▁fetched
▁raisins
▁Handbook
▁Hawaiian
▁arteries
▁monastic
▁uneasily
▁variance
productive
▁Publisher
▁carriages
▁detention
▁dismissal
▁stainless
▁Versailles
▁compulsion
▁motivations
▁fingerprints
EA
few
Bull
▁HAD
▁JOH
▁sta
Water
illac
issue
ooned
▁Alas
▁Cous
▁Feed
▁Lans
▁Spot
▁alas
▁buds
gotten
ometry
▁Bound
▁Chrys
▁aloof
▁exams
▁murky
▁panor
▁yolks
ismarck
▁Strand
▁Unable
▁Wizard
▁clocks
▁coined
▁flatly
▁keeper
▁underp
▁uproar
balanced
▁Forrest
▁Husserl
▁Putting
▁acquies
▁bluntly
▁darting
▁grenade
▁probing
▁rejects
▁squared
▁toilets
▁Chandler
▁Ethiopia
▁Reaching
▁bearings
▁communic
▁endorsed
▁formulas
▁pristine
▁trillion
▁Breakfast
▁Champions
▁occupants
▁retention
▁treachery
▁healthcare
▁typewriter
▁affirmation
▁archaeology
▁assessments
▁contractors
▁intimidated
▁tentatively
▁Professional
▁mobilization
▁psychotherapy
ei
oso
KING
Lean
xtap
▁Exc
▁FDA
▁Fly
▁SQL
ocene
phalt
thaca
width
▁Rece
▁rods
▁uphe
anched
cerned
script
▁Alley
▁Braun
▁bulky
▁cedar
▁dares
▁glued
▁nests
▁plaza
▁silky
Donnell
▁Bombay
▁Proust
▁fidget
▁madman
▁pestic
▁sickly
centered
▁Parsons
▁drastic
▁oregano
▁plunder
▁spiders
▁vaccine
▁Matthews
▁bordered
▁grieving
▁markings
▁protects
▁enchanted
▁institute
▁assortment
▁emphasizing
▁mercenaries
▁disabilities
Ele
▁GA
▁OP
Both
erno
ishe
laws
pipe
▁ail
Count
loved
money
stadt
▁bled
▁jeep
▁Buddy
▁cafés
▁wells
▁census
▁paired
▁pantry
▁planks
▁rushes
▁rustic
▁arrests
▁empires
▁renamed
▁textile
▁winners
religious
▁advocacy
▁builders
▁likeness
▁survives
▁Madeleine
▁automated
▁guardians
▁tormented
▁commissions
▁conveniently
▁impenetrable
▁modifications
eh
Nor
Wil
Blue
ampa
asus
isco
rase
▁Pec
▁gou
▁nim
antis
short
▁Auto
▁HAVE
▁Olga
▁bile
▁pops
better
roughs
▁Flood
▁Rouge
▁Rufus
▁elong
▁envis
▁Willow
▁canals
▁sauces
▁deceive
▁discrep
▁ensures
▁infancy
▁leveled
▁liaison
▁logging
▁sermons
▁streaks
published
uckingham
▁Approach
▁Browning
▁Stafford
▁bullying
▁frighten
▁holdings
▁horribly
▁mechanic
Absolutely
▁Cognitive
▁entourage
▁repressed
▁strangled
▁thickened
▁visionary
▁shattering
▁flourishing
▁instinctive
▁thermometer
▁Construction
▁championship
▁inflammatory
)?
Bu
DL
];
ulc
▁TB
Mont
OVER
ogly
▁Fow
▁Ras
▁SAL
▁Voy
▁elf
▁pes
Brown
esare
ilate
▁Cobb
▁Door
▁Dost
▁Haig
▁Mais
▁Mare
▁Rale
▁aval
▁iPad
▁muck
donald
solete
▁Libya
▁Tessa
▁calib
[...]
